alignas(8) const unsigned char g_model[] = {
  0x24, 0x00, 0x00, 0x00, 0x54, 0x46, 0x4C, 0x33, 0x00, 0x00,
  0x00, 0x00, 0x00, 0x00, 0x00, 0x00, 0x00, 0x00, 0x12, 0x00,
  0x1C, 0x00, 0x04, 0x00, 0x08, 0x00, 0x0C, 0x00, 0x10, 0x00,
  0x14, 0x00, 0x00, 0x00, 0x18, 0x00, 0x12, 0x00, 0x00, 0x00,
  0x03, 0x00, 0x00, 0x00, 0xE8, 0x8B, 0x00, 0x00, 0x5C, 0x75,
  0x00, 0x00, 0x44, 0x75, 0x00, 0x00, 0x3C, 0x00, 0x00, 0x00,
  0x04, 0x00, 0x00, 0x00, 0x01, 0x00, 0x00, 0x00, 0x0C, 0x00,
  0x00, 0x00, 0x08, 0x00, 0x0C, 0x00, 0x04, 0x00, 0x08, 0x00,
  0x08, 0x00, 0x00, 0x00, 0x08, 0x00, 0x00, 0x00, 0x0E, 0x00,
  0x00, 0x00, 0x13, 0x00, 0x00, 0x00, 0x6D, 0x69, 0x6E, 0x5F,
  0x72, 0x75, 0x6E, 0x74, 0x69, 0x6D, 0x65, 0x5F, 0x76, 0x65,
  0x72, 0x73, 0x69, 0x6F, 0x6E, 0x00, 0x0F, 0x00, 0x00, 0x00,
  0xF4, 0x74, 0x00, 0x00, 0xE0, 0x74, 0x00, 0x00, 0x44, 0x74,
  0x00, 0x00, 0x30, 0x73, 0x00, 0x00, 0xEC, 0x72, 0x00, 0x00,
  0xC8, 0x72, 0x00, 0x00, 0xB4, 0x68, 0x00, 0x00, 0xA0, 0x48,
  0x00, 0x00, 0x8C, 0x00, 0x00, 0x00, 0x80, 0x00, 0x00, 0x00,
  0x6C, 0x00, 0x00, 0x00, 0x58, 0x00, 0x00, 0x00, 0x44, 0x00,
  0x00, 0x00, 0x30, 0x00, 0x00, 0x00, 0x04, 0x00, 0x00, 0x00,
  0x82, 0x8A, 0xFF, 0xFF, 0x04, 0x00, 0x00, 0x00, 0x10, 0x00,
  0x00, 0x00, 0x31, 0x2E, 0x35, 0x2E, 0x30, 0x00, 0x00, 0x00,
  0x00, 0x00, 0x00, 0x00, 0x00, 0x00, 0x00, 0x00, 0x00, 0x00,
  0x00, 0x00, 0x00, 0x00, 0x00, 0x00, 0x00, 0x00, 0x00, 0x00,
  0xB0, 0x7B, 0xFF, 0xFF, 0x00, 0x00, 0x00, 0x00, 0x00, 0x00,
  0x00, 0x00, 0x00, 0x00, 0x00, 0x00, 0xC0, 0x7B, 0xFF, 0xFF,
  0x00, 0x00, 0x00, 0x00, 0x00, 0x00, 0x00, 0x00, 0x00, 0x00,
  0x00, 0x00, 0xD0, 0x7B, 0xFF, 0xFF, 0x00, 0x00, 0x00, 0x00,
  0x00, 0x00, 0x00, 0x00, 0x00, 0x00, 0x00, 0x00, 0xE0, 0x7B,
  0xFF, 0xFF, 0x00, 0x00, 0x00, 0x00, 0x00, 0x00, 0x00, 0x00,
  0x00, 0x00, 0x00, 0x00, 0xF0, 0x7B, 0xFF, 0xFF, 0x00, 0x00,
  0x00, 0x00, 0xF2, 0x8A, 0xFF, 0xFF, 0x04, 0x00, 0x00, 0x00,
  0x00, 0x48, 0x00, 0x00, 0xE1, 0x13, 0x30, 0x00, 0xFF, 0x28,
  0x00, 0xC1, 0x29, 0x0E, 0x00, 0xE9, 0xFC, 0x00, 0x13, 0x21,
  0xFA, 0x13, 0xEF, 0x23, 0x11, 0x0E, 0x00, 0x13, 0xEE, 0xF5,
  0xFC, 0xFF, 0x46, 0xE3, 0x28, 0xEB, 0xEE, 0xCE, 0xFE, 0x00,
  0xEF, 0x00, 0x08, 0xE8, 0x19, 0x16, 0xFF, 0xE7, 0xD8, 0xD8,
  0x00, 0xFF, 0x05, 0x00, 0x00, 0x39, 0x10, 0x00, 0x28, 0x1C,
  0x04, 0x1F, 0x00, 0xE2, 0x40, 0xE7, 0x00, 0x2A, 0x00, 0xD8,
  0xDA, 0x04, 0xE1, 0x08, 0xDA, 0x12, 0x2F, 0x00, 0x4A, 0x1C,
  0x00, 0x15, 0x37, 0x01, 0x27, 0xAC, 0xED, 0xEC, 0x09, 0xDD,
  0x33, 0x14, 0x17, 0x05, 0x02, 0xEB, 0xE6, 0x10, 0xF0, 0xEE,
  0x16, 0xCE, 0xE2, 0x00, 0xE6, 0xF4, 0x00, 0xB8, 0xCE, 0x00,
  0xF6, 0x18, 0xF7, 0x29, 0x00, 0x00, 0x00, 0x0B, 0x00, 0x21,
  0xEB, 0xE7, 0xCF, 0x00, 0x27, 0x00, 0x0E, 0xCC, 0x31, 0x23,
  0xEB, 0xD4, 0x24, 0x00, 0x0A, 0x00, 0x00, 0x07, 0xFB, 0xC5,
  0x00, 0x0C, 0xF7, 0x07, 0x00, 0x2D, 0x16, 0xF5, 0x39, 0x00,
  0xCC, 0xF2, 0x24, 0x00, 0xFA, 0x1E, 0xFE, 0x39, 0x00, 0x00,
  0x16, 0x00, 0x46, 0x36, 0xCB, 0x1C, 0x02, 0x26, 0x28, 0xF0,
  0x00, 0x0F, 0x3A, 0x00, 0x0F, 0xCE, 0xFF, 0xBB, 0xCB, 0x10,
  0x2C, 0xFE, 0x07, 0x7F, 0xD7, 0xFF, 0x28, 0x25, 0x00, 0x4F,
  0xFE, 0x22, 0xF6, 0x00, 0x1C, 0x3D, 0x1D, 0x20, 0xF1, 0x25,
  0x17, 0x20, 0x12, 0x19, 0xEC, 0xDE, 0xE1, 0x44, 0xFB, 0xD9,
  0xE9, 0x00, 0xFC, 0x3C, 0xEB, 0x24, 0x08, 0xD2, 0xEA, 0xF9,
  0x39, 0xF1, 0xF0, 0x00, 0x00, 0xE3, 0x00, 0xDE, 0x27, 0x1F,
  0x23, 0x15, 0x29, 0x11, 0xEA, 0x00, 0xE4, 0x00, 0x10, 0x00,
  0xF6, 0x09, 0x00, 0xEF, 0xEA, 0x0A, 0xDF, 0x00, 0xFF, 0x00,
  0xE0, 0xFD, 0xCF, 0x00, 0x0A, 0x00, 0xFE, 0xF3, 0x1E, 0x00,
  0x18, 0x38, 0x00, 0x12, 0x07, 0x0A, 0x25, 0x0B, 0xCF, 0x00,
  0xD4, 0xBB, 0xF5, 0xD2, 0xCB, 0xCD, 0x03, 0x62, 0x22, 0xF9,
  0x2F, 0x00, 0xE7, 0x1E, 0xEF, 0x03, 0x0F, 0x01, 0xE2, 0xBD,
  0x1C, 0x28, 0xA8, 0xB9, 0x4E, 0xC5, 0x20, 0xCF, 0x12, 0xC4,
  0x00, 0xCC, 0x37, 0xC3, 0xDC, 0x7F, 0x0A, 0x00, 0x0D, 0xBA,
  0xDE, 0xBD, 0xCD, 0xD3, 0x35, 0xF2, 0xE8, 0x00, 0x42, 0x02,
  0x12, 0x02, 0x00, 0x3C, 0xC8, 0x47, 0x78, 0x08, 0x00, 0xCB,
  0xCC, 0x00, 0xF6, 0xC0, 0x63, 0x10, 0xDB, 0xFE, 0xF8, 0xF2,
  0x35, 0x00, 0xEA, 0xCE, 0xED, 0x00, 0x00, 0xEF, 0xEB, 0xF9,
  0x7F, 0x2D, 0xD3, 0xF8, 0xCE, 0xC6, 0x00, 0x53, 0x4A, 0x3B,
  0x26, 0xC3, 0xE6, 0x00, 0x0F, 0xC1, 0xF9, 0x16, 0xF1, 0x2D,
  0x3E, 0x00, 0xF8, 0xF7, 0x00, 0xB4, 0x32, 0xC7, 0xF8, 0x93,
  0xAA, 0x02, 0x13, 0x0C, 0x1A, 0xEB, 0x00, 0xC3, 0xF9, 0x00,
  0xB8, 0xFE, 0x1E, 0x00, 0xF5, 0x00, 0x00, 0xEB, 0xCC, 0xEA,
  0x5A, 0x00, 0xB0, 0xFA, 0x4C, 0x24, 0x00, 0x00, 0x1C, 0xE0,
  0x00, 0x12, 0x58, 0x00, 0xCA, 0xDD, 0xFC, 0x02, 0x09, 0x51,
  0xC7, 0x11, 0xEC, 0x00, 0x1E, 0xCF, 0x08, 0x00, 0x65, 0xEB,
  0xC0, 0x0B, 0x00, 0x05, 0xD3, 0x05, 0x02, 0x00, 0x56, 0x24,
  0x4B, 0xC9, 0x21, 0x00, 0x00, 0x0B, 0x9F, 0xD1, 0xE8, 0x4C,
  0x00, 0x00, 0x0B, 0x2F, 0x10, 0x0B, 0x00, 0xEB, 0xCB, 0x00,
  0x24, 0x23, 0xD3, 0xC8, 0x07, 0xFB, 0x00, 0x98, 0x25, 0xF4,
  0xE3, 0x13, 0x26, 0x00, 0xCC, 0x32, 0x60, 0x30, 0x00, 0xCE,
  0x00, 0x03, 0xFB, 0x35, 0x4D, 0x18, 0x00, 0x11, 0xDB, 0x7D,
  0xFE, 0x0C, 0xE9, 0x12, 0x50, 0x00, 0x8D, 0x0B, 0xCC, 0xD4,
  0x00, 0x3F, 0xEE, 0x00, 0x3C, 0x3E, 0xFF, 0xF0, 0xDD, 0x00,
  0x4A, 0xBF, 0x2E, 0xB3, 0x00, 0x8E, 0x02, 0x4E, 0x2E, 0xF7,
  0xE7, 0x00, 0x25, 0x3D, 0xC2, 0x17, 0xE1, 0x00, 0x92, 0xEC,
  0x13, 0x18, 0xFD, 0x0C, 0xFB, 0x16, 0xF7, 0xFD, 0x48, 0xC8,
  0xBC, 0x3B, 0xFD, 0x2D, 0x4C, 0xBA, 0x05, 0x1D, 0x25, 0x00,
  0x03, 0x05, 0x15, 0x19, 0x06, 0xC4, 0xD8, 0xFA, 0x0C, 0x07,
  0x00, 0x00, 0x00, 0x3C, 0xB9, 0x06, 0xE6, 0x29, 0xCC, 0xFD,
  0xC8, 0xCE, 0x95, 0xFA, 0x1D, 0x00, 0xE3, 0x31, 0x00, 0x00,
  0xF1, 0xF2, 0x00, 0xB3, 0x60, 0x00, 0x00, 0xFD, 0x10, 0xD4,
  0x1B, 0xF0, 0x0B, 0xEB, 0x15, 0x4F, 0x07, 0x00, 0x00, 0xE3,
  0x01, 0x12, 0x2D, 0x97, 0x22, 0x00, 0xCF, 0xC9, 0x35, 0xD8,
  0xF8, 0xFC, 0x00, 0x53, 0x00, 0x00, 0xDC, 0x01, 0x20, 0x00,
  0x54, 0x19, 0xB1, 0xF9, 0x07, 0x46, 0xE4, 0x04, 0x5F, 0xAF,
  0xC5, 0xF9, 0x00, 0x2B, 0x39, 0x4C, 0xF6, 0x0A, 0x00, 0xEC,
  0x00, 0x00, 0xF2, 0x60, 0xB3, 0x34, 0x00, 0x32, 0x28, 0xD8,
  0xC4, 0xE6, 0x66, 0xF6, 0xEC, 0x00, 0x00, 0xB8, 0x13, 0xD7,
  0xEA, 0x94, 0x00, 0x04, 0x00, 0xD7, 0xE3, 0x21, 0x36, 0x07,
  0x2C, 0xD8, 0xC2, 0xFF, 0x4D, 0x53, 0xF8, 0x1E, 0xAC, 0x17,
  0x12, 0x47, 0xD0, 0x00, 0xFA, 0x1E, 0x44, 0xFF, 0x20, 0xC7,
  0x2E, 0xD8, 0xE3, 0xEA, 0x24, 0xFC, 0x23, 0x14, 0xEA, 0xF6,
  0x00, 0x57, 0xBF, 0x00, 0x00, 0x17, 0xDC, 0x13, 0x26, 0x26,
  0x56, 0xF4, 0xFC, 0x00, 0xDE, 0xD8, 0x00, 0xE0, 0xD1, 0x33,
  0x08, 0x0F, 0x00, 0xDE, 0x00, 0x60, 0x2F, 0xB6, 0x00, 0x22,
  0xC4, 0xE9, 0x1F, 0xEE, 0xBF, 0x28, 0xEA, 0xD1, 0x00, 0xF2,
  0x07, 0xDA, 0xC6, 0x27, 0xF2, 0x00, 0x27, 0xD9, 0x43, 0x2B,
  0xB6, 0x16, 0x00, 0xCB, 0x1E, 0x81, 0x05, 0x70, 0xDA, 0xE1,
  0x2A, 0xCA, 0x02, 0x2C, 0xFD, 0x3C, 0x1C, 0x32, 0x00, 0x00,
  0x3F, 0xFD, 0xC1, 0x11, 0x1F, 0x2D, 0x00, 0x38, 0x21, 0xFB,
  0xF0, 0x43, 0x0E, 0xEC, 0x00, 0x13, 0x2D, 0xB9, 0x00, 0xF8,
  0x07, 0x28, 0x09, 0x35, 0xDE, 0x00, 0xCA, 0xEE, 0x00, 0x00,
  0xCE, 0x59, 0x08, 0x49, 0xFC, 0x00, 0x00, 0xFF, 0x1B, 0xA1,
  0x09, 0xDC, 0x37, 0xC6, 0x2D, 0x1F, 0xE3, 0x4A, 0xE1, 0x20,
  0x00, 0x4C, 0xD1, 0xEC, 0xD6, 0x23, 0xF4, 0xD7, 0x00, 0xA9,
  0x00, 0x00, 0x2B, 0xBE, 0x00, 0x2B, 0xCA, 0x1B, 0xF9, 0xC6,
  0xC9, 0xFE, 0xFB, 0x00, 0x39, 0xEA, 0xF9, 0xF6, 0xD6, 0x00,
  0x00, 0xCE, 0xC0, 0x0A, 0xBC, 0x67, 0xAD, 0x11, 0xFA, 0x08,
  0x37, 0x05, 0x1B, 0xBD, 0xFA, 0x4A, 0x9F, 0x00, 0x00, 0x36,
  0xBE, 0x00, 0x0E, 0xBF, 0x00, 0x00, 0x14, 0x00, 0x00, 0x0C,
  0xFA, 0xB1, 0x2C, 0x1A, 0x00, 0x00, 0xDF, 0x32, 0x8D, 0x00,
  0x3F, 0xD3, 0x2E, 0x2E, 0xCD, 0x00, 0x81, 0x33, 0xA5, 0x2D,
  0x26, 0x0C, 0xFD, 0xD1, 0x0E, 0xBC, 0x00, 0xE6, 0x00, 0x2E,
  0x36, 0x11, 0xE8, 0x13, 0x00, 0xFB, 0xFA, 0xDB, 0x30, 0xE5,
  0x1E, 0x00, 0x00, 0xCA, 0xD0, 0x0C, 0x00, 0x1F, 0xCA, 0x06,
  0x00, 0x00, 0x00, 0x00, 0x00, 0x06, 0x33, 0xFE, 0x0E, 0x00,
  0xFB, 0xCE, 0xF3, 0xEF, 0x17, 0xFB, 0x00, 0x2C, 0x02, 0xF5,
  0x0F, 0xF9, 0xD7, 0x00, 0xEF, 0x30, 0x00, 0x00, 0xCE, 0xFE,
  0x41, 0x32, 0x48, 0xE8, 0x00, 0xED, 0x2A, 0xD8, 0xE4, 0xF0,
  0x47, 0x9B, 0x4A, 0xFE, 0xE9, 0xDF, 0x00, 0x00, 0xD8, 0xD8,
  0x41, 0x00, 0xCE, 0x17, 0xAA, 0xC7, 0x45, 0xE1, 0x46, 0xE5,
  0xF0, 0x28, 0x00, 0x2C, 0x03, 0xE6, 0xF5, 0x00, 0x0F, 0xE7,
  0x00, 0x00, 0x00, 0x35, 0x00, 0x1D, 0x57, 0xCA, 0x00, 0x00,
  0x3E, 0x00, 0x30, 0x00, 0x00, 0xD8, 0xE6, 0x20, 0x38, 0xC8,
  0x00, 0x00, 0x00, 0x00, 0xCC, 0x0B, 0xE1, 0x00, 0x09, 0xDE,
  0x1B, 0x2F, 0x00, 0x08, 0x20, 0x39, 0x0B, 0xB1, 0x00, 0xF9,
  0x06, 0x25, 0x16, 0x0E, 0xD4, 0x0E, 0xD1, 0xA2, 0x13, 0xDB,
  0xF9, 0xCD, 0x9C, 0x05, 0x00, 0x2A, 0xF2, 0x07, 0x00, 0xCD,
  0x3F, 0xE8, 0x00, 0xD8, 0xCC, 0xD1, 0x00, 0xC2, 0x19, 0x00,
  0x27, 0xAF, 0x5C, 0xEE, 0xA9, 0xF7, 0x00, 0x0D, 0x05, 0x51,
  0xE3, 0x00, 0x32, 0x06, 0x00, 0x0B, 0xC7, 0xD6, 0xE8, 0x0A,
  0x30, 0xEB, 0xDC, 0x46, 0x12, 0x0F, 0x00, 0xFB, 0x00, 0x07,
  0x24, 0x0D, 0x41, 0xC4, 0x0B, 0x82, 0xCE, 0x19, 0x24, 0xDB,
  0x4B, 0x00, 0x00, 0x07, 0x53, 0x33, 0x5A, 0xE4, 0x12, 0x00,
  0xFB, 0xE4, 0xF2, 0x34, 0xBC, 0x36, 0xAC, 0x51, 0xC7, 0xE0,
  0xCD, 0x00, 0x26, 0xE1, 0x00, 0x34, 0x00, 0xFE, 0xEC, 0xDB,
  0xFD, 0xC3, 0xFF, 0x39, 0x00, 0xD4, 0xC4, 0x02, 0x00, 0x2B,
  0xD5, 0x25, 0xDF, 0xE1, 0x11, 0x00, 0x10, 0x46, 0xC4, 0x01,
  0x1D, 0x20, 0x26, 0x1C, 0x0A, 0x17, 0xDE, 0x0D, 0xFB, 0xD0,
  0x00, 0xBD, 0xAE, 0x00, 0xF2, 0xF8, 0xAB, 0x00, 0xFC, 0x1A,
  0x40, 0x2F, 0x00, 0x43, 0xF6, 0xFD, 0x00, 0xE4, 0x20, 0xF2,
  0xC6, 0x02, 0xFA, 0xDD, 0x06, 0x1B, 0xCE, 0x22, 0x12, 0x00,
  0xDD, 0xFB, 0x00, 0xFD, 0xF1, 0x55, 0x2D, 0xF8, 0xB9, 0xF1,
  0x06, 0x2A, 0xF4, 0x30, 0xFD, 0x26, 0xAA, 0xFA, 0x00, 0xFD,
  0xFE, 0x15, 0x00, 0x16, 0x17, 0xDF, 0x27, 0x02, 0xFE, 0x15,
  0x40, 0xF3, 0xFE, 0x00, 0x1B, 0xEA, 0xBB, 0x59, 0x13, 0xF4,
  0x1A, 0x09, 0xE1, 0x03, 0x1B, 0x08, 0x05, 0x03, 0xEF, 0xFB,
  0xF6, 0xB9, 0x33, 0x23, 0xD1, 0xF8, 0xF3, 0xF7, 0x00, 0x34,
  0x39, 0x00, 0xE6, 0xC4, 0xF1, 0x33, 0x00, 0xFA, 0xDD, 0x2B,
  0x32, 0xD5, 0x81, 0x1B, 0x1F, 0xD7, 0x26, 0xFA, 0xEC, 0x01,
  0xC9, 0x20, 0x0D, 0x1C, 0x05, 0x24, 0xE9, 0xE1, 0x09, 0x25,
  0xE1, 0x29, 0x0E, 0x2B, 0xE1, 0xE7, 0x15, 0x17, 0x17, 0x00,
  0xCC, 0x0D, 0x29, 0x22, 0xE3, 0x00, 0xE5, 0x21, 0x00, 0x05,
  0x2C, 0xFC, 0xD1, 0x0B, 0xF4, 0x00, 0x1F, 0x03, 0x19, 0x00,
  0x01, 0x1A, 0x07, 0xE8, 0xDF, 0x25, 0xFA, 0xEA, 0x00, 0x26,
  0x00, 0xE7, 0xFE, 0x3C, 0xFF, 0x25, 0x00, 0x12, 0xEA, 0x05,
  0x35, 0x1A, 0xFF, 0x03, 0xF3, 0xB8, 0x05, 0x10, 0x00, 0xE1,
  0x00, 0xE6, 0x2B, 0xFF, 0xE2, 0x00, 0x3E, 0x1D, 0x00, 0xDD,
  0x24, 0x0F, 0x00, 0x00, 0x00, 0xE7, 0xE5, 0xF3, 0xCB, 0x10,
  0x1D, 0xDA, 0x09, 0xEB, 0x15, 0xEE, 0xDD, 0x2D, 0x1D, 0x02,
  0xEC, 0xFC, 0xF1, 0xEE, 0xFD, 0x00, 0x09, 0xEC, 0x00, 0xDF,
  0xE0, 0xE6, 0x20, 0x0F, 0x2E, 0x09, 0x2B, 0x0C, 0xF7, 0xD0,
  0x0A, 0x09, 0x18, 0xFC, 0xF4, 0xFE, 0x00, 0xE7, 0x00, 0xF9,
  0xDA, 0x1D, 0x02, 0x00, 0x12, 0x00, 0x0A, 0xE4, 0xDB, 0x00,
  0x05, 0x01, 0xF8, 0xE7, 0x06, 0x00, 0x00, 0x24, 0x1A, 0x0A,
  0xFF, 0x2E, 0xE0, 0xE5, 0x1D, 0x14, 0x04, 0x00, 0xEE, 0x00,
  0xE8, 0x00, 0x00, 0x1D, 0xF8, 0x00, 0x00, 0xD6, 0xEB, 0xF6,
  0xE9, 0x16, 0x25, 0x2F, 0xC9, 0x11, 0x25, 0xCD, 0x00, 0x33,
  0x26, 0x1D, 0x00, 0xDB, 0xF3, 0x24, 0x00, 0x2C, 0x0B, 0xCE,
  0xD8, 0x15, 0xC0, 0xD3, 0xF1, 0xEA, 0x0E, 0xEE, 0xD8, 0x13,
  0xDE, 0x07, 0xF3, 0x02, 0x1F, 0x0C, 0xCC, 0x00, 0x1F, 0x0A,
  0x14, 0xF1, 0xE4, 0x5A, 0x23, 0xEC, 0xFB, 0x00, 0x2F, 0x00,
  0x16, 0x04, 0xE5, 0xEB, 0xFB, 0x2A, 0xE9, 0xE4, 0x01, 0x12,
  0x9D, 0x18, 0x03, 0x1A, 0xE8, 0x1F, 0x00, 0x23, 0x2F, 0x00,
  0xDE, 0xED, 0xDC, 0xFC, 0xE5, 0x56, 0x21, 0x7F, 0xF2, 0xE8,
  0x40, 0x02, 0xF8, 0x17, 0xD9, 0x07, 0xFD, 0xFA, 0xFF, 0x21,
  0x09, 0xA8, 0xFB, 0x15, 0xE0, 0xE0, 0x01, 0x04, 0x1E, 0xD7,
  0x25, 0x10, 0x00, 0xD6, 0x1B, 0xE5, 0xDF, 0xE5, 0x1D, 0xDD,
  0xF4, 0xF5, 0xE5, 0x2F, 0x00, 0x16, 0x1E, 0xEC, 0x31, 0xEF,
  0xB8, 0x15, 0x06, 0x00, 0xCE, 0x22, 0x20, 0x02, 0x31, 0xF3,
  0x20, 0xFF, 0x02, 0x17, 0xFE, 0x00, 0x15, 0x00, 0x1B, 0x02,
  0xDE, 0x51, 0xEB, 0xE5, 0x19, 0xF1, 0x00, 0x2A, 0x2B, 0x15,
  0x0D, 0x1E, 0x38, 0xF1, 0x1F, 0xF1, 0xD2, 0x04, 0x17, 0x00,
  0x00, 0xEA, 0xBE, 0x00, 0xEE, 0xFD, 0xF5, 0x24, 0x13, 0x10,
  0x05, 0x1C, 0x0A, 0x03, 0x01, 0x33, 0x15, 0xD3, 0xFE, 0xE1,
  0x42, 0xEB, 0xB2, 0xFA, 0xFB, 0x1B, 0xDF, 0xAF, 0xF5, 0x00,
  0x25, 0xDB, 0x0F, 0xD8, 0x0C, 0xF2, 0x25, 0x00, 0xD0, 0x00,
  0x00, 0xF1, 0xFA, 0x26, 0xFF, 0x04, 0x11, 0xF0, 0xFA, 0x0C,
  0x18, 0x02, 0x16, 0x29, 0x2A, 0xCD, 0x20, 0x02, 0xDA, 0xFA,
  0xD7, 0x0D, 0x1B, 0xF5, 0xE5, 0xD9, 0x00, 0x23, 0x00, 0x0B,
  0x00, 0x06, 0x09, 0x3C, 0x01, 0x00, 0xE4, 0x29, 0x00, 0x05,
  0xEF, 0xBF, 0x1D, 0xFB, 0x03, 0xF8, 0x00, 0x09, 0x00, 0xF5,
  0x02, 0xE9, 0xF8, 0x0E, 0x29, 0x00, 0x02, 0xF7, 0x17, 0xF3,
  0xFC, 0xF0, 0xFE, 0x04, 0x20, 0x03, 0x31, 0x1B, 0xE2, 0x05,
  0x0E, 0x10, 0xFE, 0xF9, 0xF7, 0xCC, 0x25, 0xD9, 0xF8, 0x1A,
  0x16, 0xF3, 0xEF, 0xDE, 0x00, 0x93, 0xD1, 0x50, 0xDF, 0x00,
  0x00, 0x34, 0xDA, 0x00, 0x3E, 0x00, 0xEB, 0x07, 0x0B, 0xB1,
  0x36, 0x40, 0x00, 0x04, 0x00, 0x07, 0x2F, 0xC8, 0x07, 0xF2,
  0x00, 0xD0, 0x17, 0x00, 0x00, 0xF0, 0xB1, 0x16, 0x1A, 0xE5,
  0x0D, 0x00, 0x00, 0x3C, 0x23, 0xEB, 0x00, 0xDF, 0xD2, 0xFE,
  0xD8, 0x81, 0x41, 0xFE, 0x4E, 0x3C, 0x25, 0x00, 0x26, 0x00,
  0xBA, 0xA6, 0x00, 0x29, 0x25, 0x32, 0xFD, 0xCE, 0x00, 0x00,
  0x1B, 0xC7, 0xF5, 0x41, 0x1F, 0x00, 0x26, 0x50, 0xE4, 0x24,
  0x00, 0x13, 0x00, 0xD3, 0xE5, 0xF5, 0x2E, 0x00, 0x00, 0x00,
  0xF8, 0x00, 0xCA, 0x00, 0xE5, 0x12, 0x9E, 0x0E, 0x00, 0xE6,
  0xDD, 0xD6, 0x09, 0x0C, 0x19, 0x00, 0xE7, 0x00, 0x02, 0x54,
  0x1E, 0xE1, 0x26, 0x40, 0xFE, 0xAD, 0x19, 0x05, 0xCE, 0x2F,
  0xE7, 0x04, 0x38, 0x04, 0x00, 0xCB, 0xF9, 0x49, 0xF0, 0xDA,
  0xFA, 0xFA, 0x02, 0x46, 0xF9, 0x29, 0x3C, 0xD1, 0x53, 0x00,
  0x00, 0x47, 0x09, 0x00, 0xD6, 0xF5, 0xF6, 0x00, 0xEA, 0xF5,
  0xCB, 0x0B, 0xE0, 0x1B, 0x2C, 0x47, 0x00, 0x04, 0x42, 0x2D,
  0x50, 0x01, 0x00, 0x00, 0x1F, 0x0A, 0x00, 0x00, 0xEB, 0x00,
  0xD6, 0xE9, 0x42, 0x43, 0x17, 0x00, 0xEE, 0x00, 0xEF, 0x00,
  0x2F, 0x19, 0x00, 0x25, 0x56, 0x2A, 0x42, 0x27, 0x07, 0x24,
  0x3E, 0x05, 0x00, 0xFB, 0x17, 0x53, 0xD3, 0x00, 0x4C, 0x00,
  0xCF, 0x24, 0x21, 0x0C, 0x4D, 0x24, 0x00, 0x00, 0x3C, 0xFD,
  0x00, 0x0F, 0x4E, 0x00, 0x18, 0xF8, 0x00, 0x35, 0xCA, 0x30,
  0xDC, 0x29, 0x00, 0xEE, 0xE5, 0x00, 0x28, 0x5F, 0x00, 0xC8,
  0x25, 0xF2, 0xF9, 0x27, 0xDC, 0x1E, 0xDF, 0x37, 0x3C, 0x4F,
  0x45, 0x3C, 0x00, 0x10, 0x21, 0xD7, 0xDD, 0xD6, 0xC5, 0xE9,
  0xF9, 0x04, 0x00, 0x00, 0xE4, 0xF9, 0x19, 0x27, 0x22, 0x4E,
  0x07, 0x00, 0x3C, 0x35, 0x00, 0x00, 0xBE, 0x2C, 0xF3, 0x0A,
  0x00, 0x43, 0x1C, 0x00, 0x00, 0x00, 0x29, 0x85, 0x00, 0x33,
  0xF8, 0xF5, 0x0D, 0xA8, 0x18, 0xF2, 0xE1, 0x88, 0x00, 0x0E,
  0x24, 0x20, 0xFB, 0x0B, 0x0D, 0x43, 0x1E, 0xEC, 0xF8, 0xF2,
  0xED, 0x2B, 0x08, 0xF3, 0xF3, 0xEE, 0x20, 0x41, 0x07, 0x3B,
  0xE2, 0x12, 0x01, 0xE1, 0xF9, 0x0E, 0xCF, 0x18, 0xF2, 0xDA,
  0x1B, 0xEF, 0x2C, 0xE2, 0xBD, 0xFD, 0x16, 0xFD, 0xC0, 0x43,
  0x0E, 0x2D, 0xCC, 0xDD, 0x22, 0xC6, 0x42, 0x08, 0xD9, 0xFC,
  0x0E, 0xC7, 0x24, 0x4A, 0x0D, 0x3A, 0xFA, 0xEC, 0xEF, 0x08,
  0xB9, 0xF1, 0xDD, 0x1C, 0xEE, 0x1E, 0xE4, 0xD3, 0xB5, 0xF1,
  0xD1, 0x2B, 0xF4, 0x06, 0xE3, 0x28, 0xE8, 0x18, 0xDB, 0xF4,
  0xDB, 0x81, 0x35, 0x42, 0x00, 0x0B, 0xFC, 0x32, 0x22, 0x08,
  0xAF, 0xBE, 0x00, 0xD2, 0xA6, 0xDA, 0x2E, 0xFB, 0x00, 0xB1,
  0x1B, 0xFE, 0x1B, 0x08, 0xE9, 0x42, 0x0C, 0xE3, 0xAD, 0xD8,
  0x3C, 0x42, 0x0B, 0xCF, 0xCC, 0x0D, 0x14, 0x46, 0x27, 0xE8,
  0x3D, 0xFB, 0xEA, 0x06, 0xFB, 0x09, 0xCD, 0xD6, 0x01, 0x02,
  0xF2, 0xBE, 0x01, 0x2F, 0x25, 0x07, 0xF3, 0xFD, 0xD2, 0x15,
  0xBD, 0xE4, 0x31, 0xCA, 0x28, 0xC3, 0x12, 0xB3, 0xD4, 0x00,
  0xC5, 0x28, 0xCC, 0x00, 0x1B, 0x05, 0x0F, 0x1B, 0xF3, 0x1C,
  0x08, 0xD8, 0xC4, 0x1C, 0x0A, 0x00, 0xBC, 0x34, 0xD6, 0xEF,
  0xCE, 0x0C, 0x44, 0xB5, 0xFC, 0xE8, 0xCE, 0x00, 0x3C, 0x9D,
  0xEA, 0x28, 0x21, 0xFC, 0xFE, 0xE0, 0xDC, 0xF8, 0xFD, 0x00,
  0xF3, 0x18, 0x26, 0xD2, 0xFA, 0xD8, 0xF0, 0x05, 0xED, 0x35,
  0x14, 0x10, 0x00, 0xC1, 0x00, 0x9D, 0xFD, 0xD0, 0x12, 0xDE,
  0xFF, 0x00, 0x24, 0x15, 0x30, 0xF7, 0xFC, 0x39, 0x0B, 0x20,
  0x24, 0x1E, 0x00, 0x5C, 0xED, 0x04, 0x00, 0x2C, 0xED, 0x00,
  0x09, 0xBC, 0x3C, 0xED, 0xE5, 0x08, 0x00, 0xF4, 0x1B, 0x0D,
  0x0A, 0x03, 0xF9, 0xF6, 0x11, 0xF6, 0x10, 0xF7, 0xF8, 0x00,
  0xDB, 0x07, 0x00, 0xC4, 0xD9, 0xFD, 0x16, 0xEF, 0x37, 0x09,
  0x1A, 0xE4, 0x0C, 0xF6, 0x05, 0xF8, 0x07, 0xFB, 0x25, 0x1D,
  0x05, 0x06, 0x2C, 0x0C, 0xF5, 0xF5, 0xFE, 0xDA, 0xE2, 0x2A,
  0xFB, 0x0B, 0x15, 0xF2, 0x35, 0x35, 0x00, 0x10, 0xED, 0xF7,
  0x10, 0xEB, 0x1E, 0xD0, 0x1B, 0x30, 0xF6, 0xFE, 0x24, 0x0B,
  0xE6, 0x15, 0x1A, 0x0B, 0xB0, 0xE0, 0xE5, 0x01, 0x08, 0xE7,
  0xFC, 0x01, 0x04, 0xD8, 0x00, 0x00, 0xFB, 0x26, 0x81, 0x9E,
  0xF8, 0xFF, 0x0F, 0xEE, 0x16, 0x11, 0x38, 0xDF, 0xE0, 0xE1,
  0x06, 0xD5, 0x04, 0xF1, 0x18, 0x37, 0x00, 0xE5, 0xEA, 0x00,
  0x00, 0xE1, 0xDD, 0x34, 0x29, 0x00, 0x33, 0xFC, 0xCC, 0x00,
  0xFD, 0xC5, 0xFE, 0x14, 0x51, 0x00, 0x2D, 0x24, 0x41, 0xD7,
  0x21, 0x37, 0xE0, 0xFD, 0xE7, 0x00, 0x2F, 0xDE, 0x09, 0x00,
  0x27, 0xCC, 0x2E, 0x1B, 0xEA, 0x02, 0x14, 0xE7, 0x00, 0x00,
  0x44, 0x25, 0x4D, 0x37, 0xFC, 0xD7, 0x15, 0x09, 0x0B, 0x17,
  0x12, 0x23, 0xEB, 0x2C, 0x3B, 0x36, 0xD7, 0xBE, 0xE5, 0xF3,
  0xE2, 0xE7, 0xD6, 0x00, 0x00, 0xFF, 0xEA, 0x33, 0x3F, 0x42,
  0x22, 0x32, 0x00, 0xDF, 0x00, 0x3D, 0xFA, 0x01, 0x00, 0xFC,
  0x00, 0x1D, 0x00, 0x31, 0xFE, 0xE2, 0x08, 0x32, 0xCE, 0xBE,
  0xFD, 0xE8, 0xFA, 0xF3, 0xFC, 0x25, 0xBC, 0x1D, 0x21, 0x00,
  0xD1, 0xF6, 0xF7, 0x2C, 0xD3, 0x23, 0x04, 0xDF, 0x18, 0xF1,
  0xF6, 0x00, 0xFA, 0x06, 0x2A, 0xE9, 0xDE, 0x03, 0xD4, 0x08,
  0xF7, 0x21, 0xF4, 0x0A, 0xEB, 0x32, 0xFE, 0xF7, 0x00, 0x2A,
  0xD2, 0xE7, 0xED, 0x08, 0x00, 0xF2, 0xB6, 0xFE, 0x07, 0xE6,
  0x04, 0xFC, 0xF6, 0xEF, 0x01, 0xF8, 0x04, 0x02, 0x2C, 0x00,
  0x3A, 0xFF, 0x01, 0xA6, 0xD3, 0xE9, 0x1C, 0x2C, 0x27, 0xE4,
  0x1C, 0x0E, 0x24, 0xFA, 0xD8, 0x39, 0x25, 0x38, 0x2D, 0x00,
  0xDB, 0x0D, 0x12, 0xFA, 0x07, 0xE5, 0x02, 0x1F, 0xE7, 0x03,
  0xF4, 0x1C, 0x05, 0xDC, 0xA6, 0x00, 0xE9, 0x08, 0x31, 0xAA,
  0x32, 0x39, 0x21, 0x19, 0xE3, 0xE9, 0x33, 0x14, 0x13, 0x13,
  0x00, 0x2D, 0x20, 0x24, 0x3F, 0x30, 0xF6, 0x24, 0x13, 0x06,
  0xE7, 0x2B, 0x08, 0x02, 0xF7, 0x22, 0xDD, 0xE5, 0x02, 0x21,
  0x00, 0x00, 0x35, 0xB2, 0x1E, 0xF2, 0xE1, 0xF1, 0x00, 0xFB,
  0x12, 0x00, 0x23, 0x01, 0x00, 0x00, 0xE8, 0xDF, 0x36, 0xAC,
  0xCD, 0xF0, 0x00, 0x0B, 0xE5, 0xEF, 0x2F, 0xDE, 0x1E, 0xEF,
  0x58, 0xF0, 0xC1, 0x2C, 0xFA, 0x03, 0x2C, 0xF1, 0x47, 0x07,
  0x00, 0xC7, 0x35, 0x09, 0xF1, 0x00, 0xF0, 0x20, 0x30, 0x01,
  0xC0, 0x4E, 0x00, 0x00, 0xCF, 0x1F, 0xCA, 0x34, 0x7A, 0xED,
  0xC3, 0x60, 0xE6, 0x21, 0xD3, 0xC6, 0x04, 0x27, 0xD8, 0xD5,
  0xCE, 0xF0, 0xE4, 0xF5, 0x42, 0xD9, 0xE8, 0x39, 0xC6, 0xE5,
  0x21, 0xD2, 0x02, 0x1E, 0x00, 0x00, 0x04, 0xD8, 0xFE, 0xB3,
  0x4E, 0xFC, 0xF0, 0x00, 0x0D, 0x40, 0xF7, 0x00, 0xE0, 0xF1,
  0x46, 0x2D, 0x00, 0xF3, 0xD6, 0x13, 0xE1, 0xDC, 0x05, 0xC8,
  0xCD, 0xE9, 0x3D, 0xFB, 0x00, 0x03, 0x36, 0xAD, 0xC4, 0x0D,
  0x46, 0x1D, 0xEA, 0x0B, 0x33, 0xE1, 0x45, 0xA1, 0x41, 0x00,
  0xF9, 0xEF, 0xC4, 0x03, 0x00, 0x05, 0xED, 0xF8, 0x04, 0x20,
  0xF3, 0x2F, 0xC7, 0x7F, 0xB2, 0xFE, 0x14, 0x4B, 0x00, 0xCD,
  0xFA, 0x04, 0x29, 0x41, 0x51, 0x60, 0x51, 0x4F, 0x33, 0xCC,
  0xF2, 0x06, 0xDD, 0xC0, 0x0E, 0xFF, 0xDF, 0xEE, 0x0D, 0xF0,
  0x04, 0x07, 0x00, 0xEF, 0xC6, 0x1D, 0xFC, 0xEE, 0x1F, 0x29,
  0xE8, 0xE1, 0xBE, 0x5D, 0xA0, 0xC9, 0x72, 0x06, 0xFF, 0x10,
  0xE1, 0xE4, 0xE1, 0x00, 0xC0, 0x09, 0x00, 0x00, 0xCF, 0xD9,
  0x2C, 0xB4, 0x07, 0x00, 0xCA, 0xD8, 0xD4, 0x04, 0x34, 0xFC,
  0x2A, 0x2C, 0xCC, 0x0A, 0x38, 0xA0, 0x35, 0x09, 0x24, 0xFC,
  0x62, 0x09, 0xE2, 0x00, 0x59, 0x08, 0x20, 0xF8, 0x3A, 0x00,
  0x08, 0xD7, 0xD1, 0xEB, 0x0D, 0xF3, 0xF7, 0x38, 0x38, 0x17,
  0x31, 0x0F, 0x1C, 0x22, 0x19, 0x10, 0x1B, 0x49, 0x16, 0xE4,
  0xB2, 0xD1, 0xF7, 0x06, 0x07, 0xB6, 0x2D, 0x3D, 0x11, 0x00,
  0x24, 0x01, 0x21, 0x00, 0x2B, 0xFC, 0x17, 0x09, 0xF9, 0x08,
  0x08, 0x2E, 0xC3, 0xDB, 0x0E, 0xD0, 0x04, 0x33, 0x3B, 0x08,
  0x40, 0x48, 0x4D, 0x28, 0x59, 0xC0, 0x31, 0x83, 0xF3, 0x00,
  0x65, 0x01, 0x4B, 0x12, 0x32, 0xF9, 0x1F, 0x0C, 0x00, 0xF9,
  0xC9, 0x06, 0xF1, 0x3F, 0xFB, 0x3C, 0xD3, 0xCC, 0xFE, 0xE8,
  0xBF, 0x00, 0x00, 0x00, 0xE5, 0x45, 0x56, 0x33, 0xFB, 0x4A,
  0x27, 0xF0, 0x00, 0x1E, 0x12, 0xC9, 0x00, 0xCA, 0xD4, 0x90,
  0x00, 0xD1, 0xEF, 0x00, 0x00, 0x3C, 0xC8, 0x00, 0x2E, 0x64,
  0x00, 0x0C, 0xE8, 0xDA, 0x4E, 0x42, 0xCF, 0x09, 0x35, 0x40,
  0xC9, 0x00, 0x00, 0xDF, 0x00, 0x00, 0xFF, 0x17, 0xCC, 0xE2,
  0xEA, 0x5D, 0xC9, 0x00, 0xC7, 0x00, 0xF5, 0xFD, 0xC7, 0x5E,
  0x94, 0xE1, 0x2E, 0x55, 0x00, 0x4F, 0x00, 0x20, 0x65, 0xE8,
  0xCA, 0xF4, 0x25, 0xBA, 0xC5, 0x04, 0x30, 0x02, 0x00, 0xD7,
  0x63, 0x1E, 0x00, 0x00, 0x00, 0x1D, 0x33, 0x00, 0x00, 0x00,
  0x35, 0xB6, 0x2C, 0xD6, 0xBE, 0x52, 0xFE, 0x00, 0x00, 0xD8,
  0xE2, 0x6D, 0x44, 0x00, 0x00, 0xBF, 0x00, 0xC4, 0x00, 0x40,
  0x3C, 0x00, 0x2B, 0x46, 0xE4, 0xC8, 0xFA, 0xE5, 0x3B, 0x4A,
  0x89, 0x00, 0x00, 0xFC, 0x00, 0xF6, 0xCB, 0x57, 0x00, 0x00,
  0x39, 0x00, 0xD9, 0xD9, 0xE9, 0x00, 0x11, 0xB5, 0x00, 0x1B,
  0xEA, 0xDB, 0x0E, 0x00, 0x1C, 0x5D, 0xC8, 0xCA, 0xCB, 0x17,
  0x00, 0x55, 0x10, 0x35, 0xE5, 0x00, 0x81, 0x28, 0x1C, 0x00,
  0xD7, 0x19, 0x00, 0x38, 0xB1, 0x12, 0x0E, 0x00, 0xD4, 0xBA,
  0xC1, 0x65, 0x12, 0x00, 0xF0, 0x50, 0x00, 0x53, 0xE4, 0xE1,
  0x3B, 0x00, 0x00, 0xB4, 0x00, 0x00, 0x00, 0xEE, 0x00, 0x00,
  0x00, 0x00, 0xFC, 0x2A, 0x00, 0x00, 0x3D, 0x51, 0x46, 0x0F,
  0x00, 0xF2, 0xB6, 0xED, 0xE7, 0x00, 0x04, 0x00, 0x20, 0xD4,
  0x17, 0x17, 0xAF, 0x8C, 0x00, 0xFF, 0x16, 0xFC, 0xD2, 0xEF,
  0x44, 0xE9, 0x2A, 0xDD, 0x35, 0xFC, 0x03, 0x00, 0x0B, 0x62,
  0xC3, 0x23, 0xDD, 0x45, 0xFE, 0x00, 0x1F, 0x64, 0x00, 0x43,
  0x00, 0x0F, 0xE9, 0x00, 0x42, 0xB1, 0x00, 0x6E, 0xE5, 0xC0,
  0x42, 0x38, 0xF7, 0xB4, 0x00, 0xFD, 0x1A, 0x00, 0x00, 0x3E,
  0x00, 0xAF, 0xF6, 0x5C, 0x48, 0xF0, 0x22, 0x00, 0xE1, 0xAC,
  0xDD, 0xE8, 0x11, 0x00, 0x40, 0x00, 0x48, 0x00, 0x2D, 0x37,
  0x00, 0xE4, 0xD3, 0x1A, 0x00, 0xFF, 0xE0, 0xA0, 0xD1, 0x11,
  0x3D, 0x26, 0xEA, 0xF0, 0x1E, 0x0C, 0x06, 0x3C, 0x02, 0x00,
  0x32, 0x00, 0xCB, 0xEB, 0xDF, 0x2C, 0x13, 0xC6, 0xCA, 0x3F,
  0xF5, 0x1B, 0xF1, 0x2E, 0x23, 0x11, 0xF5, 0x29, 0x00, 0xC4,
  0x27, 0xD4, 0x33, 0x1B, 0xC2, 0xC0, 0x34, 0xF2, 0x12, 0xE7,
  0xC0, 0x02, 0x00, 0xF5, 0xFD, 0x12, 0x06, 0x00, 0x13, 0xFF,
  0x08, 0x29, 0xC3, 0x19, 0x00, 0xC1, 0xFF, 0xFF, 0x00, 0xFD,
  0x43, 0xF1, 0x10, 0x00, 0x14, 0xE5, 0x53, 0xCE, 0xDE, 0x00,
  0xFE, 0xFA, 0x10, 0x6A, 0x10, 0x45, 0x38, 0xEB, 0x76, 0xCB,
  0x00, 0x2C, 0x1E, 0x01, 0x07, 0x09, 0x07, 0x2B, 0x00, 0x21,
  0x07, 0x00, 0xF7, 0x2B, 0xD6, 0x00, 0x5E, 0x2F, 0x00, 0x0C,
  0x00, 0xFB, 0x01, 0x16, 0x0C, 0x2B, 0xDA, 0x41, 0xF5, 0xD5,
  0x00, 0xD3, 0xEC, 0x13, 0x3A, 0xC7, 0x1C, 0x0B, 0xE7, 0x0F,
  0xFE, 0xB1, 0xDE, 0x08, 0xFA, 0xFD, 0x17, 0xC8, 0x32, 0x21,
  0x00, 0x11, 0xD9, 0x4C, 0xF1, 0xD5, 0x00, 0x51, 0x2C, 0x41,
  0xE1, 0xE7, 0x26, 0x18, 0xD4, 0x45, 0xD3, 0x34, 0xF3, 0x2A,
  0xFD, 0x00, 0x00, 0xDA, 0x1F, 0xDF, 0xEA, 0x41, 0xE7, 0x01,
  0xE7, 0x00, 0xEB, 0x00, 0xD2, 0x37, 0x00, 0xFC, 0xD0, 0x31,
  0x17, 0x6D, 0x00, 0x00, 0x12, 0x04, 0xD6, 0xFF, 0x1E, 0x1D,
  0xE4, 0x8A, 0xFB, 0xFD, 0xD8, 0x2F, 0xE4, 0x0C, 0x0F, 0x46,
  0x00, 0xE6, 0x36, 0x24, 0x32, 0x37, 0x00, 0xBB, 0xFC, 0xD7,
  0xD7, 0x00, 0x0F, 0x28, 0xF2, 0xE1, 0x3B, 0x2A, 0x00, 0x00,
  0x39, 0x28, 0x2E, 0xDF, 0x58, 0xE5, 0x00, 0x14, 0x24, 0x28,
  0x36, 0x56, 0x00, 0x00, 0xBA, 0xFC, 0xDD, 0x3A, 0x00, 0xFD,
  0x24, 0x09, 0x1E, 0x61, 0x28, 0x42, 0x00, 0x31, 0xF7, 0x00,
  0xCD, 0x00, 0xC6, 0x0A, 0x07, 0xF0, 0x35, 0xDD, 0x4E, 0x2B,
  0x02, 0x00, 0xFB, 0x02, 0xD8, 0xFF, 0x00, 0x1B, 0xD6, 0xBD,
  0xED, 0x38, 0xDB, 0x00, 0xE7, 0x51, 0x32, 0x00, 0xFF, 0x00,
  0x16, 0x00, 0x00, 0x81, 0x26, 0xD5, 0xBD, 0x00, 0x04, 0x00,
  0x0F, 0xEA, 0x2B, 0xC5, 0xF4, 0xE4, 0x02, 0x2E, 0x00, 0x13,
  0x44, 0xDE, 0x00, 0x45, 0x00, 0xED, 0x20, 0x98, 0xF8, 0x0D,
  0x09, 0x15, 0x07, 0x04, 0x0B, 0x81, 0x25, 0xAE, 0xE7, 0xFF,
  0x11, 0x1F, 0x19, 0x00, 0xEB, 0x00, 0x00, 0xB6, 0xBB, 0xE5,
  0x14, 0x07, 0x31, 0x46, 0x04, 0x22, 0x2D, 0x14, 0x01, 0x93,
  0x00, 0xD3, 0x0A, 0xE0, 0xF3, 0x00, 0x16, 0xB3, 0x51, 0xF3,
  0x14, 0xFA, 0xB0, 0x02, 0x41, 0x26, 0x08, 0xDA, 0xD9, 0xE4,
  0xFD, 0x01, 0x27, 0x09, 0x6F, 0x00, 0x07, 0x54, 0xFB, 0x0A,
  0xD7, 0xD9, 0xF2, 0x29, 0x00, 0x0A, 0x22, 0xE7, 0x12, 0xF5,
  0x39, 0xCE, 0x3D, 0xF3, 0x00, 0x40, 0x0C, 0x9A, 0x42, 0x06,
  0xBE, 0xEE, 0x0D, 0xF2, 0x03, 0x0B, 0x23, 0x0B, 0x54, 0x47,
  0xE1, 0x27, 0x48, 0xB9, 0x0C, 0xFF, 0x03, 0x00, 0xDC, 0x07,
  0x4E, 0xB4, 0xDD, 0xBD, 0x30, 0x00, 0xE6, 0x2F, 0xFA, 0x22,
  0x24, 0x27, 0x26, 0xFF, 0x1F, 0x03, 0xF0, 0xE6, 0xF5, 0x0F,
  0x51, 0x02, 0xD8, 0x11, 0x18, 0x94, 0x32, 0x0C, 0x3B, 0x0E,
  0x3B, 0x12, 0x66, 0xFD, 0xF5, 0x1F, 0x2B, 0x31, 0xE7, 0x08,
  0x02, 0x26, 0x0C, 0x15, 0x4D, 0x2D, 0x21, 0x43, 0xE4, 0x00,
  0x0A, 0x13, 0xE9, 0xEC, 0xC6, 0x08, 0x20, 0xD6, 0x38, 0x00,
  0x00, 0x39, 0x26, 0x14, 0x32, 0x70, 0x07, 0xF1, 0x43, 0x42,
  0xF2, 0xF0, 0x4A, 0x23, 0x60, 0x00, 0xD2, 0x52, 0xF6, 0xFF,
  0x22, 0xD1, 0x11, 0x00, 0x34, 0x0E, 0x00, 0x05, 0x00, 0x56,
  0x56, 0xC2, 0x0F, 0x2E, 0x22, 0x09, 0xF4, 0x00, 0xDF, 0xBC,
  0x2D, 0x02, 0xF2, 0xF0, 0xFA, 0xE6, 0x0D, 0x58, 0x0C, 0xFD,
  0x08, 0xF4, 0x08, 0xF9, 0xE8, 0x39, 0x08, 0x02, 0xC6, 0xD6,
  0xD8, 0x59, 0x2C, 0x18, 0x2B, 0x26, 0x05, 0xF0, 0x34, 0x0C,
  0x17, 0x00, 0x37, 0xEA, 0x27, 0x0B, 0x12, 0x56, 0x18, 0xCC,
  0x05, 0x41, 0xFB, 0x02, 0x0A, 0x24, 0xF2, 0xF1, 0xF0, 0x02,
  0xE7, 0x11, 0xF8, 0x50, 0xF2, 0xFB, 0xE0, 0x2D, 0x3D, 0x1D,
  0xEA, 0x03, 0x03, 0x04, 0xB5, 0xDB, 0x03, 0x00, 0x00, 0xEC,
  0x53, 0x0C, 0xC1, 0xCD, 0xF3, 0x1F, 0xEF, 0x00, 0xBE, 0x00,
  0xE0, 0x00, 0x20, 0x00, 0x0F, 0x00, 0x17, 0xCB, 0x29, 0x15,
  0xD7, 0xF7, 0xB6, 0xEA, 0xF7, 0x9A, 0x00, 0xE1, 0xB8, 0x33,
  0xFE, 0x21, 0xDD, 0x25, 0x2A, 0x00, 0x34, 0x00, 0x40, 0xD5,
  0xF8, 0x28, 0x1B, 0x38, 0xF4, 0xC6, 0x00, 0x00, 0xFD, 0x00,
  0x13, 0xD4, 0x00, 0xFF, 0xD2, 0x3D, 0x20, 0xF6, 0x43, 0x3B,
  0xD4, 0x00, 0x00, 0x00, 0x9E, 0xC8, 0x39, 0x27, 0xDC, 0x17,
  0xE0, 0xD0, 0x00, 0x00, 0x00, 0x32, 0x00, 0x00, 0x00, 0x7F,
  0x00, 0x72, 0xCF, 0x0F, 0x3D, 0xFD, 0xD4, 0x36, 0xF5, 0x2B,
  0x00, 0x2F, 0xEF, 0xE6, 0xB8, 0x8F, 0xFD, 0x19, 0xD4, 0x13,
  0xFE, 0x00, 0xFD, 0x00, 0x1F, 0x17, 0x00, 0xEA, 0xC4, 0x00,
  0x00, 0x00, 0xAE, 0x00, 0xE0, 0xB7, 0xF6, 0x11, 0x00, 0x01,
  0x37, 0xD0, 0x20, 0xEB, 0x00, 0xAC, 0xFC, 0x00, 0xCD, 0x38,
  0x06, 0x00, 0x12, 0x00, 0x36, 0xDC, 0xFC, 0x0D, 0xDB, 0xF4,
  0xFD, 0xEC, 0x00, 0x00, 0xA9, 0x00, 0xEB, 0xC8, 0xFF, 0xBA,
  0x20, 0x1D, 0x02, 0xFC, 0xF6, 0x39, 0x38, 0x18, 0x00, 0x0E,
  0x00, 0xEF, 0xED, 0x00, 0x00, 0xC2, 0xFA, 0x00, 0x00, 0xF4,
  0x88, 0xD3, 0xFD, 0x1B, 0x00, 0x00, 0xED, 0xCC, 0x0D, 0x00,
  0x2A, 0xF4, 0x13, 0x00, 0x40, 0x19, 0x00, 0xE3, 0x3C, 0x2B,
  0xD9, 0x44, 0xE5, 0x44, 0x02, 0x5B, 0x0D, 0x08, 0xA4, 0x00,
  0x3E, 0xF4, 0x00, 0x07, 0xCF, 0xF6, 0xFA, 0x3D, 0x00, 0x38,
  0x00, 0x00, 0x13, 0x9C, 0xFA, 0x06, 0xE4, 0xF9, 0x30, 0x00,
  0x00, 0xA0, 0x3D, 0x56, 0xD5, 0x10, 0xF5, 0x00, 0xE9, 0x2F,
  0xA4, 0x17, 0xC8, 0x1D, 0x0D, 0xEB, 0x08, 0x1D, 0x0D, 0x00,
  0x00, 0x4A, 0xE7, 0x00, 0x25, 0x1D, 0x00, 0x00, 0x00, 0xE2,
  0xE0, 0x00, 0x2C, 0x00, 0x1F, 0x34, 0xAB, 0xC9, 0x00, 0x25,
  0x25, 0x00, 0xF7, 0xE6, 0xED, 0xD8, 0x00, 0x98, 0x05, 0x00,
  0xFC, 0xED, 0x00, 0x24, 0x55, 0x16, 0xF7, 0x00, 0x39, 0xDD,
  0xED, 0xE3, 0x00, 0x00, 0x00, 0xFD, 0x58, 0xB9, 0x02, 0xDB,
  0xB9, 0x29, 0x46, 0x2B, 0xD9, 0x00, 0x3B, 0x72, 0xD2, 0x20,
  0xDC, 0xF6, 0x33, 0x9A, 0x00, 0x12, 0x33, 0x42, 0x43, 0x00,
  0x27, 0xE4, 0x0E, 0x98, 0x48, 0x00, 0xC1, 0x00, 0x55, 0xC6,
  0xAB, 0xEF, 0x1E, 0x61, 0x02, 0x00, 0x08, 0xFC, 0x07, 0xF7,
  0x0D, 0x20, 0x00, 0x1A, 0x2E, 0xF1, 0x31, 0x81, 0xA0, 0x00,
  0x00, 0xE9, 0x00, 0xDB, 0x35, 0xFC, 0xC9, 0x34, 0x23, 0xF1,
  0x04, 0x31, 0xEE, 0x17, 0x00, 0x03, 0xE1, 0x5A, 0xE0, 0x00,
  0xCB, 0x12, 0xC1, 0xF8, 0x39, 0x00, 0xFB, 0xF5, 0x00, 0x23,
  0xA8, 0x40, 0x2B, 0x3B, 0x00, 0x09, 0x00, 0x21, 0xF5, 0x13,
  0xFC, 0x3A, 0xD7, 0xB3, 0x6A, 0x97, 0xCF, 0xC9, 0x00, 0xBB,
  0x00, 0x20, 0xDC, 0x00, 0x3B, 0x00, 0x2A, 0x65, 0x00, 0xC0,
  0x00, 0xD2, 0x06, 0xD6, 0x00, 0xE8, 0x2C, 0xF9, 0xC0, 0xCF,
  0x48, 0x00, 0x12, 0xD3, 0x00, 0xDD, 0xF9, 0xF2, 0x00, 0x00,
  0x2E, 0x06, 0x3B, 0xE4, 0x00, 0x00, 0x0F, 0xB9, 0xDE, 0x49,
  0x50, 0x00, 0xC7, 0x00, 0x1D, 0x28, 0x2C, 0x00, 0x00, 0x00,
  0xFD, 0x4E, 0xED, 0x5C, 0x07, 0xD8, 0x00, 0x1E, 0x1E, 0x00,
  0xCE, 0xBD, 0xDE, 0x31, 0xF9, 0x2A, 0x06, 0xBF, 0x03, 0xB0,
  0x00, 0xBB, 0x3C, 0x64, 0x32, 0x04, 0xE1, 0x19, 0x09, 0x2A,
  0x26, 0xD0, 0xF9, 0x32, 0xFD, 0xEA, 0x44, 0x1F, 0x00, 0xA8,
  0xD1, 0x0F, 0x00, 0x35, 0x1F, 0x07, 0x0D, 0xF9, 0x15, 0xFC,
  0x01, 0xFA, 0x1F, 0x31, 0x00, 0x00, 0x16, 0xCE, 0x4A, 0xAE,
  0xD7, 0xE1, 0xBD, 0x5F, 0x40, 0xE1, 0x4B, 0xF2, 0x00, 0x39,
  0x1C, 0x0A, 0x24, 0x2A, 0x43, 0x2C, 0xF2, 0x04, 0x11, 0x39,
  0x00, 0xFD, 0xC0, 0xCC, 0x00, 0xFC, 0x45, 0x00, 0x15, 0xC6,
  0x00, 0x2A, 0x11, 0x03, 0x00, 0x00, 0x19, 0x36, 0x2D, 0xB4,
  0x34, 0x0A, 0xFB, 0xE0, 0xF7, 0x00, 0x00, 0xDE, 0x37, 0x54,
  0x16, 0x2F, 0xF3, 0x00, 0xFD, 0xE1, 0x0A, 0x01, 0x00, 0x04,
  0x02, 0xD7, 0x48, 0x19, 0xC1, 0x3A, 0xEC, 0xC8, 0xCA, 0xD3,
  0xBA, 0xD9, 0x00, 0x42, 0x00, 0xFE, 0xE7, 0x28, 0xE8, 0x1D,
  0xB1, 0xCE, 0x00, 0x52, 0x1D, 0xFD, 0xE4, 0xCA, 0x32, 0xF9,
  0xFA, 0x1E, 0xEB, 0x41, 0xB8, 0x0A, 0x40, 0xF6, 0xEB, 0x00,
  0x00, 0xFB, 0xFB, 0x5A, 0x06, 0x00, 0xE3, 0x22, 0x1C, 0xC1,
  0xEB, 0x00, 0xF7, 0x03, 0xB6, 0xE2, 0x02, 0xBA, 0x33, 0x09,
  0x00, 0xD2, 0x95, 0x39, 0x3E, 0x00, 0xF6, 0xF8, 0xD5, 0x00,
  0x36, 0x00, 0x32, 0x00, 0xFC, 0x00, 0x95, 0xBE, 0xE9, 0x25,
  0xD0, 0x03, 0x0E, 0xE6, 0x18, 0xFB, 0xB7, 0x0E, 0x47, 0xE7,
  0x2C, 0xC7, 0x00, 0x2D, 0xAA, 0xDC, 0x00, 0xE4, 0x39, 0x23,
  0x1D, 0x03, 0x1A, 0x26, 0xBE, 0x30, 0xD9, 0x32, 0xA0, 0xE2,
  0x02, 0xBF, 0x00, 0xE9, 0xEC, 0x29, 0x55, 0x00, 0xFC, 0x2E,
  0xD0, 0xEB, 0xFD, 0x02, 0x34, 0x3E, 0xDE, 0xE9, 0x18, 0xCC,
  0x00, 0x4A, 0xCD, 0x2B, 0x5A, 0xEB, 0xF1, 0xBC, 0x01, 0xFF,
  0xF4, 0x09, 0x22, 0x32, 0x00, 0x00, 0xC4, 0x11, 0x02, 0x1F,
  0x12, 0xD6, 0x47, 0xFF, 0xE9, 0xFD, 0xE0, 0xBC, 0x35, 0xFA,
  0xDA, 0x00, 0xE8, 0x19, 0x00, 0x52, 0x1D, 0xF5, 0xFD, 0xD9,
  0xE1, 0xF9, 0x00, 0x45, 0xD1, 0xDB, 0xEC, 0x1F, 0xF9, 0x3D,
  0xF3, 0x25, 0x06, 0x30, 0x00, 0x2C, 0xAE, 0x3D, 0xFB, 0xEF,
  0xEA, 0x29, 0xD9, 0x55, 0x86, 0xF9, 0x4F, 0xE0, 0x00, 0x00,
  0x47, 0x1B, 0x02, 0xCF, 0x05, 0x21, 0x00, 0xC0, 0x18, 0x14,
  0x00, 0xDE, 0xCB, 0x30, 0xE6, 0xE7, 0xC8, 0x0D, 0x2E, 0xD4,
  0x2D, 0x04, 0x00, 0xEB, 0xD9, 0xD2, 0xFA, 0x06, 0xBA, 0x02,
  0xF0, 0x22, 0x25, 0x42, 0x16, 0xDD, 0x05, 0xE7, 0x28, 0xCC,
  0x28, 0x1D, 0x2B, 0xED, 0x32, 0xDC, 0x00, 0x00, 0xE9, 0xF8,
  0x53, 0x81, 0xFC, 0x3E, 0x05, 0x28, 0xF5, 0x00, 0xEF, 0x42,
  0x65, 0x4F, 0x50, 0x10, 0x1E, 0x1E, 0x00, 0xE0, 0xF0, 0xC1,
  0x00, 0x5B, 0xE7, 0xF9, 0x23, 0xC0, 0x19, 0xE9, 0x00, 0x4C,
  0x12, 0xAB, 0xF7, 0xCB, 0x20, 0x4E, 0x1C, 0x73, 0x00, 0x05,
  0x00, 0x27, 0x77, 0xD7, 0x3F, 0xFA, 0xB7, 0xEE, 0xB1, 0xD4,
  0x2C, 0x3B, 0xD5, 0x1E, 0x09, 0xFE, 0x43, 0x07, 0x57, 0xB9,
  0x5C, 0x0B, 0x00, 0xF5, 0x00, 0x42, 0xB3, 0xEC, 0x00, 0xF1,
  0xE8, 0x00, 0xE2, 0xC7, 0x00, 0xE5, 0xC5, 0xF6, 0x00, 0xC6,
  0x00, 0x16, 0x4B, 0x42, 0xEF, 0x00, 0x4B, 0xE6, 0xED, 0x00,
  0xF7, 0x00, 0x16, 0x00, 0xE2, 0x36, 0xE9, 0x05, 0xDC, 0x13,
  0x06, 0x00, 0xEC, 0x0B, 0xE1, 0xF8, 0x00, 0xD5, 0xDE, 0xFA,
  0x4A, 0x5C, 0x31, 0xD1, 0x00, 0x00, 0x00, 0xD6, 0xFF, 0x25,
  0xF6, 0xD2, 0x15, 0x0D, 0x2C, 0xD7, 0x00, 0x00, 0xC7, 0xD5,
  0x00, 0x2D, 0x03, 0xCD, 0xCA, 0xF6, 0xF0, 0x00, 0x00, 0x00,
  0x14, 0x0D, 0x03, 0xE7, 0xE3, 0x26, 0xFC, 0x20, 0xF1, 0xD0,
  0x06, 0xC5, 0x33, 0x18, 0x00, 0x00, 0xC3, 0xF3, 0xCA, 0xB9,
  0x0D, 0xEF, 0xDD, 0x05, 0x34, 0x00, 0x00, 0x1D, 0x03, 0x06,
  0xD5, 0x9F, 0x03, 0x37, 0x08, 0x00, 0xD4, 0xFD, 0xF1, 0xA1,
  0x00, 0xF4, 0xE3, 0x40, 0xF8, 0x00, 0x2B, 0xFD, 0x2F, 0xBC,
  0xED, 0xFD, 0x00, 0x03, 0xCC, 0x2B, 0x07, 0xFA, 0x14, 0x1B,
  0x00, 0x00, 0xFC, 0xD9, 0x09, 0x46, 0x05, 0x3D, 0x22, 0x1F,
  0x1E, 0x00, 0xEB, 0x28, 0x16, 0x00, 0x0D, 0xD7, 0xFA, 0x00,
  0x09, 0x19, 0xF5, 0xAF, 0xEA, 0x00, 0xA9, 0xAD, 0x33, 0x00,
  0xF6, 0x09, 0xE2, 0x0D, 0x11, 0x40, 0x06, 0x00, 0x0C, 0xEE,
  0xF1, 0xC0, 0xF6, 0x01, 0x00, 0x1C, 0x00, 0x00, 0xFE, 0x00,
  0xD5, 0x44, 0xD0, 0x01, 0x32, 0x00, 0xDE, 0xFA, 0x28, 0xD9,
  0xEB, 0x39, 0x03, 0xEA, 0x31, 0xD2, 0x23, 0xE9, 0x5C, 0x4E,
  0x2E, 0xD6, 0x00, 0xD6, 0xFC, 0x0F, 0x04, 0x79, 0xFB, 0x28,
  0x38, 0x17, 0xED, 0x1A, 0x81, 0x0C, 0x00, 0xF9, 0x9D, 0xD2,
  0x20, 0x00, 0xE4, 0x36, 0x39, 0x09, 0x20, 0x27, 0xFB, 0xBB,
  0x00, 0x06, 0x07, 0x00, 0x00, 0x13, 0x00, 0xF8, 0x40, 0x10,
  0x20, 0xF9, 0x00, 0xBE, 0xFB, 0x09, 0xB4, 0x44, 0xB6, 0x14,
  0x1C, 0x00, 0xDD, 0xD4, 0xA8, 0xFD, 0x5D, 0x19, 0x31, 0x24,
  0xF5, 0xF9, 0x00, 0x00, 0xC8, 0xC9, 0xD4, 0x00, 0xD8, 0xE9,
  0x1D, 0xA5, 0xD0, 0x81, 0xE4, 0xCE, 0x00, 0x00, 0x09, 0x03,
  0x05, 0x0A, 0x00, 0x3D, 0x18, 0x47, 0x1F, 0xC4, 0x00, 0xF0,
  0xD2, 0x01, 0xD8, 0xD3, 0x1D, 0x01, 0x00, 0xFE, 0x01, 0x39,
  0xE9, 0x0A, 0x00, 0x31, 0x05, 0x00, 0xF8, 0x13, 0x35, 0xFD,
  0x00, 0xDD, 0xF6, 0xBF, 0x3C, 0x2B, 0x00, 0x00, 0x3D, 0x00,
  0xD5, 0xA0, 0x00, 0x20, 0xF4, 0x18, 0x07, 0xDD, 0x3C, 0xD7,
  0x26, 0x00, 0xD7, 0xDD, 0xDC, 0x31, 0xFC, 0xD5, 0x1F, 0x00,
  0xDB, 0x15, 0x00, 0x0B, 0xEB, 0xC6, 0xF3, 0x41, 0xE3, 0x63,
  0x5A, 0xC1, 0xCF, 0xCD, 0x1E, 0xFA, 0x13, 0xFB, 0x0B, 0x22,
  0xDE, 0xC9, 0x00, 0x50, 0x3B, 0x2E, 0xEB, 0xEE, 0x65, 0x04,
  0x27, 0x00, 0x18, 0xF5, 0x00, 0xC0, 0x16, 0xFD, 0x00, 0x00,
  0x00, 0x33, 0x38, 0x02, 0x16, 0xE9, 0x22, 0xCF, 0x00, 0xC5,
  0xEF, 0x42, 0x00, 0xFD, 0xFE, 0xF9, 0x00, 0x4B, 0xD6, 0xD6,
  0x5C, 0x47, 0x47, 0x2B, 0x0F, 0x00, 0x2D, 0xC5, 0x00, 0x38,
  0x00, 0x04, 0x00, 0x09, 0x43, 0x14, 0xC6, 0xD5, 0x04, 0xD3,
  0xDC, 0xD5, 0x24, 0x06, 0xFA, 0x36, 0x58, 0xCD, 0xE4, 0x3A,
  0x2E, 0x56, 0x61, 0xF7, 0x46, 0xE4, 0x06, 0x2C, 0x09, 0x1A,
  0x00, 0x24, 0x22, 0x8C, 0x02, 0x30, 0x0D, 0xF5, 0xD1, 0xE0,
  0x55, 0x2A, 0x49, 0x2C, 0xF3, 0xFA, 0x09, 0x35, 0x0C, 0xCA,
  0x0B, 0x25, 0x28, 0x06, 0x13, 0x05, 0xE2, 0x3D, 0x00, 0xFA,
  0x3B, 0x00, 0x03, 0x1C, 0xF0, 0x00, 0x00, 0xFB, 0xF5, 0xDB,
  0x09, 0x03, 0x00, 0x15, 0x03, 0x18, 0xBB, 0x31, 0x00, 0x00,
  0x0A, 0xC4, 0x01, 0xFD, 0x0A, 0x37, 0xD3, 0xD9, 0x07, 0xD3,
  0xF6, 0x34, 0xCB, 0x00, 0x32, 0x03, 0x1B, 0x00, 0x23, 0x16,
  0x36, 0x0B, 0xFA, 0xE4, 0x00, 0xE5, 0x16, 0xFE, 0x59, 0xC7,
  0xFB, 0x30, 0xE0, 0x20, 0xCF, 0x00, 0xFD, 0x1A, 0xD5, 0x00,
  0xE8, 0xD0, 0x00, 0x00, 0x00, 0x4B, 0x4B, 0x35, 0xFF, 0xF5,
  0xCC, 0xC7, 0xFA, 0x10, 0x35, 0xF3, 0x16, 0x14, 0x0A, 0x1B,
  0x01, 0x13, 0xC3, 0x1A, 0x2D, 0x00, 0xBE, 0x13, 0x00, 0x3C,
  0x2D, 0x09, 0x00, 0x04, 0xE4, 0x24, 0x00, 0x05, 0x3E, 0x1F,
  0xFA, 0xD7, 0x01, 0xD6, 0xCD, 0x62, 0xFE, 0x23, 0x0E, 0xE1,
  0xDA, 0xC3, 0x1F, 0x48, 0x1D, 0x7F, 0x00, 0xD9, 0x1F, 0x00,
  0x2D, 0x27, 0xED, 0xE2, 0xD0, 0xE2, 0xDE, 0x02, 0xFA, 0xE6,
  0xEA, 0xE9, 0xFC, 0x12, 0xDB, 0xEA, 0xCF, 0x4C, 0xFF, 0x00,
  0x00, 0x28, 0xD5, 0x05, 0xDD, 0xE7, 0xFA, 0x0A, 0xF3, 0x01,
  0x11, 0x00, 0xEC, 0x35, 0xF2, 0xE2, 0xD3, 0xD7, 0xFF, 0x03,
  0xED, 0xF4, 0xF5, 0xE7, 0xFE, 0x1B, 0xFD, 0xD6, 0xBE, 0x11,
  0x08, 0xEF, 0x03, 0x02, 0xED, 0x36, 0xDB, 0xF5, 0x02, 0xE9,
  0x38, 0xE7, 0xFA, 0xD3, 0xFB, 0x36, 0xFF, 0x0D, 0x0B, 0x34,
  0x09, 0xFB, 0xE6, 0x00, 0xEF, 0xF0, 0xB8, 0x0E, 0xF3, 0xDE,
  0x04, 0x3F, 0x00, 0xE5, 0xE6, 0x49, 0xDF, 0x39, 0x59, 0x14,
  0x22, 0x48, 0x07, 0x2B, 0x0B, 0xFA, 0x15, 0x14, 0xDC, 0xDC,
  0xCB, 0x05, 0x22, 0x1F, 0xFB, 0xFE, 0xF6, 0xEB, 0xC1, 0x29,
  0x36, 0xBF, 0x01, 0x00, 0x00, 0x14, 0xE8, 0xFD, 0xF1, 0xF2,
  0xF1, 0xAE, 0xE4, 0xF6, 0xFA, 0x00, 0x20, 0x0F, 0x00, 0xD8,
  0x3D, 0x0A, 0xF7, 0x11, 0xFE, 0xFB, 0xEB, 0x02, 0xB2, 0x13,
  0x23, 0xF6, 0x00, 0x35, 0x15, 0xD5, 0xFB, 0xCA, 0x05, 0x03,
  0xC4, 0xD5, 0x09, 0xDE, 0x35, 0x22, 0x1D, 0x23, 0xC0, 0xD2,
  0xF4, 0x0A, 0x00, 0xF7, 0x09, 0x0F, 0x01, 0x21, 0x36, 0xF2,
  0xDF, 0xE0, 0xFF, 0x00, 0x47, 0xDB, 0x22, 0x1B, 0xED, 0x00,
  0xFF, 0xDE, 0xF4, 0x17, 0x18, 0x30, 0x3F, 0x39, 0x03, 0x3B,
  0x1A, 0x09, 0xF8, 0xC0, 0x40, 0x24, 0x22, 0x09, 0xEA, 0x00,
  0x28, 0xF3, 0x0A, 0xC8, 0x4A, 0x33, 0xE5, 0xF1, 0xE1, 0xD1,
  0x27, 0x14, 0x12, 0x33, 0x11, 0x0B, 0xF5, 0xDF, 0x30, 0x0B,
  0x21, 0x18, 0x31, 0xFD, 0xFE, 0x2B, 0x14, 0xD9, 0x23, 0xF4,
  0xD3, 0xC3, 0x2C, 0x00, 0xDB, 0xF6, 0x4C, 0x52, 0xFC, 0x15,
  0x44, 0xEB, 0xA5, 0x58, 0x20, 0xD8, 0x02, 0x00, 0x00, 0x1D,
  0xE7, 0x00, 0xFA, 0x0C, 0x00, 0x37, 0x02, 0xD1, 0x00, 0xE3,
  0x00, 0xEC, 0x00, 0x52, 0xF8, 0x43, 0x18, 0x07, 0xB8, 0x2D,
  0xDE, 0xF3, 0xB0, 0xF7, 0xDF, 0xEE, 0xEB, 0x0B, 0x4B, 0x0D,
  0x0D, 0x0E, 0xB5, 0xD0, 0x03, 0x01, 0x9D, 0x51, 0x1E, 0xA7,
  0x10, 0xFA, 0xFF, 0x00, 0xA8, 0x2A, 0x00, 0xE6, 0xAD, 0x22,
  0x34, 0xF2, 0x2F, 0xFF, 0x9F, 0x11, 0xEB, 0xFC, 0x99, 0x29,
  0x00, 0xD8, 0x24, 0xF9, 0x46, 0xAC, 0x81, 0x2E, 0x93, 0xCB,
  0xF1, 0x1C, 0xCA, 0x24, 0x00, 0xF7, 0x72, 0xD1, 0x98, 0x07,
  0xAC, 0x00, 0x36, 0x16, 0x02, 0xFA, 0xCD, 0x75, 0x16, 0x15,
  0xF7, 0x30, 0xF0, 0x09, 0x25, 0x56, 0x25, 0x36, 0x8F, 0x47,
  0x00, 0xB1, 0x03, 0xF5, 0x42, 0xC7, 0x37, 0xDF, 0xC7, 0x01,
  0x06, 0x2D, 0x04, 0x00, 0x41, 0x2E, 0x30, 0x01, 0x54, 0xC9,
  0xC9, 0x08, 0xBE, 0x03, 0x01, 0x5D, 0xE2, 0xE9, 0x00, 0xC6,
  0xC8, 0x05, 0x37, 0x10, 0x27, 0xF6, 0x10, 0x2E, 0x39, 0xED,
  0x45, 0xD3, 0x43, 0xCB, 0xE2, 0x23, 0xEC, 0x1A, 0xE5, 0x34,
  0x23, 0x03, 0x1F, 0xDB, 0x00, 0xD1, 0x2D, 0x03, 0x3C, 0x10,
  0x4E, 0xF8, 0x2A, 0xEC, 0x24, 0x03, 0xD0, 0x3C, 0x02, 0x02,
  0xFB, 0xE8, 0xC7, 0xC8, 0x24, 0xE6, 0x11, 0x06, 0x04, 0x16,
  0x02, 0x16, 0x2E, 0x71, 0x09, 0x49, 0xD0, 0xD7, 0x24, 0xD1,
  0x4C, 0xEC, 0x2C, 0xDC, 0x02, 0xD2, 0x40, 0xD9, 0x2A, 0xA8,
  0x3F, 0x37, 0x01, 0x0A, 0x1F, 0xD7, 0x1D, 0x03, 0xED, 0x16,
  0x27, 0xF7, 0x05, 0x36, 0x06, 0x00, 0x06, 0x30, 0x33, 0xF1,
  0xFA, 0x49, 0x0E, 0xE1, 0xFD, 0x00, 0xD7, 0x02, 0x3B, 0x0A,
  0x33, 0x2D, 0x47, 0x05, 0x2F, 0x4C, 0x03, 0xC1, 0xC8, 0xE3,
  0x03, 0x05, 0x56, 0x93, 0xCD, 0xE7, 0x1C, 0xFD, 0xE3, 0x1B,
  0x01, 0x46, 0x01, 0xD3, 0x46, 0xF7, 0xCB, 0x35, 0x2C, 0xE5,
  0x05, 0x13, 0x40, 0x27, 0x4F, 0x2F, 0xFB, 0xD1, 0x3D, 0x17,
  0xB6, 0x05, 0x55, 0x0A, 0x0C, 0x94, 0x1D, 0x0C, 0x01, 0x31,
  0xF8, 0x4D, 0x0B, 0x04, 0x00, 0xA9, 0x00, 0xF5, 0xB6, 0x2B,
  0xFF, 0x00, 0xF5, 0x00, 0x2E, 0x08, 0x00, 0x73, 0x41, 0x02,
  0xFC, 0xC0, 0xF9, 0x11, 0x06, 0xC8, 0x0A, 0x21, 0x08, 0x00,
  0x06, 0x5A, 0xC5, 0xDA, 0xD5, 0xB3, 0x04, 0x10, 0x10, 0x63,
  0xC8, 0x10, 0x25, 0xF3, 0x00, 0xF2, 0xC0, 0x0F, 0x00, 0xDD,
  0x06, 0x0C, 0x00, 0xF2, 0x2B, 0xF5, 0x00, 0x0E, 0x12, 0xFB,
  0x3C, 0x02, 0xBD, 0x1E, 0x18, 0x0D, 0xC3, 0xF7, 0x00, 0xEE,
  0x31, 0xFC, 0x00, 0xB2, 0xC4, 0xFA, 0x0C, 0x2C, 0x0E, 0x00,
  0x54, 0x00, 0x07, 0x0C, 0x16, 0xC3, 0x29, 0xF5, 0x00, 0x21,
  0xC5, 0x4E, 0x37, 0x3F, 0x00, 0x62, 0xCF, 0x00, 0xDC, 0x05,
  0x00, 0xF3, 0xCB, 0x00, 0x2A, 0x00, 0x1E, 0x25, 0x00, 0x00,
  0x00, 0xB7, 0x0A, 0x01, 0xCE, 0x27, 0x48, 0xCF, 0x05, 0x00,
  0xF6, 0xF8, 0xD8, 0x29, 0xF8, 0x0C, 0x1A, 0x4B, 0xB2, 0xE3,
  0x2D, 0x1B, 0x0E, 0x1E, 0x04, 0x01, 0x28, 0xE4, 0xCA, 0x0F,
  0x3A, 0x3B, 0xF0, 0x00, 0x00, 0x14, 0xF8, 0xA6, 0xD6, 0x00,
  0x07, 0xF2, 0x00, 0xDD, 0x00, 0xBC, 0x26, 0xB2, 0x2E, 0x7A,
  0x00, 0x00, 0xE0, 0x02, 0x33, 0xC9, 0xAD, 0x00, 0x26, 0x05,
  0x09, 0x00, 0x26, 0x00, 0xE6, 0xFD, 0xBD, 0x01, 0x36, 0xD9,
  0x17, 0xC7, 0x00, 0xFB, 0x99, 0x00, 0xD1, 0x42, 0xD3, 0x10,
  0x30, 0x6B, 0xF6, 0x7F, 0x18, 0xBD, 0xFE, 0xCE, 0x00, 0x3F,
  0x65, 0x1E, 0xDB, 0x1D, 0x00, 0x00, 0xED, 0x21, 0xC5, 0x00,
  0x35, 0x0C, 0xFB, 0xCA, 0xD8, 0x17, 0x00, 0xCD, 0x00, 0x1E,
  0x8C, 0x1E, 0xE3, 0x14, 0xD6, 0x43, 0xF3, 0xEE, 0x14, 0xFC,
  0x4F, 0x0D, 0xB9, 0xFB, 0x02, 0xF5, 0x2A, 0xF7, 0x04, 0xDB,
  0x00, 0x00, 0xCF, 0x02, 0x3F, 0xFB, 0x40, 0x05, 0x35, 0x00,
  0x2E, 0x02, 0xAB, 0x00, 0x22, 0x4E, 0xE9, 0x00, 0xF6, 0xDD,
  0x38, 0xD0, 0x50, 0xF0, 0x37, 0xCF, 0x02, 0x00, 0x00, 0xBE,
  0xAE, 0x02, 0xFA, 0x0E, 0xE5, 0xE6, 0xCC, 0xE8, 0x44, 0x20,
  0x64, 0x34, 0xF8, 0xF2, 0xDA, 0x12, 0xEC, 0x00, 0x98, 0x46,
  0x12, 0xEC, 0xF2, 0xF6, 0x24, 0xFB, 0x36, 0x37, 0x00, 0x42,
  0x00, 0x11, 0x00, 0x00, 0x56, 0x0B, 0x1D, 0x23, 0x32, 0xDA,
  0xDF, 0x00, 0x32, 0x4D, 0x00, 0xF9, 0x00, 0x3B, 0x47, 0x8F,
  0x1F, 0xB4, 0xD3, 0xCD, 0xBC, 0x00, 0x98, 0x00, 0xDF, 0x00,
  0x4A, 0x00, 0x06, 0xED, 0x1D, 0x00, 0x4B, 0x00, 0x44, 0x45,
  0x47, 0x00, 0x00, 0x00, 0x28, 0xAF, 0x00, 0x00, 0x00, 0x00,
  0x4C, 0x36, 0x00, 0xC9, 0x00, 0x2C, 0x00, 0xD5, 0xD8, 0x34,
  0x45, 0x00, 0xE6, 0x00, 0xF3, 0x00, 0x00, 0x5C, 0x94, 0x36,
  0x00, 0x00, 0xD4, 0x32, 0xEA, 0x15, 0x40, 0xD1, 0x00, 0x00,
  0xD2, 0x00, 0xE4, 0x00, 0x16, 0x50, 0xAC, 0xCB, 0x07, 0x00,
  0xE5, 0x00, 0x00, 0x00, 0x0F, 0x16, 0x00, 0x5E, 0x00, 0xF3,
  0xDF, 0x00, 0x00, 0xE9, 0xDB, 0x21, 0xE6, 0x00, 0xCF, 0x52,
  0xEF, 0x6A, 0x00, 0x00, 0x23, 0xBD, 0x00, 0x2A, 0x31, 0x24,
  0x1F, 0x1B, 0x00, 0x06, 0xC4, 0x81, 0x2F, 0x4C, 0xAC, 0x00,
  0x43, 0x00, 0x29, 0x00, 0x00, 0xEE, 0x00, 0xCA, 0x30, 0x00,
  0x00, 0x3D, 0x1F, 0x00, 0x21, 0xE2, 0x00, 0x34, 0x3A, 0x00,
  0x46, 0x00, 0xD8, 0x4E, 0x49, 0xE7, 0x00, 0xCF, 0x00, 0x55,
  0xD9, 0x00, 0x00, 0x00, 0xC0, 0x00, 0xDB, 0x00, 0x00, 0x1B,
  0xF8, 0x31, 0x1D, 0x00, 0x00, 0xD8, 0x00, 0xAB, 0xCF, 0x5B,
  0xF7, 0xEC, 0x40, 0x3B, 0x00, 0x41, 0x00, 0xF5, 0x00, 0xC9,
  0xD4, 0x0C, 0xD9, 0x2B, 0x00, 0xAD, 0xE4, 0x00, 0xD3, 0x38,
  0x21, 0x04, 0xD4, 0xD7, 0x00, 0x0B, 0xFB, 0x00, 0x44, 0x1A,
  0x00, 0x16, 0xE4, 0x00, 0x29, 0x02, 0x00, 0x3A, 0xE5, 0xC0,
  0x00, 0xCE, 0xD0, 0x00, 0x00, 0x00, 0x36, 0x35, 0x1E, 0xD3,
  0x00, 0xF9, 0x35, 0xF2, 0xD2, 0xD5, 0x00, 0x00, 0xFB, 0x3C,
  0xDF, 0xE6, 0x21, 0xB1, 0x00, 0xCD, 0x00, 0x00, 0xF9, 0x39,
  0xF8, 0x00, 0x00, 0xEF, 0x00, 0x31, 0x00, 0xD7, 0x51, 0xCB,
  0xDE, 0x00, 0x21, 0x69, 0x16, 0x25, 0x20, 0xEB, 0xE2, 0x00,
  0xF6, 0x41, 0x35, 0xE6, 0x00, 0xF6, 0x33, 0xF1, 0x00, 0xEF,
  0x0B, 0x08, 0x00, 0x00, 0x00, 0x05, 0xFD, 0x67, 0xCB, 0xDD,
  0x00, 0x4E, 0x00, 0x6F, 0xC1, 0x06, 0x6A, 0xB7, 0x00, 0x00,
  0x45, 0x0C, 0x20, 0xD6, 0x00, 0x00, 0xFE, 0x05, 0x24, 0xD6,
  0x77, 0x00, 0xDB, 0x5C, 0x00, 0x59, 0x00, 0x3A, 0x02, 0x34,
  0xFA, 0x47, 0x2E, 0x00, 0x45, 0x7F, 0x52, 0x6B, 0x2D, 0xD7,
  0x1A, 0x00, 0x31, 0x02, 0x11, 0x00, 0xDD, 0xB8, 0x43, 0x00,
  0xF6, 0x41, 0x0A, 0x24, 0x00, 0xD7, 0x00, 0x34, 0x00, 0x00,
  0x73, 0x08, 0x00, 0x3B, 0xC7, 0x00, 0x9F, 0x23, 0x00, 0x00,
  0xF6, 0x00, 0x38, 0xCA, 0xFA, 0xC4, 0x00, 0xA1, 0xBC, 0xC3,
  0x2F, 0xDB, 0xEA, 0x51, 0xB7, 0x3B, 0x00, 0x00, 0x9E, 0x00,
  0x07, 0xE3, 0x63, 0x00, 0x63, 0x28, 0xD8, 0xFA, 0x00, 0x13,
  0xA8, 0x40, 0x00, 0x02, 0xC6, 0x29, 0x00, 0x2C, 0x2B, 0xD7,
  0xCC, 0x00, 0xD5, 0xB9, 0x02, 0x2C, 0xB7, 0x4E, 0xD9, 0x60,
  0x44, 0xBE, 0xB7, 0x17, 0x3F, 0xE3, 0x00, 0xCA, 0x00, 0xD4,
  0x00, 0x18, 0x00, 0x00, 0x29, 0x00, 0xD3, 0x16, 0x00, 0x37,
  0x2E, 0x00, 0x22, 0x06, 0xC3, 0x62, 0x0B, 0xC6, 0xC8, 0x23,
  0x00, 0xF1, 0x31, 0xCA, 0x0C, 0x3F, 0xF6, 0x00, 0xFB, 0x2C,
  0x32, 0x00, 0xD9, 0x19, 0x00, 0xFD, 0x00, 0xD7, 0xA2, 0x31,
  0x4E, 0x36, 0xFD, 0x00, 0x1D, 0xDB, 0xBC, 0xCD, 0x37, 0xB1,
  0xFA, 0x14, 0xA1, 0xF7, 0x0C, 0x26, 0x3E, 0xCA, 0x99, 0x23,
  0x00, 0xBC, 0x2D, 0x09, 0x00, 0xCB, 0xFD, 0xFE, 0x0D, 0x29,
  0x3A, 0x1B, 0x03, 0xE4, 0xB7, 0x47, 0x4D, 0x00, 0xC3, 0x1D,
  0x48, 0x1F, 0x00, 0xE4, 0x2F, 0xE1, 0xE2, 0x00, 0x03, 0xAA,
  0x1A, 0x44, 0x10, 0xD0, 0x35, 0x2A, 0xD9, 0xD4, 0xDB, 0x22,
  0x00, 0x00, 0x03, 0x02, 0x00, 0xFD, 0xFD, 0x46, 0x52, 0x22,
  0x38, 0x00, 0x00, 0x10, 0x00, 0x43, 0xDA, 0x46, 0x68, 0x3B,
  0x39, 0xCB, 0xB1, 0x00, 0x00, 0xE5, 0x09, 0xE5, 0xA8, 0x00,
  0x00, 0xF3, 0x00, 0x4B, 0x17, 0xE9, 0x4C, 0x00, 0x60, 0x38,
  0x28, 0x3D, 0x20, 0xDD, 0x00, 0xFF, 0xD6, 0x32, 0x21, 0xEC,
  0x42, 0xC7, 0xFA, 0x00, 0xD0, 0xC7, 0x21, 0xDE, 0xD1, 0xFC,
  0x00, 0x00, 0x1F, 0x19, 0x05, 0xF8, 0xE5, 0xE6, 0x55, 0x12,
  0xFD, 0xA0, 0xEA, 0xDA, 0xD1, 0x62, 0xF4, 0x3F, 0xAE, 0x06,
  0x28, 0x2F, 0xFC, 0x0D, 0xD4, 0x21, 0xFA, 0x00, 0x0C, 0x18,
  0xFC, 0x00, 0xD7, 0xFE, 0x1C, 0x3B, 0x1D, 0x2F, 0x00, 0x1A,
  0xDF, 0xF9, 0xC0, 0xAC, 0xDC, 0x1A, 0xE3, 0x51, 0x18, 0x11,
  0x0B, 0xFD, 0x07, 0x00, 0x00, 0x41, 0x00, 0xFA, 0xF4, 0xDF,
  0x1C, 0x00, 0x18, 0x18, 0xC2, 0x0E, 0x10, 0xF8, 0x2E, 0x3A,
  0xBD, 0x28, 0x00, 0xE4, 0x1F, 0x00, 0x09, 0xDB, 0x00, 0x00,
  0x17, 0xE2, 0x21, 0x35, 0xD1, 0x25, 0xE8, 0x00, 0x07, 0xF1,
  0xFA, 0x00, 0x3E, 0xCC, 0xE0, 0x00, 0xC2, 0xBF, 0x2D, 0xDC,
  0x27, 0xD7, 0x84, 0x35, 0x11, 0xCA, 0xF0, 0xB0, 0x2D, 0x24,
  0xEC, 0x1F, 0xE4, 0x38, 0xC5, 0x06, 0x37, 0x11, 0xDA, 0xDA,
  0xF7, 0xEF, 0x03, 0x0F, 0xB1, 0xC9, 0x0B, 0xFE, 0xDB, 0xD0,
  0xFE, 0x0A, 0x0F, 0x1C, 0x00, 0xDE, 0x43, 0xBE, 0xF9, 0xE7,
  0x19, 0x4D, 0xD7, 0x35, 0xED, 0x3D, 0xC0, 0x22, 0xF2, 0x35,
  0xD9, 0xE7, 0x0B, 0xDA, 0xCE, 0xF8, 0xC8, 0x0D, 0x37, 0x19,
  0xAD, 0x0C, 0x04, 0x2B, 0x38, 0x03, 0xDF, 0xDC, 0x3E, 0x16,
  0xCE, 0x03, 0x31, 0xF6, 0x06, 0xC6, 0x01, 0xDD, 0x31, 0x21,
  0xD6, 0x2F, 0x00, 0x2A, 0x3E, 0xE0, 0xF3, 0xFD, 0x21, 0x04,
  0x2D, 0xFA, 0x00, 0xF8, 0x10, 0xF3, 0x00, 0xC2, 0x23, 0x29,
  0x07, 0x04, 0xB3, 0xF8, 0xE0, 0xEB, 0x0C, 0x04, 0xBC, 0x15,
  0x0C, 0x00, 0x24, 0x00, 0x4A, 0x20, 0xEE, 0x07, 0xF8, 0x08,
  0xB3, 0x00, 0x00, 0xF1, 0x07, 0x06, 0x38, 0xDA, 0x08, 0xF9,
  0x10, 0xFB, 0xF5, 0xF3, 0xE0, 0x00, 0xE8, 0xDA, 0x25, 0x00,
  0x08, 0xEF, 0xDD, 0x1A, 0x0E, 0x0E, 0xE6, 0xF3, 0x0B, 0x0A,
  0x29, 0xFE, 0x24, 0x30, 0x00, 0x0C, 0xEC, 0x3E, 0x20, 0xC7,
  0x1F, 0x35, 0x03, 0x00, 0x28, 0x34, 0x03, 0x12, 0x1C, 0x40,
  0x2F, 0x00, 0xF1, 0x81, 0x02, 0x00, 0xE8, 0x15, 0x4A, 0x00,
  0x2D, 0x0A, 0xE7, 0xF2, 0x36, 0x00, 0x23, 0xEF, 0x00, 0x5D,
  0x00, 0x35, 0x00, 0x28, 0x1F, 0xD4, 0x00, 0x22, 0x00, 0xF2,
  0x00, 0xCC, 0xCF, 0x1B, 0x46, 0x22, 0x9C, 0x40, 0x44, 0x00,
  0xF7, 0x00, 0x07, 0x4F, 0x2A, 0x3F, 0x4C, 0xE1, 0x00, 0xE3,
  0xA1, 0x00, 0x13, 0x07, 0xA1, 0x00, 0x07, 0x37, 0x00, 0xDA,
  0x0F, 0xBD, 0x23, 0xE7, 0xE4, 0x00, 0x00, 0x00, 0x2A, 0x3D,
  0x00, 0x32, 0x00, 0xCA, 0xBF, 0xCE, 0x25, 0xC8, 0x00, 0xEB,
  0x00, 0xFC, 0xF5, 0xC6, 0x00, 0xEA, 0x98, 0x46, 0xEC, 0x00,
  0x1B, 0x45, 0x0A, 0x00, 0x1F, 0x34, 0xF8, 0xD5, 0x20, 0x1A,
  0x1C, 0xEE, 0xC5, 0xD3, 0xE4, 0x00, 0x99, 0xFB, 0xA2, 0x00,
  0xCE, 0xDD, 0xC2, 0x74, 0x1B, 0xD3, 0xE1, 0x00, 0x2D, 0x00,
  0xC6, 0x31, 0xFA, 0xC6, 0x1C, 0x00, 0xD9, 0xEC, 0x00, 0xB0,
  0x12, 0xF9, 0xFD, 0x00, 0x1C, 0xB7, 0xFD, 0xF2, 0x31, 0x68,
  0xD0, 0xED, 0xA9, 0x18, 0x00, 0x00, 0x1B, 0xE3, 0x2A, 0x00,
  0x26, 0x00, 0x1D, 0x26, 0x2B, 0xF3, 0x00, 0x2E, 0x2F, 0x15,
  0x00, 0x00, 0x00, 0x00, 0x35, 0xC8, 0x2F, 0x3F, 0x01, 0xC7,
  0x08, 0x28, 0xC4, 0x00, 0x34, 0x22, 0x00, 0x00, 0xFC, 0x28,
  0x32, 0x4E, 0x00, 0x23, 0x00, 0xDF, 0x38, 0x00, 0x42, 0xFA,
  0xD4, 0x00, 0xDA, 0xF2, 0x20, 0x1B, 0xDB, 0xDB, 0x44, 0xD1,
  0x11, 0x41, 0x00, 0x47, 0xC8, 0xED, 0x1D, 0xE0, 0x00, 0xBC,
  0xC2, 0xCB, 0x0F, 0x00, 0x00, 0xEA, 0x46, 0xD4, 0x00, 0xEC,
  0x36, 0x0B, 0x28, 0xD9, 0x00, 0x00, 0x5B, 0x00, 0xC7, 0xED,
  0x00, 0x61, 0x26, 0x00, 0xB3, 0xE8, 0x12, 0xCE, 0xA2, 0x4D,
  0x00, 0xC7, 0x22, 0x38, 0xDE, 0xCE, 0x00, 0x32, 0x46, 0x00,
  0x39, 0x2D, 0x26, 0xE5, 0x27, 0xD2, 0x00, 0x12, 0x36, 0x00,
  0xF1, 0x00, 0x00, 0x00, 0x00, 0x00, 0x27, 0x00, 0x1A, 0x00,
  0x00, 0x00, 0x00, 0x36, 0xE4, 0x00, 0xF4, 0x16, 0xD9, 0x24,
  0x0D, 0x00, 0xE8, 0xE7, 0x00, 0xDD, 0xD2, 0x17, 0x00, 0x7F,
  0x00, 0x1A, 0xE8, 0xBB, 0xFB, 0xB9, 0x2E, 0x23, 0xB3, 0x00,
  0x00, 0x00, 0xF9, 0x00, 0xE4, 0x00, 0x1A, 0xD1, 0x16, 0x16,
  0x20, 0x09, 0xB1, 0xEF, 0xF8, 0xDB, 0xE2, 0x06, 0xEA, 0x21,
  0x0A, 0x1F, 0xE7, 0x08, 0x04, 0xE5, 0x2B, 0xF0, 0x0B, 0x19,
  0xFA, 0x15, 0xDD, 0xCC, 0xF7, 0x8C, 0x3B, 0x3C, 0x17, 0x2A,
  0x25, 0x4F, 0x18, 0xDC, 0xFD, 0xF8, 0xF0, 0xE5, 0x33, 0x1A,
  0xDC, 0xE3, 0x1F, 0x0D, 0x0A, 0xCD, 0x7F, 0x19, 0x0E, 0x3D,
  0x04, 0xE0, 0xF5, 0xC5, 0x58, 0xED, 0x57, 0x13, 0x12, 0xF9,
  0x6D, 0xF8, 0x00, 0x15, 0x17, 0xD2, 0x0B, 0xE3, 0xE5, 0x09,
  0x28, 0xFC, 0xD6, 0xFF, 0x20, 0x16, 0x05, 0x00, 0x4F, 0xF1,
  0x38, 0x0C, 0xC9, 0xE0, 0x2B, 0xFB, 0x1C, 0xC5, 0x34, 0xFE,
  0x01, 0x3F, 0xF0, 0x94, 0x00, 0x09, 0xD2, 0xEB, 0xFC, 0x0A,
  0x0D, 0xFB, 0xBB, 0x00, 0xE6, 0xF6, 0x0A, 0x2C, 0xD4, 0x49,
  0xEA, 0x11, 0x0A, 0x32, 0xD6, 0xFA, 0xFD, 0x36, 0xD3, 0x15,
  0x24, 0x25, 0x08, 0xB2, 0xF0, 0xE3, 0xEF, 0xDE, 0xEA, 0x05,
  0xE0, 0x02, 0xFD, 0x35, 0xFC, 0xDC, 0x22, 0xEE, 0xF6, 0xF9,
  0x03, 0xBE, 0x12, 0x08, 0xBF, 0xFA, 0xED, 0x0F, 0x2B, 0xC4,
  0xCC, 0xFE, 0x07, 0xE6, 0xFB, 0xD3, 0xF4, 0x19, 0x15, 0xFA,
  0x16, 0x02, 0xFB, 0x1A, 0xD3, 0xFD, 0x1A, 0x66, 0xFA, 0x04,
  0x29, 0x28, 0x12, 0xDF, 0xF9, 0xD4, 0xD4, 0x0F, 0xF4, 0x31,
  0x16, 0xD4, 0xF8, 0x4C, 0x1B, 0xD3, 0xF8, 0xA6, 0xFB, 0x20,
  0x07, 0xCD, 0xE1, 0xC4, 0x1A, 0x08, 0x24, 0xF8, 0xD3, 0x3E,
  0x25, 0x03, 0x26, 0x02, 0xED, 0x08, 0xFB, 0x0B, 0x39, 0xFC,
  0xFA, 0x31, 0x24, 0xE4, 0x0B, 0x00, 0xD4, 0xF2, 0x0A, 0xFE,
  0x07, 0x31, 0x13, 0x30, 0x26, 0xF3, 0x00, 0xF4, 0x1A, 0xE8,
  0xC2, 0x47, 0x03, 0x1B, 0xFD, 0x24, 0xEE, 0xFC, 0xF5, 0xFA,
  0xE6, 0xBC, 0x00, 0x33, 0x12, 0x4A, 0x07, 0x00, 0x07, 0xFD,
  0xB9, 0x00, 0x00, 0x04, 0xDF, 0xF5, 0xE4, 0x01, 0x0F, 0xDB,
  0xFB, 0x30, 0xC0, 0x08, 0x20, 0x28, 0x02, 0x04, 0xB4, 0x00,
  0xEF, 0x16, 0xFD, 0xD3, 0x00, 0xF0, 0xFA, 0xE6, 0xEC, 0xE8,
  0xDC, 0x00, 0xD4, 0x00, 0xFD, 0xE2, 0x31, 0x05, 0xFD, 0xD0,
  0x2D, 0xDB, 0xFD, 0xCA, 0x49, 0x00, 0xFD, 0xFE, 0x1D, 0xCB,
  0xFF, 0x21, 0x00, 0xEB, 0x32, 0xFF, 0x00, 0xF6, 0x1F, 0x0D,
  0xCB, 0x21, 0xED, 0xF9, 0x17, 0xEC, 0x41, 0x16, 0x00, 0x16,
  0x00, 0x06, 0x25, 0xC7, 0xEE, 0xCF, 0x45, 0x19, 0xE7, 0xFC,
  0x19, 0x00, 0xF5, 0x15, 0x69, 0xFE, 0x08, 0x00, 0x04, 0x08,
  0x24, 0xFC, 0x1E, 0xFD, 0x19, 0x1A, 0x00, 0x19, 0x0E, 0x49,
  0x25, 0x00, 0x00, 0xDD, 0x3C, 0x22, 0x50, 0x05, 0x2F, 0x32,
  0x2C, 0x51, 0x0F, 0x81, 0xD0, 0x8C, 0xF6, 0xC5, 0xDE, 0x26,
  0x08, 0xC7, 0x2F, 0x08, 0x00, 0x3C, 0x33, 0x0A, 0xEE, 0xE7,
  0x07, 0x0F, 0x14, 0x00, 0x3B, 0xD1, 0x4E, 0x2A, 0x00, 0xFE,
  0xDB, 0x0C, 0x32, 0x0C, 0x00, 0x05, 0x00, 0x19, 0x02, 0x13,
  0xDF, 0x00, 0x03, 0x27, 0x34, 0x1F, 0x00, 0xFE, 0x38, 0x6B,
  0x1C, 0xFF, 0xEE, 0xEE, 0x29, 0xFA, 0xD9, 0x26, 0x29, 0xFC,
  0x00, 0xEE, 0x20, 0x1A, 0xD1, 0xF8, 0xEC, 0x11, 0x1B, 0x28,
  0x39, 0x2A, 0x3B, 0xFF, 0xD7, 0x4E, 0xDA, 0x4D, 0x3E, 0xFF,
  0xF5, 0xF2, 0xC7, 0x00, 0xF2, 0xD9, 0xFE, 0x17, 0x0F, 0x3E,
  0xD8, 0x19, 0xE2, 0x11, 0x5A, 0xC8, 0xEC, 0x11, 0x02, 0xFF,
  0xFC, 0xAC, 0x09, 0x1F, 0x0D, 0xF9, 0x1A, 0xEE, 0xBD, 0x1B,
  0x0F, 0xFF, 0xF4, 0xD3, 0xF8, 0x06, 0x1F, 0xC6, 0xD1, 0xE6,
  0x00, 0x19, 0x00, 0x40, 0x1E, 0x00, 0x0F, 0x45, 0xFA, 0xDD,
  0xD5, 0xE9, 0x00, 0xE6, 0xD6, 0x28, 0xF1, 0xE3, 0xFC, 0xD9,
  0x01, 0xFF, 0xE6, 0x00, 0x00, 0x1B, 0xF9, 0x05, 0x09, 0xE6,
  0xED, 0xF6, 0xFA, 0x1B, 0x1D, 0xF4, 0x03, 0x01, 0x04, 0x00,
  0x3F, 0xF2, 0xDD, 0xDA, 0x35, 0xFE, 0x16, 0x05, 0xE1, 0x0F,
  0x28, 0xF6, 0x1E, 0xDD, 0x08, 0x00, 0xE0, 0x32, 0x1C, 0x00,
  0x32, 0x21, 0xC4, 0x1A, 0x18, 0xE9, 0x00, 0x00, 0x20, 0xFB,
  0xFA, 0xFB, 0xED, 0x9C, 0xE5, 0xA6, 0x06, 0xEE, 0x00, 0x15,
  0x00, 0x00, 0x0A, 0x24, 0x22, 0x26, 0x00, 0x33, 0x1C, 0x00,
  0x01, 0xDA, 0xE2, 0xF1, 0x00, 0x1E, 0xED, 0xFF, 0x14, 0xE3,
  0x3A, 0xE3, 0x00, 0xEF, 0x26, 0x20, 0x23, 0x02, 0xE6, 0x01,
  0xF2, 0x00, 0x1A, 0x2D, 0x3A, 0x0B, 0xF5, 0x11, 0x05, 0xE2,
  0x19, 0xE1, 0x1A, 0x11, 0x00, 0x02, 0xE4, 0x0B, 0xDD, 0xFF,
  0xED, 0x00, 0x00, 0x00, 0xEE, 0x13, 0x29, 0x14, 0xDC, 0x2F,
  0x12, 0x00, 0x00, 0x00, 0xE8, 0x1D, 0x2D, 0x00, 0x11, 0xE2,
  0xDD, 0x12, 0xE7, 0xE7, 0x10, 0xF0, 0x56, 0xDD, 0x00, 0xF4,
  0xFB, 0xD1, 0xD0, 0xFF, 0x32, 0xF8, 0x00, 0x00, 0x00, 0x1C,
  0x00, 0x32, 0xE7, 0x00, 0x02, 0xE7, 0xFC, 0xC5, 0x00, 0x21,
  0x00, 0x18, 0xFE, 0xE0, 0x00, 0x00, 0xF6, 0xEA, 0xEB, 0xE6,
  0x2A, 0x02, 0x11, 0xEB, 0x02, 0x00, 0xED, 0x0C, 0xFE, 0xE0,
  0x2B, 0xDF, 0x20, 0x02, 0xE4, 0xE6, 0xD3, 0x17, 0xE8, 0x1C,
  0xFF, 0x08, 0x2B, 0x49, 0x18, 0xF0, 0x02, 0x29, 0x01, 0x00,
  0xEB, 0x22, 0x0F, 0x00, 0xEA, 0xFD, 0x1C, 0x12, 0x00, 0x00,
  0x02, 0xD8, 0x13, 0xF3, 0x00, 0x43, 0x00, 0x00, 0x19, 0xF0,
  0xE8, 0x1C, 0x31, 0x32, 0xF0, 0xE8, 0xF9, 0xDF, 0x05, 0x18,
  0xED, 0x00, 0x00, 0x10, 0x1D, 0x19, 0x02, 0x00, 0xEA, 0x11,
  0x00, 0x1A, 0x1B, 0xDF, 0x14, 0xF8, 0xDC, 0x00, 0x00, 0x7F,
  0x00, 0x00, 0x00, 0xFF, 0xFC, 0x14, 0x12, 0x0E, 0x23, 0x14,
  0x17, 0x00, 0x00, 0xC0, 0x00, 0x1C, 0xDE, 0xC2, 0x24, 0xFE,
  0x38, 0xE9, 0x00, 0xF4, 0x04, 0xF5, 0x29, 0x0F, 0x13, 0x3F,
  0xAD, 0x04, 0x0A, 0xE3, 0x25, 0xD0, 0x0E, 0xFE, 0x0A, 0x3D,
  0x1F, 0x00, 0xDB, 0x05, 0xD7, 0xE0, 0x03, 0x00, 0x1C, 0x00,
  0x00, 0xE4, 0x2A, 0x00, 0xD7, 0xF8, 0x19, 0xFD, 0x01, 0x05,
  0x1A, 0x44, 0xD9, 0xEC, 0x00, 0x00, 0x00, 0xFE, 0x00, 0x2D,
  0xFF, 0x2C, 0x1B, 0x18, 0xED, 0xE9, 0xF3, 0x00, 0x07, 0xE9,
  0x1E, 0x07, 0xEB, 0x14, 0x08, 0x19, 0x00, 0xDA, 0xD5, 0xF0,
  0xE6, 0xE9, 0x25, 0x50, 0x23, 0x2E, 0xE0, 0x00, 0x3C, 0xFB,
  0x08, 0x0D, 0xEC, 0x0F, 0xE0, 0x0C, 0x2C, 0x26, 0xE7, 0x1B,
  0x00, 0x9A, 0x11, 0x00, 0xAA, 0x52, 0xE3, 0xE8, 0xD9, 0x00,
  0x00, 0x00, 0x00, 0x00, 0x0F, 0xD4, 0x37, 0xA1, 0x3B, 0x00,
  0xE7, 0x6D, 0x23, 0xA2, 0xBC, 0xCF, 0xA8, 0xE0, 0x11, 0x00,
  0x00, 0xBA, 0xE1, 0x17, 0x0D, 0x44, 0x39, 0xC5, 0x00, 0xCE,
  0x09, 0x2C, 0x0B, 0x00, 0xB7, 0xCE, 0xCC, 0xE8, 0xEF, 0x41,
  0xFF, 0xB2, 0xD8, 0xD7, 0x88, 0xEA, 0x3D, 0xB0, 0x70, 0x22,
  0xA9, 0xDE, 0x4B, 0xE7, 0x00, 0x0F, 0x00, 0x50, 0xD0, 0x00,
  0x00, 0xFF, 0x8E, 0xFB, 0x05, 0x33, 0x00, 0x10, 0x41, 0x00,
  0xFD, 0x56, 0xE8, 0x3F, 0x05, 0x00, 0x25, 0x5F, 0xFC, 0x32,
  0xFE, 0x00, 0x60, 0xE6, 0x07, 0x30, 0xC1, 0xE0, 0x00, 0x00,
  0x1A, 0x15, 0x24, 0x38, 0xF8, 0x47, 0x0C, 0x23, 0xF9, 0xC2,
  0x00, 0xB0, 0x12, 0xFD, 0x28, 0x0F, 0xF4, 0x15, 0x81, 0x00,
  0xE1, 0xBB, 0x07, 0x2B, 0xE0, 0xED, 0x0E, 0xB7, 0x23, 0x00,
  0x1D, 0x4A, 0xEE, 0xBC, 0xF4, 0xFD, 0xE2, 0x4B, 0x0F, 0x41,
  0xEF, 0x66, 0x03, 0x37, 0x0D, 0x00, 0x0A, 0x0C, 0xCF, 0x96,
  0xF4, 0x00, 0xC0, 0xD4, 0x28, 0x00, 0x14, 0xAE, 0x55, 0xCF,
  0x00, 0xF3, 0x07, 0xFD, 0x05, 0xE2, 0x38, 0xD2, 0xF7, 0x0A,
  0x05, 0x48, 0xFB, 0x00, 0x3D, 0x60, 0x0F, 0x9A, 0xE6, 0x1C,
  0xC5, 0xC4, 0x00, 0x2D, 0x0F, 0xB2, 0x3D, 0x29, 0x00, 0x02,
  0x00, 0x8A, 0x03, 0x0A, 0x04, 0x35, 0x09, 0xE8, 0xF4, 0xFC,
  0x2A, 0xE7, 0x00, 0x2E, 0x39, 0xFF, 0xE1, 0x54, 0xFC, 0xE9,
  0x18, 0x04, 0xD1, 0x00, 0x25, 0x18, 0x06, 0x02, 0x00, 0x09,
  0x3F, 0xF8, 0x00, 0x10, 0x02, 0x00, 0x37, 0x00, 0x0E, 0x09,
  0xD1, 0xFE, 0xF3, 0x11, 0x00, 0x1D, 0x13, 0x6C, 0xF5, 0x0E,
  0x02, 0x4E, 0x14, 0x05, 0x06, 0x00, 0xFE, 0xF9, 0xB9, 0xC1,
  0x2D, 0xF9, 0xEB, 0xF0, 0xC6, 0x00, 0xE5, 0x1A, 0x23, 0xE1,
  0x2A, 0x01, 0x17, 0xA4, 0x2D, 0x3C, 0x1F, 0x36, 0x16, 0x00,
  0xF0, 0x00, 0x00, 0x1B, 0x51, 0x00, 0xF9, 0x00, 0xE3, 0x29,
  0x01, 0xD9, 0x0E, 0x0D, 0x00, 0xEC, 0xDC, 0xE8, 0xD0, 0xC8,
  0x00, 0x00, 0x1C, 0xE4, 0x0A, 0x00, 0x1C, 0xC5, 0xF9, 0xEF,
  0x3E, 0x11, 0xE9, 0xF7, 0x03, 0x2B, 0x00, 0x00, 0x3B, 0xD9,
  0x44, 0xD2, 0xD1, 0xEE, 0xBE, 0x1E, 0xF2, 0x21, 0x00, 0x00,
  0xFF, 0x00, 0x2A, 0xF5, 0x00, 0x2A, 0x00, 0xD9, 0x00, 0xF7,
  0x42, 0x37, 0x00, 0x00, 0x15, 0x00, 0xED, 0x00, 0x00, 0x1C,
  0xC4, 0x15, 0x00, 0xC6, 0xE2, 0x00, 0xCE, 0x24, 0xA7, 0x00,
  0xF3, 0x00, 0x5D, 0x44, 0x1E, 0xC5, 0x14, 0x00, 0x00, 0x00,
  0xF7, 0xE4, 0x3B, 0x00, 0x34, 0x44, 0x3C, 0x81, 0xDD, 0xA4,
  0x00, 0xE0, 0xAD, 0x00, 0x58, 0xFD, 0x5E, 0x19, 0x37, 0x00,
  0xBA, 0x00, 0x33, 0x23, 0x00, 0x1D, 0x17, 0x0B, 0x28, 0x2C,
  0xEF, 0x00, 0x2F, 0xF9, 0x2E, 0x36, 0xED, 0xDC, 0x29, 0xD0,
  0x00, 0xD8, 0x40, 0x00, 0x1A, 0x2D, 0x00, 0x3D, 0xBE, 0x3D,
  0x35, 0x0D, 0x4D, 0xEF, 0x00, 0x1A, 0x06, 0x00, 0xEC, 0xF7,
  0xDB, 0x00, 0x00, 0xF6, 0x21, 0x00, 0x0A, 0x00, 0x00, 0x17,
  0xD9, 0x00, 0x24, 0x3D, 0xFA, 0x1F, 0x00, 0x44, 0x38, 0x03,
  0xC0, 0x00, 0x1A, 0x25, 0x00, 0x1A, 0xE8, 0xE5, 0x22, 0x31,
  0xDF, 0x36, 0x04, 0xEC, 0x00, 0x22, 0x27, 0x62, 0x4F, 0x1E,
  0xDF, 0xE9, 0x1A, 0x00, 0x35, 0xF3, 0x25, 0x00, 0x0F, 0xE5,
  0x00, 0xDC, 0xB2, 0x21, 0x4C, 0x2E, 0xC9, 0x2B, 0x11, 0x3B,
  0x00, 0x00, 0x00, 0x00, 0x00, 0x00, 0x30, 0x23, 0xF0, 0x3B,
  0x23, 0x43, 0x50, 0x00, 0x38, 0xCC, 0xDB, 0xE7, 0x00, 0x24,
  0x00, 0x27, 0xB5, 0x25, 0x18, 0x00, 0xE1, 0x3A, 0x00, 0xEF,
  0x24, 0x3C, 0xCD, 0xED, 0x00, 0xF7, 0xE6, 0x00, 0x3E, 0xD4,
  0xEB, 0x30, 0x37, 0x33, 0x4C, 0xC7, 0xE8, 0x05, 0x17, 0xEE,
  0x00, 0x21, 0x3E, 0x33, 0xBF, 0xFA, 0x00, 0x23, 0x00, 0x2E,
  0xF1, 0x00, 0x40, 0x3B, 0x2B, 0x00, 0x00, 0x49, 0x31, 0x00,
  0xAF, 0x27, 0x00, 0x38, 0x00, 0x0A, 0xEA, 0x35, 0xCF, 0xDF,
  0x00, 0x00, 0x00, 0x00, 0xC2, 0x00, 0x00, 0x10, 0x2B, 0x00,
  0x13, 0xEE, 0x38, 0xDB, 0x00, 0x1D, 0x42, 0x12, 0x02, 0x41,
  0xFA, 0xFD, 0x3A, 0x18, 0x3D, 0x00, 0x0F, 0x00, 0xC3, 0xC9,
  0xE6, 0x00, 0xFE, 0x4A, 0x2A, 0x00, 0xE9, 0x03, 0x34, 0x00,
  0x00, 0x00, 0xF3, 0x00, 0x0A, 0x1F, 0x17, 0x27, 0x00, 0x26,
  0x0E, 0x1B, 0x12, 0x18, 0x00, 0x26, 0x28, 0xD5, 0x30, 0xC9,
  0xBD, 0xA8, 0xD1, 0x08, 0x01, 0x51, 0xDE, 0xF6, 0x00, 0x03,
  0x07, 0x30, 0xD1, 0x00, 0x2B, 0x16, 0x00, 0xF2, 0x17, 0x0D,
  0x16, 0xC9, 0x00, 0x00, 0xFE, 0xD3, 0x00, 0x3B, 0x00, 0x36,
  0x34, 0xFF, 0xE9, 0xD2, 0x24, 0xBD, 0xEF, 0x90, 0x47, 0x2D,
  0xB3, 0xFC, 0x00, 0x00, 0xCE, 0x0C, 0xFC, 0xCF, 0x30, 0x00,
  0x00, 0x00, 0xEE, 0xE0, 0x00, 0x4D, 0x00, 0x00, 0xE7, 0xEB,
  0x00, 0x26, 0xFE, 0x00, 0xE1, 0x00, 0x0E, 0xDF, 0x0D, 0x00,
  0x0C, 0x17, 0x39, 0x19, 0xCF, 0xEA, 0xC8, 0xFA, 0x00, 0x25,
  0x0D, 0x1E, 0xE1, 0xCE, 0x24, 0xE0, 0x17, 0x00, 0xD5, 0xDC,
  0x00, 0xFF, 0x39, 0x00, 0x1D, 0x00, 0xE0, 0x44, 0x00, 0x1F,
  0x15, 0x00, 0x00, 0x05, 0x25, 0x00, 0xC3, 0x0C, 0x12, 0x00,
  0xC9, 0xF0, 0xD0, 0x00, 0x2D, 0x00, 0x31, 0xED, 0x27, 0x00,
  0x00, 0x2D, 0x00, 0x1D, 0x00, 0x32, 0x03, 0x4C, 0x15, 0x5C,
  0xEA, 0xE7, 0x00, 0xDC, 0x00, 0xFE, 0x8D, 0x0A, 0x0F, 0xFC,
  0x1C, 0xFC, 0xEE, 0x18, 0xE3, 0xDD, 0x0B, 0x04, 0x18, 0xFE,
  0x25, 0x00, 0x1D, 0xFD, 0x39, 0x00, 0xC9, 0x00, 0xE4, 0x5B,
  0x00, 0x2D, 0x00, 0x00, 0x3B, 0x42, 0x00, 0x2E, 0x15, 0xF6,
  0x27, 0xFC, 0xDA, 0x2B, 0x00, 0x30, 0x1D, 0x01, 0x3D, 0xC5,
  0x00, 0xAF, 0x2A, 0x1D, 0xE7, 0x00, 0xFD, 0x3D, 0xDB, 0xCD,
  0x43, 0xF6, 0x2D, 0x0C, 0x00, 0x8A, 0x00, 0x14, 0x33, 0x2A,
  0x00, 0x00, 0x2D, 0x1A, 0x07, 0x00, 0xEB, 0x42, 0x00, 0xFE,
  0x00, 0xD1, 0xFA, 0x00, 0x03, 0xE1, 0x28, 0x1F, 0x05, 0x41,
  0x4B, 0x66, 0x75, 0x00, 0x00, 0xEB, 0xE9, 0xBC, 0x00, 0xD9,
  0x32, 0xD7, 0xD4, 0x00, 0x7F, 0xE0, 0x00, 0xDB, 0x00, 0x0F,
  0xF4, 0x2A, 0xDB, 0x3A, 0xE7, 0x4F, 0x29, 0x28, 0x1D, 0x00,
  0xF4, 0x00, 0x3D, 0x1E, 0xDD, 0x00, 0xC1, 0xFC, 0xD7, 0xE3,
  0xE0, 0x2B, 0x1F, 0x00, 0xE1, 0x00, 0x9E, 0x08, 0xDD, 0x00,
  0x3D, 0xCB, 0xFC, 0x00, 0x00, 0xF0, 0x0E, 0x00, 0x35, 0x00,
  0x34, 0xBC, 0x07, 0xD7, 0x00, 0xCB, 0xE0, 0xC8, 0x0F, 0x1E,
  0x00, 0x00, 0x1E, 0x00, 0xEF, 0x1A, 0x35, 0x00, 0x15, 0x00,
  0xFA, 0xF6, 0x00, 0xE5, 0x55, 0x25, 0x00, 0x3D, 0xD4, 0x1F,
  0xEA, 0x00, 0x0E, 0xD7, 0x00, 0x0C, 0xBB, 0xCE, 0x00, 0xB9,
  0xD4, 0x26, 0x31, 0x00, 0x33, 0x39, 0x23, 0x00, 0x3A, 0x2C,
  0x07, 0xF3, 0x00, 0x00, 0xEC, 0xC5, 0xFA, 0x3F, 0x00, 0x17,
  0xFF, 0x00, 0x00, 0x0E, 0xDE, 0x38, 0xB0, 0xF1, 0xE2, 0x00,
  0xE6, 0x1F, 0x00, 0x37, 0xC7, 0xF3, 0x3D, 0xF6, 0x31, 0x2C,
  0xD8, 0x22, 0x00, 0xB5, 0x00, 0xFC, 0xC6, 0x15, 0x81, 0x00,
  0x00, 0x21, 0xE4, 0xD8, 0x0B, 0x30, 0xDC, 0x00, 0xC5, 0x20,
  0x00, 0xEB, 0xBE, 0x4D, 0x26, 0x00, 0x06, 0x00, 0xEF, 0xD4,
  0x18, 0x00, 0xC2, 0xE1, 0x45, 0x0D, 0x2B, 0x1C, 0xE2, 0x3B,
  0xE6, 0xDB, 0x48, 0x1B, 0x00, 0x00, 0x19, 0x29, 0xF4, 0x0E,
  0xF3, 0xE1, 0x1E, 0x2F, 0x17, 0x18, 0xD6, 0xD4, 0x23, 0x1E,
  0x2B, 0xE6, 0x00, 0x00, 0xC1, 0x00, 0x06, 0xCA, 0x00, 0x00,
  0x00, 0xD0, 0x00, 0x20, 0x00, 0xBB, 0x26, 0x00, 0x25, 0xF4,
  0x0C, 0x36, 0x00, 0x00, 0x34, 0xF3, 0xD6, 0x3A, 0x2E, 0x00,
  0x00, 0xED, 0x40, 0xD6, 0xD9, 0xEC, 0xD5, 0x3E, 0x25, 0xF9,
  0xEC, 0xCF, 0xE3, 0x3F, 0xEF, 0xE7, 0x2D, 0x00, 0xEE, 0x14,
  0x19, 0x30, 0x00, 0x2D, 0xE7, 0x1C, 0x28, 0x00, 0x51, 0x22,
  0x00, 0x00, 0x00, 0x00, 0x30, 0xE8, 0xEA, 0x35, 0x0D, 0x0D,
  0x2F, 0x00, 0xCE, 0xEA, 0xFA, 0x09, 0xE7, 0x1A, 0xFF, 0xE2,
  0x27, 0xD8, 0x1A, 0x46, 0xFD, 0x21, 0x04, 0x00, 0x15, 0x4E,
  0xDA, 0x3F, 0x36, 0x00, 0xFB, 0x1A, 0xE2, 0xA6, 0x00, 0x1E,
  0xD3, 0xE9, 0x44, 0x08, 0x13, 0x11, 0xE6, 0x32, 0x00, 0xDA,
  0xD2, 0xF7, 0x0F, 0x47, 0x23, 0x3A, 0x43, 0x39, 0x2A, 0xDD,
  0x01, 0xEB, 0x11, 0x11, 0xF6, 0xBC, 0xFB, 0x0B, 0xED, 0xFE,
  0xC8, 0x3B, 0xE1, 0x4F, 0xC7, 0x62, 0x02, 0x41, 0xD1, 0xC1,
  0x1C, 0x00, 0xD1, 0xE5, 0x00, 0xFD, 0x0B, 0x00, 0x02, 0x4E,
  0x92, 0x0A, 0xFF, 0x23, 0xDC, 0xFC, 0xD6, 0x00, 0x04, 0x25,
  0x2F, 0x00, 0xFC, 0x35, 0xF6, 0xD5, 0xC4, 0xFD, 0x00, 0x16,
  0x00, 0x00, 0x41, 0x00, 0xFD, 0xDA, 0x02, 0xFA, 0x00, 0x04,
  0x90, 0x1E, 0xE3, 0x00, 0xEC, 0x00, 0x0E, 0xAD, 0x25, 0x62,
  0xC9, 0xAE, 0x01, 0xF6, 0x5F, 0xFC, 0x81, 0xFD, 0x3B, 0xCC,
  0x2B, 0x0A, 0xAD, 0xD5, 0x00, 0x96, 0xF3, 0x2F, 0xD4, 0xA5,
  0x29, 0x00, 0xD5, 0x1B, 0xFC, 0x25, 0x07, 0xC9, 0x4B, 0xCB,
  0xE1, 0xFD, 0xE1, 0x00, 0x06, 0x2E, 0xA0, 0x16, 0x2B, 0xF5,
  0x01, 0xA8, 0x28, 0xEC, 0xCD, 0xEF, 0x3A, 0xDB, 0x2C, 0x1E,
  0xD8, 0x9D, 0x26, 0x01, 0xD6, 0xFA, 0xC1, 0x19, 0xCA, 0xF9,
  0x00, 0x77, 0x21, 0x00, 0xC6, 0xE3, 0x00, 0x00, 0x00, 0x18,
  0x0C, 0x3D, 0x45, 0x0E, 0xF2, 0x00, 0x00, 0x3C, 0xA5, 0xEE,
  0x3E, 0x26, 0x21, 0x00, 0xE4, 0xD8, 0xD5, 0x3C, 0x3E, 0x00,
  0x00, 0x0A, 0x5B, 0x4B, 0x2A, 0xD0, 0x01, 0xDA, 0x03, 0x0B,
  0x2C, 0xDA, 0x06, 0x3A, 0xBF, 0x00, 0x00, 0x2A, 0xED, 0x2A,
  0xC3, 0x00, 0x02, 0xB7, 0xCC, 0x18, 0x21, 0xED, 0x25, 0xFE,
  0x0E, 0x3C, 0x1B, 0x25, 0x34, 0xB3, 0x2A, 0x19, 0xDB, 0x24,
  0x54, 0xF1, 0x00, 0x0E, 0xF9, 0x03, 0x33, 0xEE, 0x00, 0xF1,
  0xF9, 0x2E, 0xFF, 0xFE, 0x04, 0x3E, 0x1F, 0xE4, 0x51, 0x1A,
  0x1B, 0x3B, 0x11, 0x00, 0x00, 0x35, 0x03, 0xBF, 0x00, 0x09,
  0x32, 0xE2, 0x2A, 0xBD, 0xFC, 0xE9, 0xF1, 0x09, 0xFC, 0x1D,
  0x3D, 0x33, 0x18, 0x1D, 0x02, 0x31, 0x21, 0xCB, 0x02, 0x00,
  0x00, 0x23, 0x03, 0x00, 0x18, 0x33, 0xD2, 0x1A, 0x59, 0x04,
  0xFE, 0xDA, 0x2C, 0x00, 0x0E, 0x40, 0x00, 0x00, 0xFB, 0x0C,
  0x20, 0x0F, 0x01, 0x2F, 0xD8, 0xEC, 0x54, 0x06, 0x2D, 0x00,
  0x47, 0xD4, 0x18, 0x2A, 0x0C, 0xFE, 0x08, 0xFC, 0x08, 0x0F,
  0xF7, 0x68, 0xD0, 0x25, 0x6A, 0x00, 0xCE, 0x00, 0x75, 0xF9,
  0x03, 0x48, 0xA6, 0x01, 0x1A, 0x09, 0x0C, 0xD7, 0x00, 0xEB,
  0xDE, 0x0C, 0x2A, 0x3C, 0xD5, 0xC0, 0xF7, 0x1F, 0x44, 0x00,
  0x00, 0x02, 0x35, 0x21, 0xCB, 0xF6, 0x27, 0x24, 0xCE, 0x3E,
  0x27, 0xBA, 0x1B, 0x2E, 0x47, 0xEE, 0x2B, 0x46, 0x06, 0x1A,
  0x00, 0x19, 0xED, 0x37, 0x00, 0x1D, 0xFC, 0x00, 0x0C, 0x00,
  0x67, 0x00, 0xF9, 0x00, 0xD1, 0xCA, 0x00, 0xED, 0xD4, 0x77,
  0x18, 0x09, 0xAF, 0x36, 0x13, 0xF6, 0x06, 0x0E, 0x03, 0x4B,
  0x32, 0x25, 0xF6, 0xDE, 0x16, 0x04, 0x3A, 0x2F, 0xA6, 0x10,
  0xFC, 0x1E, 0xC2, 0x00, 0xEE, 0x57, 0xFA, 0x08, 0xFB, 0x41,
  0xD7, 0x98, 0xF7, 0xDC, 0x18, 0xC8, 0x20, 0x14, 0xF7, 0xF7,
  0xC7, 0xCA, 0x34, 0x13, 0xFE, 0xFA, 0x00, 0xBB, 0x2A, 0x08,
  0x00, 0xF8, 0x25, 0xB0, 0x33, 0x00, 0x23, 0x3C, 0x00, 0x2B,
  0xAC, 0xEC, 0xE2, 0x00, 0x00, 0x5B, 0x30, 0xD3, 0x05, 0x27,
  0x08, 0x43, 0xE3, 0x05, 0x1F, 0xD9, 0x10, 0x32, 0x31, 0x00,
  0xF5, 0x1F, 0xDB, 0xEB, 0xE8, 0x23, 0xDE, 0x00, 0x39, 0xF5,
  0xBB, 0xE1, 0xBC, 0x9E, 0x2B, 0x00, 0xE9, 0x13, 0xC2, 0x12,
  0x56, 0x24, 0xE9, 0x54, 0x16, 0xC3, 0x31, 0x17, 0x3C, 0x22,
  0xDE, 0xFF, 0xD3, 0x46, 0x00, 0x00, 0xFB, 0x2D, 0xB1, 0xC0,
  0x4F, 0x12, 0xDF, 0x1C, 0xF8, 0xE6, 0xF8, 0x6C, 0x45, 0xCB,
  0x36, 0x2C, 0x4A, 0x1F, 0x97, 0x0F, 0x05, 0xFC, 0x23, 0x39,
  0x17, 0x00, 0x09, 0x02, 0x00, 0x00, 0x14, 0x19, 0xE7, 0xF7,
  0x2C, 0x00, 0x04, 0x24, 0xD9, 0x00, 0xD6, 0x24, 0xFD, 0x04,
  0xC9, 0x59, 0x22, 0xF6, 0x00, 0xDD, 0xF2, 0x0E, 0xE6, 0x00,
  0x3E, 0x00, 0x24, 0x04, 0x09, 0xD7, 0x01, 0x07, 0x32, 0x0B,
  0xEE, 0x01, 0xE3, 0x27, 0x23, 0x1B, 0x00, 0x00, 0x00, 0x3D,
  0x2E, 0x7F, 0xF8, 0xB3, 0x2E, 0x07, 0xC3, 0xFC, 0xE7, 0xAC,
  0x33, 0x00, 0xEC, 0x95, 0x0B, 0xF1, 0x0F, 0x2B, 0xD3, 0xF5,
  0xD8, 0x0E, 0xDC, 0xCD, 0x40, 0xFE, 0x01, 0x1F, 0x17, 0x1B,
  0xDC, 0xDE, 0x2B, 0xF8, 0x0A, 0x05, 0xC1, 0xCE, 0xE4, 0x27,
  0x46, 0xF7, 0x2E, 0xFF, 0x01, 0x2B, 0xC8, 0x4A, 0x18, 0xDB,
  0x07, 0xE3, 0x2A, 0xE7, 0xD3, 0xEA, 0x3C, 0x00, 0x15, 0xFF,
  0x24, 0xDB, 0x30, 0x43, 0x0D, 0x15, 0x00, 0xEC, 0xCC, 0xE3,
  0xD0, 0x43, 0x28, 0xF7, 0xD1, 0x1F, 0xA5, 0x21, 0xCE, 0xDC,
  0xFD, 0x08, 0x99, 0x01, 0x04, 0x12, 0x3E, 0x05, 0x0F, 0x02,
  0xF7, 0xDC, 0x00, 0x07, 0x31, 0xDB, 0xC4, 0x72, 0x1D, 0x12,
  0x00, 0x08, 0x00, 0x1E, 0x3A, 0xEC, 0x05, 0xEC, 0x00, 0xF2,
  0x08, 0x3F, 0xD7, 0xEF, 0xF8, 0x2D, 0x28, 0x45, 0x00, 0x33,
  0xFA, 0xDF, 0x01, 0x7F, 0x36, 0x00, 0x00, 0x24, 0xDD, 0x2C,
  0xE4, 0xDB, 0x00, 0x41, 0xEF, 0xF5, 0x11, 0x03, 0x1D, 0x07,
  0xD8, 0x27, 0x36, 0x00, 0x04, 0x02, 0xE1, 0x25, 0xC1, 0x34,
  0xFD, 0x28, 0x13, 0x28, 0xDF, 0xF9, 0xF7, 0x0A, 0xF3, 0x13,
  0xFD, 0xFC, 0x05, 0x0A, 0xCC, 0x0C, 0x36, 0xF5, 0xB8, 0x17,
  0xFF, 0x26, 0x00, 0x3C, 0x00, 0x00, 0x33, 0xD7, 0x00, 0xDD,
  0x23, 0xF8, 0x02, 0xE4, 0x08, 0x40, 0xB0, 0xFF, 0xF8, 0x02,
  0xDE, 0xF0, 0x26, 0x0E, 0x00, 0x15, 0xC1, 0xE7, 0xFB, 0x02,
  0x3E, 0x1B, 0x07, 0xED, 0x1B, 0xD3, 0x31, 0xED, 0x04, 0x35,
  0xDA, 0x25, 0x28, 0xF4, 0x03, 0x15, 0x2C, 0x35, 0x2E, 0x40,
  0x02, 0xBA, 0x09, 0x05, 0x1B, 0xF1, 0x37, 0xD7, 0x0C, 0x32,
  0xD3, 0xE2, 0xBC, 0x4D, 0xF5, 0xF5, 0x00, 0xF0, 0x00, 0x05,
  0x20, 0xE4, 0x00, 0x1A, 0xD9, 0x3E, 0x36, 0x35, 0x1F, 0xFB,
  0x28, 0x37, 0xFE, 0xEC, 0xCD, 0x06, 0x07, 0xC5, 0xF8, 0x10,
  0xD1, 0x3C, 0xFC, 0x01, 0x26, 0xEC, 0xE0, 0xDB, 0xD2, 0x00,
  0xDB, 0x38, 0x2C, 0x00, 0x29, 0xD2, 0x35, 0x2D, 0xF9, 0xCF,
  0xE3, 0x2A, 0x25, 0xBE, 0x2C, 0x0B, 0x04, 0x06, 0x07, 0xF7,
  0x14, 0xC0, 0xDB, 0xF0, 0x0B, 0x0E, 0xFD, 0xDB, 0x00, 0x08,
  0xEC, 0x1B, 0x2C, 0x00, 0x3A, 0x04, 0x3E, 0x64, 0x05, 0x45,
  0x00, 0x20, 0x4F, 0x00, 0xD8, 0x00, 0x00, 0x44, 0xE6, 0x9B,
  0xCE, 0x5B, 0x53, 0x23, 0xFB, 0xE8, 0x14, 0xF2, 0x09, 0x55,
  0x37, 0x00, 0x00, 0x0C, 0x39, 0x0D, 0x20, 0x03, 0xBE, 0x15,
  0x44, 0x00, 0x14, 0xEF, 0xEE, 0x3B, 0x17, 0xCD, 0x00, 0xFD,
  0xDC, 0xE8, 0xBC, 0x7F, 0x40, 0xF2, 0xF6, 0x22, 0xE7, 0x00,
  0xDC, 0x1E, 0x15, 0x3C, 0x2A, 0x00, 0x5E, 0x04, 0x2B, 0x00,
  0xB1, 0x08, 0x00, 0xEA, 0x17, 0x01, 0x8B, 0x23, 0x16, 0xD2,
  0x55, 0xFE, 0xD4, 0x00, 0xEE, 0x31, 0x45, 0xF2, 0x00, 0x17,
  0xE3, 0x02, 0xFF, 0xF6, 0x00, 0xE2, 0x18, 0x04, 0x00, 0xDD,
  0xD0, 0xCC, 0xD4, 0xE8, 0x03, 0x00, 0xD1, 0xF1, 0xFF, 0x2F,
  0x18, 0x06, 0xDA, 0x4C, 0x20, 0x3A, 0xD9, 0x00, 0x13, 0xCC,
  0xFF, 0x00, 0x0E, 0x0F, 0xED, 0x00, 0xDD, 0x00, 0x0C, 0xD9,
  0x38, 0x00, 0xCA, 0xC8, 0x33, 0x04, 0xB4, 0x00, 0xCB, 0xD0,
  0x04, 0x1D, 0x00, 0x17, 0x1D, 0x00, 0x02, 0x0A, 0xD6, 0x50,
  0xBA, 0xDF, 0x00, 0x00, 0x00, 0xD7, 0x00, 0xB8, 0xD9, 0xFD,
  0xEF, 0xBE, 0xE9, 0x16, 0x01, 0x10, 0x0C, 0xEB, 0xCA, 0xFB,
  0xDA, 0x28, 0xDB, 0x00, 0xF9, 0x00, 0xF0, 0xD4, 0x2F, 0x3D,
  0x00, 0xE6, 0xC4, 0x15, 0x43, 0x00, 0x2C, 0x17, 0x00, 0x0B,
  0xEF, 0x19, 0xF9, 0xE6, 0x02, 0xF5, 0x39, 0x14, 0x00, 0x00,
  0x00, 0x30, 0xF7, 0x05, 0x2F, 0x00, 0xD8, 0x33, 0x01, 0x00,
  0xE4, 0xC9, 0xE4, 0xD2, 0x3A, 0x00, 0x00, 0x06, 0x00, 0x29,
  0xF7, 0xFB, 0x02, 0x2B, 0xD7, 0x13, 0x25, 0xFE, 0x00, 0xD3,
  0xC5, 0xC9, 0xFF, 0x2A, 0x00, 0x39, 0x02, 0xE1, 0x07, 0x36,
  0x70, 0xF9, 0x01, 0xDB, 0x21, 0xE7, 0x1C, 0x19, 0xD2, 0x06,
  0x00, 0x37, 0x0D, 0x3F, 0x15, 0x09, 0x25, 0x01, 0x03, 0xEE,
  0xD0, 0xEC, 0xC8, 0x00, 0x2B, 0xFB, 0xDE, 0xD5, 0x5B, 0x48,
  0x2B, 0xE5, 0x00, 0x27, 0xDB, 0xCF, 0x02, 0x28, 0x29, 0x76,
  0xD8, 0xDD, 0xF7, 0x26, 0x09, 0x25, 0xBA, 0x0E, 0xCC, 0x02,
  0xF2, 0x3A, 0xF8, 0x00, 0xD5, 0x0B, 0x4E, 0x1D, 0xD2, 0xFB,
  0xE3, 0xFC, 0xC6, 0x00, 0x00, 0x35, 0x08, 0x0A, 0xFF, 0x7F,
  0xFD, 0xD4, 0xC6, 0x2F, 0x3A, 0x0C, 0xF1, 0x67, 0xF0, 0x25,
  0x14, 0xF8, 0x58, 0x16, 0x38, 0x32, 0xF5, 0xFB, 0xFD, 0x00,
  0xCD, 0x3B, 0xB4, 0xFD, 0x00, 0xCB, 0x28, 0x27, 0xEC, 0xEC,
  0x00, 0xC1, 0xF8, 0x06, 0x01, 0x00, 0xC9, 0xDA, 0xF5, 0x10,
  0x36, 0xAF, 0xD5, 0xD2, 0xD7, 0x0C, 0xD9, 0x00, 0x39, 0x01,
  0x12, 0x00, 0x25, 0xF0, 0xF5, 0x1E, 0xB6, 0x00, 0x25, 0xD6,
  0x00, 0xEA, 0x11, 0x24, 0x36, 0x7D, 0x36, 0x00, 0x1B, 0x39,
  0x08, 0x24, 0x00, 0xD0, 0x00, 0x37, 0xDD, 0xB1, 0xD0, 0x3C,
  0xB1, 0x00, 0x20, 0xF2, 0xC9, 0x00, 0xC6, 0x3B, 0x37, 0xA9,
  0xDA, 0x88, 0x44, 0x10, 0x4A, 0xE4, 0xF5, 0xCB, 0xFA, 0xD2,
  0xE0, 0xF7, 0xF7, 0xD8, 0x27, 0x13, 0xB0, 0x24, 0xD7, 0xED,
  0xF0, 0xCF, 0x24, 0xFB, 0xF8, 0x00, 0x25, 0x29, 0x36, 0xC6,
  0x36, 0xC4, 0x13, 0x00, 0xD8, 0xAA, 0x00, 0x46, 0x12, 0xD5,
  0x09, 0x15, 0x00, 0xC4, 0xF1, 0x62, 0x00, 0xF9, 0xE8, 0xC7,
  0x11, 0xEC, 0xFC, 0xFC, 0x23, 0x1E, 0xF3, 0x2B, 0xCD, 0x02,
  0xB9, 0xE8, 0xF4, 0x49, 0x00, 0xBE, 0xFC, 0xFC, 0x02, 0xB1,
  0x0E, 0x4C, 0xCF, 0x3F, 0x00, 0x2C, 0xFB, 0xC5, 0xC8, 0xEB,
  0x2C, 0x8C, 0x1C, 0xE0, 0x00, 0x14, 0xC4, 0x0C, 0x00, 0xE3,
  0x0D, 0xEE, 0x0B, 0xFD, 0x2B, 0xEB, 0xDD, 0xEF, 0xD4, 0xA9,
  0x34, 0x25, 0xF7, 0x1A, 0x39, 0xBF, 0x64, 0x1D, 0xEA, 0x60,
  0x35, 0xF5, 0x2D, 0xE6, 0x2F, 0x3E, 0xFE, 0x24, 0xFA, 0x1C,
  0x3E, 0x00, 0xF8, 0x0B, 0x00, 0x1C, 0xD8, 0xFC, 0xFA, 0x20,
  0x1E, 0xD4, 0x00, 0x6F, 0xFC, 0x0D, 0x00, 0x19, 0xC7, 0xB7,
  0xB1, 0x13, 0x11, 0x55, 0x25, 0x2A, 0x3E, 0xFD, 0x23, 0xFF,
  0x14, 0x03, 0x1C, 0xF3, 0x3F, 0xFE, 0x00, 0x00, 0xA0, 0xC4,
  0x5E, 0x3A, 0xF9, 0x03, 0xD2, 0x1C, 0x12, 0x00, 0xF7, 0xD3,
  0xC1, 0x3C, 0xC2, 0xD8, 0xE6, 0xBE, 0x00, 0x26, 0x0E, 0xFD,
  0x00, 0xD5, 0xD7, 0xF8, 0x1F, 0xF5, 0x00, 0x00, 0x00, 0xDF,
  0xDB, 0x00, 0x08, 0x2F, 0xF0, 0xE6, 0x00, 0x00, 0x20, 0xBE,
  0x4A, 0x13, 0xE6, 0x00, 0x00, 0x9F, 0x00, 0x00, 0x00, 0x00,
  0x00, 0x0E, 0xFD, 0x27, 0x33, 0xDB, 0x00, 0x00, 0xAE, 0x2B,
  0xF0, 0x37, 0xDD, 0x2B, 0x0A, 0xF5, 0x2B, 0xF8, 0xF9, 0xE8,
  0x24, 0xE9, 0xD5, 0x0F, 0x0C, 0x31, 0x33, 0xEB, 0xD2, 0x00,
  0xD6, 0xF8, 0xC4, 0x29, 0x00, 0xB8, 0x88, 0x0A, 0x28, 0x0B,
  0xE2, 0xF5, 0x18, 0x00, 0xDB, 0xFD, 0xF9, 0xFB, 0x38, 0x04,
  0xEA, 0xAB, 0xEA, 0xF3, 0xBF, 0xF7, 0x2D, 0xF7, 0x30, 0x3D,
  0xD6, 0xB7, 0x00, 0x3C, 0xDD, 0xDD, 0x02, 0x1A, 0xC8, 0xC4,
  0x28, 0x0D, 0x44, 0xEA, 0xCB, 0x22, 0x14, 0xFD, 0xF5, 0xB6,
  0xE8, 0xE5, 0x0C, 0xAD, 0xE8, 0x00, 0x2E, 0xE8, 0x20, 0xC9,
  0xFA, 0x0D, 0xC5, 0x00, 0x00, 0x13, 0x10, 0x00, 0x2A, 0x00,
  0x05, 0x01, 0x0B, 0xDE, 0x18, 0x20, 0xF1, 0x2A, 0x00, 0x45,
  0x38, 0xC9, 0xF1, 0x01, 0xE6, 0x04, 0x42, 0x00, 0x3B, 0x1D,
  0x18, 0x0F, 0x17, 0x0A, 0x15, 0xE1, 0x24, 0x2E, 0x00, 0xD5,
  0x09, 0x18, 0x34, 0xDA, 0x05, 0x59, 0x0F, 0x00, 0x0D, 0x41,
  0xB7, 0xE3, 0x0A, 0x00, 0xF4, 0xBA, 0x33, 0xEB, 0x23, 0x00,
  0x20, 0x04, 0x31, 0x00, 0xD5, 0x00, 0x00, 0x0C, 0xE1, 0x02,
  0x3E, 0x3B, 0x28, 0xF6, 0xD4, 0x00, 0x2A, 0x35, 0xFB, 0x0E,
  0x00, 0xEC, 0x00, 0xD8, 0x18, 0x96, 0x1C, 0xF5, 0x31, 0x00,
  0x2C, 0x14, 0xD1, 0xD9, 0x00, 0x22, 0x9C, 0x00, 0x00, 0x0B,
  0x32, 0xA0, 0x00, 0x25, 0xEA, 0x00, 0x00, 0x08, 0x16, 0x13,
  0x38, 0x33, 0xFE, 0xD9, 0x33, 0x0D, 0x00, 0x9B, 0xEB, 0x4C,
  0x2D, 0xE0, 0x1C, 0xDC, 0x1C, 0x28, 0xE1, 0x27, 0x07, 0x08,
  0x22, 0x1E, 0x00, 0x00, 0xEA, 0x00, 0x05, 0xFC, 0x30, 0x00,
  0x33, 0x09, 0x4C, 0xFD, 0xD4, 0x24, 0xDA, 0x06, 0xFF, 0xF9,
  0x00, 0x0A, 0x00, 0x7F, 0xF8, 0x00, 0x39, 0x0A, 0xD1, 0xEC,
  0x02, 0x29, 0x00, 0x00, 0xF5, 0x00, 0x08, 0x1D, 0x0C, 0x1E,
  0x05, 0x2B, 0x29, 0x00, 0x1D, 0xF5, 0xFD, 0xFD, 0x1A, 0xF8,
  0xF2, 0x30, 0xCA, 0x39, 0x04, 0x41, 0xDB, 0x01, 0xC9, 0xDE,
  0x00, 0xF1, 0xF7, 0x00, 0x30, 0x59, 0x39, 0xFC, 0x7F, 0xFD,
  0x0E, 0x00, 0xFE, 0x11, 0x30, 0x22, 0xE7, 0xFA, 0x27, 0x18,
  0x0A, 0xF5, 0x08, 0xE8, 0x00, 0x1D, 0x06, 0x44, 0xF6, 0xEE,
  0x3D, 0x16, 0x20, 0xC8, 0xF8, 0x02, 0x0B, 0x19, 0x32, 0x08,
  0x35, 0x14, 0xC0, 0x14, 0xD8, 0x08, 0x1B, 0xAC, 0xF0, 0xD7,
  0x25, 0xDB, 0xEA, 0xE5, 0xE9, 0x01, 0xFF, 0x08, 0x3D, 0xAF,
  0xCB, 0xD8, 0x04, 0xD8, 0xD6, 0xD5, 0x26, 0xE6, 0x45, 0x13,
  0x3D, 0x01, 0x15, 0xD7, 0xE0, 0x40, 0x00, 0x05, 0x21, 0xEE,
  0xEA, 0xFA, 0x2A, 0x03, 0xD9, 0xC4, 0x2D, 0x63, 0xF3, 0x3B,
  0x08, 0x39, 0x10, 0x1D, 0x21, 0x00, 0xDB, 0xF0, 0x15, 0xEC,
  0x1E, 0xFD, 0x12, 0x0B, 0xF9, 0xC9, 0x1C, 0x00, 0x2E, 0xF1,
  0x00, 0xC3, 0x21, 0x0A, 0xE0, 0xD6, 0xE5, 0xC1, 0xEA, 0x4D,
  0xE2, 0x35, 0x08, 0x1B, 0xCE, 0xFC, 0x33, 0xF5, 0xEC, 0x15,
  0x2E, 0x1E, 0x3B, 0x1F, 0x00, 0xDE, 0xFA, 0x00, 0xE0, 0xF7,
  0x15, 0x00, 0xE6, 0x04, 0x1E, 0xFB, 0x07, 0xC6, 0x34, 0x1D,
  0x21, 0x11, 0xFA, 0xD5, 0xF7, 0x99, 0xD2, 0xF7, 0x05, 0x14,
  0x35, 0xE0, 0xE2, 0x0B, 0xF3, 0x08, 0x09, 0xF1, 0xF5, 0x00,
  0x1A, 0x43, 0xE2, 0xFC, 0x0D, 0x07, 0x19, 0x4A, 0xE2, 0x04,
  0xDF, 0x16, 0x08, 0x2A, 0xD1, 0x1E, 0xE6, 0x49, 0x3C, 0x2D,
  0x1C, 0xD9, 0x00, 0x35, 0x26, 0x01, 0xC8, 0x0A, 0x00, 0xF0,
  0x00, 0xF1, 0xEB, 0x2F, 0x00, 0xCC, 0x0F, 0x1B, 0xF9, 0x2F,
  0x21, 0xFA, 0xE4, 0x2B, 0x4A, 0xFD, 0xDE, 0xB0, 0xE1, 0x19,
  0x3C, 0x2A, 0xF3, 0xEF, 0x08, 0x48, 0xFF, 0xE3, 0x0B, 0x0C,
  0xFC, 0xD5, 0xE3, 0xE2, 0xE9, 0xE2, 0xE2, 0x00, 0xDC, 0x11,
  0x01, 0xF5, 0x15, 0x33, 0x1F, 0x11, 0x17, 0xF6, 0xF7, 0xCB,
  0xF7, 0x06, 0xFE, 0x56, 0xE4, 0x13, 0x2A, 0x0F, 0x3E, 0x27,
  0xF4, 0xD7, 0x0E, 0x00, 0xD8, 0xFF, 0x3A, 0xAB, 0xF4, 0x0C,
  0xB9, 0x06, 0x40, 0xF8, 0x09, 0x06, 0x5D, 0x45, 0x01, 0x0C,
  0x29, 0x01, 0x0F, 0xEB, 0x00, 0xD0, 0xE6, 0xEA, 0xDC, 0x49,
  0x08, 0x08, 0x04, 0xA7, 0xFD, 0x10, 0x27, 0x04, 0xCE, 0xFA,
  0xCA, 0x60, 0x00, 0x05, 0x49, 0xC7, 0x08, 0x00, 0x00, 0x38,
  0xF4, 0x3D, 0xE7, 0x11, 0xFD, 0x01, 0xF9, 0xC2, 0x1B, 0x39,
  0xEB, 0x07, 0x52, 0x4B, 0x39, 0x15, 0x1A, 0xDB, 0x30, 0x02,
  0xD2, 0x48, 0x23, 0x0D, 0x2B, 0xE1, 0x12, 0xD8, 0x16, 0xC9,
  0x24, 0x00, 0x0F, 0xCD, 0x1E, 0x10, 0x38, 0x5C, 0x41, 0x57,
  0xAD, 0x00, 0x1F, 0x21, 0xB4, 0xCA, 0x50, 0x00, 0xF3, 0x81,
  0x00, 0x04, 0x02, 0x09, 0x49, 0x00, 0x50, 0x2D, 0xE5, 0x05,
  0x0A, 0xB6, 0x00, 0xF0, 0x67, 0x21, 0x48, 0x31, 0xE6, 0x23,
  0x03, 0x3F, 0x5F, 0x38, 0x06, 0x0E, 0xAC, 0x00, 0x3F, 0xEF,
  0x0A, 0xA8, 0x55, 0xD6, 0x32, 0x01, 0x29, 0xE6, 0x1F, 0x17,
  0x38, 0x00, 0xF2, 0x05, 0x16, 0xC2, 0xB2, 0xA0, 0x00, 0x2D,
  0x58, 0x2D, 0xDC, 0x00, 0x4E, 0x01, 0x00, 0x30, 0x59, 0xB1,
  0xFA, 0x4E, 0x02, 0x00, 0x54, 0x07, 0x00, 0x0F, 0xAD, 0x23,
  0xE4, 0x14, 0x3B, 0x44, 0x00, 0xF8, 0x18, 0x02, 0xFA, 0xDA,
  0x1A, 0xDD, 0x00, 0xD2, 0x40, 0xF3, 0x10, 0x38, 0x5E, 0x42,
  0xF6, 0xE0, 0x00, 0x08, 0x2B, 0x00, 0xDA, 0xF3, 0xED, 0x1E,
  0x0B, 0xC8, 0x00, 0xCD, 0xBE, 0x1D, 0xA1, 0xD8, 0x24, 0xE3,
  0xF6, 0x46, 0x56, 0x33, 0xF5, 0xB9, 0x0D, 0x00, 0x3F, 0x31,
  0xC6, 0xF1, 0x00, 0x0B, 0x08, 0xDA, 0xCE, 0x11, 0xE4, 0x0C,
  0x30, 0x47, 0x1E, 0x5B, 0x00, 0xA6, 0x3A, 0xDC, 0xDB, 0xCA,
  0xE1, 0x06, 0xCB, 0x42, 0x01, 0xDB, 0xF7, 0xC5, 0x00, 0xC2,
  0x08, 0x2C, 0xE0, 0x40, 0x10, 0x0E, 0x24, 0xED, 0x17, 0x00,
  0xCD, 0x00, 0xF8, 0x00, 0xEE, 0x00, 0x1E, 0x25, 0x00, 0x00,
  0x40, 0x1C, 0x43, 0x21, 0xEE, 0xF3, 0xFF, 0xA9, 0x06, 0xFC,
  0xD8, 0xF2, 0xC4, 0xFC, 0xE5, 0x41, 0x36, 0xF0, 0x52, 0x04,
  0xD3, 0xFE, 0x04, 0x04, 0xE5, 0xF9, 0xE8, 0xF5, 0xC5, 0x07,
  0xFC, 0xED, 0xFB, 0x3E, 0xC1, 0xEA, 0xFB, 0xFC, 0xF5, 0xBC,
  0x00, 0x12, 0x2C, 0xF5, 0x9D, 0x0D, 0x03, 0xE8, 0x2A, 0xE3,
  0xE5, 0xF9, 0x00, 0x1F, 0xCD, 0xDD, 0x00, 0x00, 0x86, 0x04,
  0x04, 0xDF, 0x00, 0x43, 0x37, 0x39, 0x35, 0xF3, 0x00, 0xDD,
  0x21, 0xC4, 0xD6, 0x6D, 0xEC, 0x00, 0x84, 0x47, 0x4A, 0x10,
  0x65, 0x1C, 0xE0, 0xE2, 0x81, 0xDE, 0xA5, 0x1B, 0xF3, 0x1E,
  0x00, 0x2A, 0x00, 0x0B, 0x00, 0x03, 0x03, 0xDF, 0x13, 0x39,
  0xE9, 0xE3, 0x47, 0xF9, 0x00, 0x58, 0xD2, 0xC5, 0x00, 0x00,
  0x33, 0x04, 0xF6, 0x02, 0xFC, 0xDC, 0xD6, 0xE5, 0xF7, 0xB9,
  0x02, 0xEB, 0x10, 0x0F, 0x40, 0x0A, 0x31, 0xFB, 0x33, 0xE5,
  0x35, 0x4C, 0x0A, 0xBC, 0xE9, 0x06, 0xE7, 0xDD, 0xF8, 0xE5,
  0x17, 0xE6, 0x07, 0x28, 0xD4, 0x50, 0xF5, 0xC3, 0x06, 0x46,
  0x56, 0x53, 0x3C, 0x62, 0xF3, 0xDA, 0x20, 0x2A, 0x2C, 0x43,
  0x08, 0xEC, 0xD8, 0xFC, 0x00, 0xF2, 0x58, 0xAE, 0xD5, 0x00,
  0x02, 0x2F, 0x13, 0x00, 0xF0, 0x38, 0xEF, 0x0A, 0xFF, 0x0F,
  0x02, 0x34, 0x30, 0x2F, 0xE9, 0xDE, 0xF1, 0x13, 0xF0, 0xF7,
  0xF4, 0x06, 0x33, 0x06, 0xED, 0xBF, 0x00, 0x6F, 0x0A, 0x00,
  0xBA, 0xE6, 0x52, 0x1A, 0xEB, 0x00, 0x00, 0x37, 0x0C, 0xF5,
  0xFE, 0xFF, 0xD1, 0x28, 0x2A, 0x00, 0xB5, 0xC5, 0xF9, 0x13,
  0xD4, 0x13, 0x0F, 0xBE, 0x16, 0x1C, 0xE9, 0xF3, 0xFF, 0xD5,
  0xD2, 0x00, 0x08, 0x00, 0xC4, 0x41, 0x05, 0x05, 0x2E, 0xFF,
  0xC6, 0x3A, 0x34, 0x46, 0x46, 0xDC, 0x2D, 0xFB, 0xB7, 0xAD,
  0xFB, 0x3D, 0x1D, 0xD5, 0x38, 0xA1, 0xFF, 0x2A, 0x2C, 0x00,
  0xEE, 0xB0, 0xFE, 0x0B, 0x09, 0xFA, 0xC2, 0x3D, 0x2C, 0xE1,
  0x47, 0xD2, 0xEC, 0xFD, 0x00, 0x05, 0x50, 0xE8, 0x3D, 0x30,
  0xBE, 0xCA, 0x1C, 0x2A, 0xD1, 0x94, 0xB8, 0xDA, 0x00, 0x13,
  0x00, 0xB8, 0xF5, 0xEE, 0x41, 0x42, 0x06, 0xF8, 0xC5, 0x1C,
  0x0C, 0x01, 0x00, 0xB1, 0xAC, 0xE9, 0x49, 0x2E, 0x2D, 0xA6,
  0x02, 0x25, 0xFE, 0x00, 0x07, 0x81, 0x03, 0xEF, 0xDC, 0x35,
  0xD4, 0x00, 0xF7, 0xE9, 0x02, 0x00, 0xDB, 0xF3, 0x00, 0xF5,
  0xEB, 0xE9, 0xC8, 0x00, 0x0A, 0x10, 0xF4, 0xD1, 0x00, 0x1F,
  0x06, 0xE8, 0x19, 0xF3, 0x1B, 0xE0, 0x0D, 0x0D, 0x25, 0xFC,
  0x1A, 0x00, 0x00, 0x1F, 0xED, 0xCA, 0xDE, 0x0F, 0x2F, 0x0B,
  0xE8, 0xBB, 0xE0, 0xD0, 0xFB, 0x1F, 0x05, 0x2B, 0xBF, 0xF4,
  0x0E, 0xC6, 0xFF, 0xE5, 0x00, 0xC2, 0xF2, 0x08, 0x46, 0xE8,
  0xDB, 0xF9, 0xD7, 0xD7, 0x00, 0xE6, 0x1D, 0x21, 0x0F, 0x27,
  0x00, 0x2E, 0x0B, 0xB1, 0xD3, 0x08, 0x01, 0x04, 0xE8, 0xFF,
  0x14, 0xF4, 0x04, 0x00, 0x00, 0x32, 0xE5, 0x1C, 0x28, 0x28,
  0xE9, 0xCF, 0xDA, 0xFC, 0x27, 0x37, 0x0D, 0xF4, 0xC7, 0xA8,
  0xE1, 0x09, 0xFC, 0x34, 0x22, 0xD8, 0x14, 0x2C, 0x11, 0xFA,
  0xD6, 0xE0, 0xDC, 0xDF, 0xF0, 0xFF, 0x0B, 0xE0, 0xFF, 0x11,
  0x00, 0xD9, 0x1A, 0x29, 0x3A, 0xF4, 0xF7, 0x04, 0x04, 0x09,
  0x22, 0x07, 0x00, 0x09, 0x1D, 0x0E, 0x20, 0x00, 0x00, 0xD0,
  0x07, 0x1D, 0xF2, 0x0F, 0x0E, 0xFE, 0x35, 0xE6, 0xFF, 0xFC,
  0xF6, 0x00, 0x28, 0x05, 0x36, 0xEF, 0x3A, 0xE5, 0x2E, 0xD7,
  0x39, 0xE2, 0xF5, 0xDA, 0x24, 0xFE, 0xEE, 0xF2, 0x06, 0x21,
  0x1F, 0xC0, 0x25, 0xEC, 0x41, 0x00, 0x13, 0xEC, 0x09, 0x04,
  0x39, 0x2B, 0x00, 0x00, 0x01, 0xF8, 0xFA, 0x05, 0x24, 0xF4,
  0xCE, 0x29, 0x09, 0x08, 0xFC, 0x00, 0x3F, 0x06, 0x20, 0x12,
  0x33, 0x1B, 0xFC, 0x1D, 0x15, 0x03, 0x3A, 0xE6, 0x21, 0x10,
  0xFC, 0x00, 0x00, 0xF7, 0x33, 0x00, 0x03, 0xEC, 0x0A, 0x39,
  0x2D, 0x00, 0x00, 0xE0, 0xE7, 0xDB, 0x2A, 0x1A, 0x0D, 0x00,
  0x25, 0x14, 0x04, 0xEB, 0xF9, 0xF5, 0x39, 0xFE, 0x07, 0x25,
  0xEF, 0x1F, 0x08, 0x00, 0x29, 0xF0, 0xF5, 0xE8, 0xD9, 0x06,
  0x44, 0xE9, 0xE5, 0x15, 0x13, 0x00, 0x2B, 0x2E, 0x30, 0x0A,
  0x12, 0x02, 0x01, 0xFE, 0x00, 0x33, 0xD6, 0xFE, 0xFE, 0x17,
  0x13, 0x2C, 0x11, 0xF4, 0x0D, 0x1E, 0xFB, 0x21, 0x00, 0x0B,
  0x9D, 0x11, 0x33, 0x01, 0x48, 0x46, 0x98, 0xD4, 0xDF, 0x00,
  0x15, 0xD0, 0xCC, 0x11, 0x07, 0x52, 0x24, 0xF6, 0xFB, 0x2E,
  0x14, 0xE5, 0x3A, 0x9C, 0xDA, 0x92, 0x2E, 0xC7, 0xE6, 0x39,
  0x46, 0xD7, 0xA7, 0xEE, 0xB6, 0x1A, 0x63, 0x31, 0x12, 0xFC,
  0x00, 0x26, 0xCE, 0x01, 0xCB, 0xFB, 0x3E, 0x5E, 0x3C, 0xAD,
  0xF9, 0x29, 0xC3, 0xAD, 0x23, 0xAB, 0x00, 0x00, 0xFF, 0x15,
  0xE0, 0x00, 0xEF, 0x00, 0x23, 0x31, 0xB1, 0x12, 0xBD, 0x2B,
  0xF1, 0x04, 0x00, 0x03, 0x25, 0x3B, 0x19, 0x24, 0x00, 0x07,
  0x4B, 0xF7, 0x1E, 0x00, 0x3A, 0xB7, 0x42, 0x24, 0xF7, 0xF0,
  0x9E, 0x0E, 0xAE, 0xFD, 0xD5, 0xFF, 0x02, 0x00, 0x04, 0x81,
  0x33, 0xCB, 0x05, 0x06, 0x1C, 0xD3, 0xBF, 0xCF, 0x61, 0x1A,
  0xBA, 0x11, 0x02, 0xD2, 0x1A, 0xFC, 0x15, 0xBD, 0xFB, 0xBA,
  0xEE, 0xF4, 0x4F, 0x15, 0x42, 0x42, 0xD3, 0x21, 0x00, 0x05,
  0x40, 0x04, 0x51, 0x26, 0x09, 0xD8, 0xE7, 0xC5, 0x6D, 0x34,
  0x09, 0x2A, 0x2F, 0xBF, 0x06, 0x88, 0x0D, 0xF4, 0x2D, 0x32,
  0x32, 0x48, 0x07, 0xFC, 0x5C, 0xF0, 0x00, 0x4B, 0xCD, 0x54,
  0x32, 0x36, 0xA2, 0xD0, 0x3A, 0xEF, 0x00, 0x04, 0xED, 0xF8,
  0xF5, 0xCB, 0x0A, 0xA2, 0x30, 0x07, 0x0E, 0x23, 0x00, 0xDB,
  0xF4, 0x3A, 0xF0, 0x3A, 0xC8, 0x39, 0xE0, 0xCB, 0x5A, 0xED,
  0x44, 0xD1, 0x0F, 0xE8, 0x0B, 0x43, 0xAF, 0xE4, 0x00, 0x40,
  0xF3, 0x0A, 0xD5, 0x31, 0x16, 0x75, 0xD7, 0x10, 0x27, 0xBA,
  0xBD, 0x00, 0x03, 0xED, 0xC4, 0x09, 0x10, 0x00, 0xFA, 0xF1,
  0x0A, 0xB4, 0xDB, 0x0D, 0x35, 0x00, 0xF7, 0x2E, 0xAB, 0xC1,
  0xFD, 0xB8, 0x56, 0x00, 0x03, 0x12, 0x40, 0xEA, 0x00, 0xC7,
  0x16, 0x21, 0xDA, 0xD9, 0x26, 0x00, 0x55, 0x00, 0x7B, 0x3D,
  0x46, 0xD7, 0xF3, 0x2B, 0x02, 0x18, 0xA6, 0xC4, 0xE0, 0x48,
  0x00, 0xF8, 0x28, 0x2D, 0x53, 0x04, 0x00, 0xC3, 0xA0, 0x1A,
  0x00, 0x3A, 0xF1, 0x7E, 0xC2, 0x49, 0x9F, 0xEE, 0x4B, 0x1A,
  0x00, 0x00, 0xFE, 0x19, 0x9E, 0x00, 0x05, 0xDE, 0x24, 0x2C,
  0xF5, 0x12, 0x0B, 0x00, 0x29, 0xD9, 0xDD, 0xD5, 0x00, 0x40,
  0x24, 0x92, 0xB8, 0x02, 0xFB, 0xDD, 0xD6, 0x1F, 0xE8, 0x28,
  0xDC, 0x48, 0x2B, 0x00, 0x00, 0x15, 0x00, 0x3E, 0x21, 0x21,
  0xC2, 0xC6, 0x95, 0xC3, 0xC8, 0x2F, 0x00, 0x20, 0xBF, 0x26,
  0x20, 0xFF, 0x00, 0x00, 0x18, 0x33, 0x3B, 0x1B, 0x00, 0x1B,
  0x09, 0x25, 0xE9, 0xC8, 0x4D, 0x00, 0xC0, 0x08, 0x00, 0x00,
  0x23, 0x00, 0x28, 0x08, 0x86, 0x28, 0x1C, 0x00, 0x2A, 0x30,
  0x00, 0x1C, 0x1B, 0x03, 0x00, 0x00, 0x30, 0xC5, 0x00, 0x00,
  0x2B, 0x00, 0xA8, 0x00, 0x00, 0x00, 0xC8, 0xF3, 0x0A, 0x00,
  0xF8, 0xE1, 0xE2, 0xCD, 0x25, 0x36, 0xD0, 0x9B, 0x36, 0x00,
  0x04, 0x23, 0x81, 0x2F, 0x00, 0x13, 0x91, 0x18, 0xFE, 0x32,
  0xCE, 0xFA, 0x23, 0x44, 0x1B, 0x07, 0x28, 0xD7, 0x0E, 0x11,
  0xA6, 0x91, 0xEA, 0x52, 0xCB, 0xBD, 0x6E, 0xD5, 0x26, 0xBF,
  0xFF, 0x02, 0xDA, 0x06, 0x16, 0x2C, 0xBB, 0x00, 0xCC, 0x68,
  0x00, 0xC9, 0xE7, 0x03, 0x2B, 0xC8, 0x37, 0x4D, 0xFB, 0x34,
  0x03, 0x02, 0x00, 0xD5, 0xBB, 0xCF, 0x00, 0x07, 0x2E, 0x3B,
  0xC7, 0x29, 0x2C, 0x00, 0x50, 0x20, 0xD2, 0x29, 0x2A, 0x00,
  0x00, 0x67, 0x25, 0xF0, 0xD3, 0xA9, 0x00, 0xA4, 0x47, 0x18,
  0x18, 0x22, 0x03, 0xE7, 0xDF, 0x05, 0x34, 0xFA, 0xC6, 0x27,
  0xD8, 0xDE, 0x00, 0xFD, 0x37, 0x00, 0xFC, 0x02, 0x2F, 0x9C,
  0xFE, 0x2B, 0x8A, 0x00, 0x0A, 0x53, 0x00, 0xAE, 0x00, 0xC1,
  0x04, 0x46, 0x00, 0xD7, 0x22, 0x20, 0x3C, 0x05, 0xC0, 0x00,
  0xEB, 0xC6, 0x01, 0xFD, 0x51, 0x15, 0x0F, 0xC1, 0xF5, 0xC8,
  0x00, 0x00, 0x00, 0xFB, 0x2A, 0x6F, 0x01, 0x30, 0xF1, 0x03,
  0xC6, 0x00, 0x00, 0x00, 0xAB, 0xCE, 0xFF, 0xC8, 0x0D, 0x05,
  0x53, 0xF7, 0x00, 0x00, 0x00, 0x56, 0xCF, 0xFE, 0xFD, 0x47,
  0xEA, 0xCD, 0x00, 0xF9, 0xE2, 0x04, 0x06, 0x29, 0xFB, 0x19,
  0x26, 0x39, 0xBB, 0xA5, 0x00, 0x1F, 0xF9, 0x28, 0x00, 0xF5,
  0x00, 0x03, 0x00, 0x00, 0x32, 0xD5, 0x27, 0xD9, 0x00, 0xB4,
  0xFA, 0xBC, 0xF6, 0x0E, 0x00, 0x00, 0x00, 0xED, 0x01, 0x14,
  0x33, 0x47, 0x31, 0x08, 0xBD, 0x29, 0x00, 0x1C, 0x41, 0x00,
  0x1C, 0x2C, 0x00, 0x35, 0xE5, 0x00, 0xDC, 0xA3, 0x0E, 0x45,
  0x26, 0x03, 0x05, 0xD2, 0xEF, 0xD7, 0x02, 0x15, 0x22, 0x1D,
  0x0A, 0x0F, 0x35, 0xF4, 0x08, 0x27, 0xD8, 0xF4, 0x00, 0x0C,
  0x00, 0x26, 0x01, 0x05, 0x00, 0x34, 0x00, 0x00, 0x00, 0xDA,
  0x00, 0xE7, 0x5A, 0x37, 0x2B, 0x1C, 0x00, 0x01, 0x29, 0x01,
  0x00, 0x33, 0xD7, 0x00, 0x02, 0x36, 0xE4, 0xF2, 0x00, 0xFC,
  0x0E, 0x00, 0x66, 0x00, 0x00, 0x00, 0x19, 0xEA, 0x00, 0x1D,
  0x19, 0x17, 0x00, 0x00, 0x0C, 0x25, 0x00, 0x01, 0x2B, 0x2B,
  0x39, 0xD4, 0xE8, 0x07, 0x00, 0x00, 0xEF, 0x00, 0xFB, 0x17,
  0xEB, 0x0D, 0x2F, 0x00, 0x07, 0x08, 0xBD, 0x3E, 0xF0, 0x00,
  0x2D, 0x23, 0x2A, 0x00, 0x39, 0x06, 0x00, 0x00, 0x3F, 0x00,
  0x12, 0x32, 0x0E, 0x00, 0xD2, 0xC8, 0x01, 0x00, 0xEC, 0x0E,
  0x2F, 0x3C, 0x46, 0xEE, 0xF8, 0xE2, 0x00, 0x03, 0xC0, 0xE6,
  0x35, 0x00, 0x2E, 0x08, 0x03, 0x12, 0x00, 0x00, 0xF9, 0x00,
  0x29, 0x27, 0x07, 0x06, 0x00, 0x00, 0xC4, 0xC7, 0x17, 0x09,
  0x12, 0x08, 0x23, 0x7F, 0x00, 0x35, 0x1D, 0xCF, 0xFD, 0x02,
  0xDD, 0x00, 0xD9, 0xE1, 0x2C, 0x25, 0x20, 0x01, 0xAF, 0xA6,
  0xE4, 0xE4, 0x00, 0x00, 0x25, 0x00, 0x2A, 0x0F, 0x00, 0xB4,
  0x15, 0xF0, 0xB4, 0x28, 0x00, 0xE2, 0xEC, 0xF9, 0x00, 0xD6,
  0xFD, 0xEC, 0x49, 0x1A, 0xD9, 0x4F, 0x04, 0x8C, 0x02, 0x00,
  0xA8, 0xC4, 0xFC, 0x23, 0x10, 0x0D, 0x0A, 0xFB, 0x00, 0xFE,
  0x2A, 0xFA, 0xE3, 0xED, 0x1D, 0x32, 0x24, 0xF6, 0xAB, 0xBC,
  0x2D, 0xE4, 0xF5, 0xA5, 0x35, 0x00, 0x00, 0xE2, 0x33, 0xEB,
  0x22, 0x14, 0xF6, 0x00, 0x38, 0x40, 0xC4, 0xDF, 0x00, 0xF4,
  0xE0, 0xCF, 0x2E, 0x00, 0xD9, 0xD3, 0x1F, 0xF3, 0x00, 0x00,
  0xA4, 0x14, 0x00, 0x06, 0x18, 0xD9, 0xF1, 0x3A, 0x00, 0x31,
  0x0F, 0x00, 0x00, 0xE1, 0xDE, 0x00, 0x00, 0x2F, 0xFE, 0x0A,
  0x11, 0x01, 0x00, 0x10, 0x18, 0x19, 0x00, 0x00, 0xCF, 0x0C,
  0x24, 0xFC, 0xEC, 0x2B, 0x00, 0xEF, 0xF2, 0xDF, 0x3D, 0x29,
  0xE0, 0x2C, 0xF8, 0x1B, 0x0D, 0x1C, 0xEC, 0x0F, 0x0C, 0xF8,
  0x00, 0x37, 0xE0, 0x04, 0xFD, 0x1D, 0x37, 0x27, 0xCF, 0xE9,
  0x28, 0x0D, 0x2D, 0x00, 0x28, 0x0C, 0x27, 0x32, 0x35, 0xFA,
  0xE5, 0x19, 0xD9, 0x36, 0xE3, 0x00, 0x22, 0x0A, 0x2C, 0xC9,
  0x36, 0x05, 0x00, 0xDD, 0xD5, 0xFF, 0x00, 0xF0, 0x1E, 0x38,
  0xEF, 0x17, 0x1E, 0xFB, 0x00, 0x90, 0x31, 0xB6, 0x00, 0x1F,
  0xBB, 0x00, 0xF9, 0xB7, 0x0E, 0xE7, 0x49, 0xFC, 0x00, 0x06,
  0x3C, 0x44, 0x00, 0x27, 0x15, 0x0B, 0x1D, 0xD0, 0x06, 0x37,
  0xD7, 0xFC, 0xFA, 0x42, 0xCD, 0xE8, 0x00, 0xED, 0x3C, 0x0E,
  0xED, 0x36, 0xFF, 0x00, 0x19, 0xCB, 0xF9, 0x11, 0x1B, 0x35,
  0x50, 0x00, 0x00, 0x42, 0xFE, 0xC6, 0xFB, 0x00, 0x00, 0xF0,
  0x11, 0x00, 0xEE, 0xC3, 0x00, 0x13, 0xFD, 0xD9, 0x00, 0x1A,
  0xFF, 0xDB, 0x25, 0xF5, 0x1A, 0x19, 0x0E, 0xDC, 0xFD, 0xDE,
  0xDD, 0x0B, 0x17, 0x21, 0x07, 0xF3, 0xD6, 0x02, 0x1C, 0xF8,
  0x10, 0xEC, 0x02, 0x05, 0x25, 0x0C, 0x2A, 0x4E, 0xFE, 0x1F,
  0xE1, 0x81, 0xFF, 0xF2, 0x2B, 0xD6, 0xCB, 0xE7, 0x32, 0x1F,
  0xF8, 0x11, 0x00, 0xED, 0xE3, 0xD9, 0x23, 0x38, 0x00, 0xD6,
  0x0C, 0x00, 0x19, 0x06, 0xDD, 0xD9, 0xC8, 0x06, 0x03, 0x3E,
  0xF9, 0x1D, 0x14, 0xC9, 0x07, 0x19, 0x00, 0x16, 0xFE, 0x19,
  0x36, 0xCA, 0x00, 0xC5, 0x1D, 0x00, 0xF3, 0xDB, 0x24, 0xF5,
  0xFF, 0x23, 0x16, 0xBD, 0xED, 0xCA, 0x00, 0x06, 0x1C, 0xCF,
  0xF1, 0x00, 0x0F, 0x2B, 0x1E, 0x3E, 0x05, 0xE6, 0x19, 0x18,
  0x20, 0x00, 0x02, 0xEC, 0x31, 0xE6, 0xFF, 0x00, 0x0C, 0x00,
  0x06, 0x00, 0x15, 0x12, 0x03, 0x2B, 0x0A, 0xF7, 0x3A, 0x00,
  0x11, 0x00, 0x19, 0xE5, 0x00, 0xEA, 0x08, 0xEE, 0xFC, 0x00,
  0xF3, 0xD7, 0x25, 0x1F, 0x05, 0x3C, 0xFB, 0x3C, 0x1D, 0xD2,
  0x00, 0x1E, 0x00, 0x53, 0xB4, 0xFC, 0x33, 0x00, 0x00, 0xC3,
  0x00, 0x00, 0x00, 0x00, 0x28, 0x00, 0x00, 0xF8, 0xBE, 0x4B,
  0xD1, 0x3B, 0x00, 0x00, 0x3D, 0x05, 0xE7, 0x2F, 0x00, 0x0D,
  0xFA, 0x3A, 0x10, 0x00, 0x00, 0x32, 0x08, 0xBE, 0x45, 0x23,
  0x3D, 0x00, 0x9F, 0x1D, 0xC0, 0xEB, 0xF7, 0xDF, 0x00, 0xDB,
  0x00, 0x00, 0x2C, 0x2A, 0x03, 0x00, 0xCD, 0x00, 0x00, 0xFE,
  0x14, 0x29, 0x00, 0x00, 0x14, 0x0F, 0x41, 0x20, 0x7F, 0xD0,
  0xC8, 0x24, 0x00, 0x1F, 0xEC, 0xD1, 0xB2, 0xED, 0x00, 0xEA,
  0xC5, 0x21, 0x00, 0x88, 0x00, 0xA4, 0x73, 0xE2, 0x99, 0x3E,
  0x0C, 0x00, 0x37, 0x00, 0x47, 0x2F, 0x00, 0x15, 0x25, 0x14,
  0x00, 0xD7, 0x00, 0x21, 0x00, 0x00, 0x00, 0x3C, 0x00, 0x00,
  0x00, 0x00, 0x2F, 0xD4, 0x00, 0xEA, 0x1A, 0x3B, 0x11, 0xDD,
  0x00, 0x02, 0x54, 0x22, 0xFC, 0xF7, 0x00, 0x00, 0x46, 0x00,
  0xDB, 0x00, 0x00, 0xE6, 0x33, 0x3A, 0xD9, 0x48, 0xBA, 0x00,
  0x00, 0x1A, 0x00, 0xC5, 0x32, 0x00, 0x13, 0xE5, 0x00, 0x29,
  0xFE, 0x3B, 0x15, 0xFF, 0x1B, 0xE0, 0x04, 0x00, 0x13, 0x00,
  0x00, 0x3D, 0xD4, 0x1A, 0x00, 0x2F, 0x00, 0x12, 0x0F, 0x1A,
  0xD7, 0xCB, 0x36, 0x44, 0x42, 0x00, 0x1F, 0x72, 0x3F, 0xED,
  0x24, 0xA0, 0x43, 0x32, 0xF6, 0x00, 0xF8, 0xC4, 0x17, 0x37,
  0x19, 0xBF, 0x19, 0x1A, 0x00, 0x00, 0x00, 0xFA, 0xDA, 0xEC,
  0xE3, 0x50, 0x11, 0x03, 0x00, 0x2F, 0xB2, 0x10, 0x3E, 0xC0,
  0x00, 0xF9, 0x27, 0x00, 0xDA, 0x3E, 0x28, 0x00, 0x0A, 0x00,
  0xD5, 0x00, 0xE3, 0x00, 0x0D, 0x29, 0x48, 0x00, 0xC9, 0x00,
  0x29, 0xB8, 0x00, 0x4E, 0x19, 0x32, 0x43, 0xD5, 0x22, 0xD2,
  0x17, 0xC0, 0xBB, 0x10, 0x67, 0x00, 0x20, 0xF9, 0xF6, 0x06,
  0xEC, 0xBA, 0xE1, 0xE6, 0xE7, 0x00, 0xD9, 0x00, 0x00, 0x35,
  0xD3, 0xCE, 0x00, 0xFB, 0xC3, 0x46, 0x00, 0x3D, 0xF4, 0x48,
  0x34, 0x36, 0xEC, 0x00, 0x00, 0xFC, 0x00, 0x98, 0x25, 0x25,
  0xF2, 0x6A, 0xE9, 0x00, 0xDB, 0x18, 0x19, 0x3F, 0x18, 0xBE,
  0xFC, 0x19, 0x54, 0x7F, 0xEA, 0x44, 0xE9, 0x1A, 0xE4, 0xED,
  0xFB, 0x2E, 0xD8, 0x0C, 0x14, 0x22, 0x03, 0xF9, 0xD8, 0xD6,
  0xFF, 0xEA, 0xE0, 0x00, 0x01, 0x1F, 0xF3, 0x1D, 0x49, 0x06,
  0x47, 0x01, 0xE7, 0x1C, 0x12, 0xE7, 0x36, 0x07, 0x43, 0xE3,
  0xCF, 0xE0, 0x00, 0x04, 0xF9, 0x18, 0x03, 0x00, 0x00, 0x08,
  0x25, 0xFB, 0x00, 0x25, 0x1B, 0xE1, 0x17, 0x14, 0x13, 0x00,
  0x42, 0x11, 0x2E, 0xFE, 0x1F, 0x0A, 0x00, 0xCB, 0xF3, 0xF0,
  0xFB, 0xDC, 0xB6, 0x18, 0x3C, 0x00, 0x15, 0xE8, 0xF2, 0x0B,
  0x3C, 0xC1, 0x2F, 0xE3, 0x0C, 0x2F, 0xD4, 0xFA, 0xD1, 0xA6,
  0x07, 0x03, 0x3D, 0x1F, 0x09, 0xDC, 0x03, 0xF0, 0x05, 0xFA,
  0x30, 0xB8, 0x23, 0x0B, 0x00, 0xFF, 0x15, 0x0C, 0x2D, 0x3B,
  0xE5, 0x0F, 0xE0, 0xDD, 0x1B, 0xF7, 0x00, 0x01, 0xFC, 0x0A,
  0xD5, 0x19, 0xFD, 0xF6, 0xFF, 0xDB, 0xFD, 0x20, 0xEB, 0x30,
  0x25, 0x2F, 0x2B, 0x1A, 0xE8, 0xE2, 0xE3, 0x04, 0xF7, 0xD6,
  0xF1, 0x1D, 0xEE, 0x11, 0xD8, 0xEA, 0x02, 0xFF, 0x3E, 0x23,
  0xE8, 0x2E, 0x36, 0xC3, 0xFF, 0x1C, 0xD6, 0xDA, 0x24, 0x00,
  0x23, 0x22, 0x59, 0x1F, 0x17, 0xDE, 0x0A, 0xED, 0xFB, 0xF5,
  0x00, 0x27, 0x07, 0xF3, 0x32, 0x14, 0xF4, 0x86, 0xFC, 0xDF,
  0x4B, 0x00, 0x00, 0x2F, 0x11, 0xD0, 0xED, 0xCD, 0x2F, 0x17,
  0x00, 0xE8, 0x31, 0x08, 0xE6, 0xCB, 0xFD, 0x00, 0xE1, 0x08,
  0x2F, 0xF1, 0x0E, 0x1A, 0x00, 0x3B, 0x17, 0x0E, 0xE6, 0xF4,
  0x08, 0x13, 0xE7, 0x00, 0xCF, 0x09, 0xD1, 0xF8, 0x03, 0x01,
  0x18, 0x13, 0xC9, 0x28, 0x35, 0x00, 0xF3, 0xFA, 0x1D, 0xCD,
  0x2F, 0x0A, 0x17, 0x3D, 0x1A, 0x0C, 0x41, 0x00, 0x1B, 0x09,
  0x1F, 0x18, 0x33, 0x42, 0xFE, 0x06, 0x0D, 0x28, 0x06, 0xFA,
  0x1B, 0xFD, 0x06, 0x19, 0xF4, 0x25, 0xFC, 0xF2, 0xE9, 0xDF,
  0x21, 0x01, 0x0C, 0x35, 0x4F, 0xFE, 0x40, 0x26, 0x50, 0x08,
  0x00, 0xA2, 0x20, 0xBE, 0x42, 0xE9, 0xFD, 0xD2, 0x5D, 0x2C,
  0x27, 0x0E, 0xEF, 0x00, 0x02, 0xF1, 0x1F, 0x34, 0x32, 0x0A,
  0x1A, 0x12, 0x00, 0x00, 0xF4, 0xCD, 0x4A, 0x1B, 0x05, 0x1A,
  0xF6, 0x00, 0x00, 0xF3, 0xF9, 0x5C, 0xFA, 0x05, 0xBA, 0x1F,
  0x2D, 0x30, 0xEF, 0x1C, 0x00, 0x10, 0x0D, 0xE0, 0x08, 0x00,
  0x33, 0xFC, 0xB7, 0xFF, 0x00, 0x02, 0x25, 0x2B, 0x1D, 0x27,
  0x1C, 0xCF, 0x1E, 0xD7, 0x00, 0xF9, 0xEB, 0x5B, 0x1B, 0x31,
  0x00, 0x00, 0x00, 0x17, 0x3C, 0x46, 0x2E, 0x10, 0x09, 0x02,
  0x0A, 0x2E, 0xD4, 0x00, 0x81, 0x2A, 0x00, 0x37, 0x08, 0x31,
  0xC6, 0x00, 0xEF, 0x32, 0x06, 0x00, 0x1F, 0x04, 0xD6, 0x5D,
  0x20, 0x0E, 0xFB, 0xE9, 0x07, 0xCB, 0x06, 0x00, 0xFC, 0x41,
  0xF6, 0x14, 0x00, 0xCC, 0x21, 0xF9, 0x2C, 0xCD, 0x01, 0xC9,
  0x00, 0x04, 0xBC, 0x19, 0xF1, 0x00, 0xDA, 0x02, 0x29, 0x01,
  0x00, 0x05, 0xE2, 0xEC, 0xD2, 0x31, 0x04, 0x3C, 0x15, 0xE6,
  0x0A, 0x07, 0x01, 0x26, 0xFA, 0x2A, 0x06, 0x07, 0xCD, 0x00,
  0x03, 0xE7, 0x4D, 0xFF, 0xEB, 0x16, 0xF6, 0xB8, 0x14, 0xE8,
  0xFD, 0xCE, 0x2B, 0x4E, 0x23, 0xCB, 0xF4, 0x20, 0x19, 0xF2,
  0x1F, 0x00, 0x1F, 0x00, 0xD5, 0xE1, 0x00, 0x1B, 0x1C, 0x4B,
  0xD0, 0xE8, 0x39, 0x47, 0x06, 0x00, 0x00, 0x00, 0x00, 0xFB,
  0xC1, 0x27, 0x14, 0x00, 0xDE, 0x00, 0x00, 0x00, 0xD5, 0x00,
  0xFD, 0x00, 0xF4, 0xEE, 0x01, 0x1E, 0xEE, 0xF2, 0x02, 0xE4,
  0x34, 0x00, 0x00, 0xD1, 0xEF, 0xD3, 0x00, 0xFD, 0x40, 0xDC,
  0x32, 0xFA, 0xE0, 0xCB, 0xF7, 0x2D, 0xFC, 0x0D, 0xCA, 0x1B,
  0x21, 0x00, 0xDC, 0xFD, 0x08, 0x0C, 0xED, 0xE6, 0x13, 0xA7,
  0xC0, 0x25, 0xD5, 0x00, 0x2E, 0x26, 0x00, 0x00, 0x3A, 0x0D,
  0xFA, 0x30, 0xD0, 0x00, 0x00, 0xE3, 0x03, 0x00, 0x00, 0x06,
  0x05, 0xFA, 0xFF, 0xF6, 0xF5, 0xFF, 0x1B, 0xEA, 0x1D, 0x00,
  0xFB, 0xF8, 0xD3, 0x23, 0x00, 0x3B, 0x01, 0x08, 0x20, 0xA3,
  0x07, 0xF0, 0x0C, 0x40, 0x07, 0x05, 0x00, 0xE5, 0x17, 0xD8,
  0x0B, 0x74, 0x2F, 0xBE, 0x34, 0x34, 0x19, 0xC0, 0x07, 0x20,
  0x0D, 0x35, 0xC6, 0xF6, 0x2A, 0x00, 0xF3, 0x02, 0xC9, 0x4F,
  0x40, 0x6F, 0xE5, 0x24, 0xFB, 0xEA, 0x12, 0x00, 0xCF, 0xFC,
  0x22, 0xDD, 0xD6, 0x70, 0xFD, 0x00, 0x01, 0x05, 0x15, 0x0D,
  0xD5, 0x05, 0x12, 0x46, 0xEC, 0x00, 0x7F, 0x12, 0xDD, 0xC3,
  0x02, 0x00, 0x02, 0x0E, 0x18, 0x2C, 0xB2, 0xE6, 0xE5, 0x06,
  0x0C, 0xD3, 0xE3, 0x40, 0x00, 0xC1, 0x2F, 0x00, 0x21, 0x05,
  0x04, 0x12, 0x00, 0xE2, 0x04, 0xE1, 0xFD, 0xE9, 0x3D, 0x00,
  0x20, 0x00, 0x08, 0xE7, 0xEE, 0x24, 0x1F, 0xDB, 0xC4, 0x44,
  0x0B, 0x2C, 0x01, 0x0E, 0x20, 0x0D, 0xE8, 0x16, 0x1A, 0x08,
  0x3D, 0xFE, 0xD6, 0x00, 0x33, 0x88, 0x08, 0xC4, 0x6F, 0x31,
  0x2C, 0xC4, 0x2A, 0x29, 0x00, 0x1B, 0x07, 0x00, 0xED, 0x28,
  0xF8, 0x02, 0x3A, 0x00, 0xFD, 0x0F, 0x40, 0x00, 0x00, 0x3B,
  0xFE, 0x00, 0xB9, 0x16, 0x01, 0x0F, 0xDD, 0xF3, 0xED, 0x5D,
  0x00, 0xFB, 0x0E, 0xF6, 0x00, 0x23, 0x00, 0x31, 0x36, 0x28,
  0x24, 0x2B, 0xF9, 0xDB, 0x22, 0x07, 0x09, 0x44, 0x00, 0x1E,
  0x0E, 0xC1, 0x00, 0xCA, 0x27, 0x00, 0xD4, 0x44, 0xEB, 0x17,
  0xF0, 0x19, 0x00, 0x0C, 0xF6, 0xE5, 0x1D, 0x00, 0x06, 0xF9,
  0xEC, 0xF8, 0xE4, 0x07, 0xD3, 0xF2, 0x00, 0x00, 0x09, 0xC6,
  0x0F, 0x4E, 0xFA, 0x93, 0x13, 0xEE, 0x32, 0x00, 0xE5, 0xE7,
  0x17, 0xE4, 0xDB, 0xEA, 0xF4, 0x16, 0xD9, 0x11, 0xE7, 0xFA,
  0x00, 0xFC, 0x1E, 0xFE, 0xE7, 0x00, 0x2C, 0x00, 0x00, 0xFC,
  0x00, 0x1C, 0x36, 0xD5, 0xEA, 0x00, 0x00, 0x01, 0xC7, 0x14,
  0x39, 0xEE, 0xFE, 0x40, 0x34, 0x46, 0xE9, 0x1B, 0xCC, 0x44,
  0xDC, 0xF7, 0x09, 0xCD, 0x3F, 0xB8, 0xD6, 0x00, 0xDA, 0x2C,
  0x0A, 0x00, 0xD6, 0x0A, 0x1F, 0xCD, 0xD8, 0xF2, 0x00, 0xCC,
  0xD7, 0x16, 0xFC, 0xEC, 0xF4, 0x0B, 0x10, 0x07, 0x02, 0xE1,
  0xFE, 0x0B, 0x00, 0x0C, 0x29, 0x06, 0x00, 0x37, 0x00, 0x08,
  0xCA, 0x1F, 0x00, 0x0B, 0x36, 0x00, 0x00, 0xF7, 0xFD, 0x38,
  0x00, 0x1A, 0xE3, 0x18, 0x1A, 0xF2, 0x00, 0xFC, 0x00, 0x00,
  0x0A, 0xAD, 0x0A, 0x07, 0x1E, 0xF9, 0x35, 0xDB, 0x0A, 0x41,
  0x00, 0xFE, 0x75, 0xFE, 0xCA, 0x51, 0x23, 0x45, 0x16, 0xC3,
  0x0A, 0xD4, 0xFE, 0xF1, 0xEB, 0xC7, 0x17, 0xD7, 0x2B, 0x66,
  0x40, 0x7F, 0x08, 0x36, 0xEA, 0xE9, 0xFF, 0xF6, 0x12, 0x1F,
  0x2B, 0x00, 0xA5, 0x00, 0x48, 0x0A, 0xFF, 0xBE, 0x1F, 0x16,
  0xD8, 0xFE, 0x44, 0xBD, 0x46, 0x00, 0x2C, 0x4A, 0xCC, 0x45,
  0x3A, 0x0E, 0x05, 0xC5, 0x0E, 0x2B, 0x2B, 0x63, 0xD8, 0xFB,
  0xEB, 0xE0, 0x1E, 0x25, 0x14, 0x14, 0xFD, 0x17, 0xF2, 0x1B,
  0x3F, 0x00, 0xC6, 0xCB, 0x31, 0x94, 0x0F, 0xC5, 0xDA, 0xF7,
  0xCE, 0x1A, 0xD1, 0x18, 0x1E, 0x22, 0xF2, 0xF1, 0xDD, 0xDF,
  0x21, 0x1E, 0xCD, 0xD0, 0xE6, 0x00, 0xF9, 0x2F, 0x00, 0x30,
  0x0A, 0x33, 0x0B, 0x00, 0xE7, 0x36, 0x36, 0x2B, 0x1F, 0xC5,
  0xBF, 0x00, 0x00, 0x00, 0x00, 0x35, 0xC2, 0x04, 0xF7, 0x08,
  0x3D, 0x01, 0x48, 0xFE, 0x4E, 0xC1, 0xF4, 0xDA, 0x00, 0x00,
  0x3B, 0x2C, 0xEE, 0xFE, 0x46, 0xFF, 0x3D, 0xB8, 0x33, 0x79,
  0xF7, 0xCD, 0x00, 0x2D, 0xD9, 0x00, 0x00, 0x00, 0x27, 0x00,
  0xED, 0xE9, 0x13, 0x3C, 0xDC, 0x4F, 0xF9, 0x01, 0x01, 0x0A,
  0xD7, 0xF9, 0x0E, 0xF3, 0xD1, 0x03, 0x0E, 0xF0, 0xF9, 0xF3,
  0x44, 0xF9, 0xDC, 0x2E, 0x27, 0xCA, 0x9A, 0x2D, 0x00, 0x0B,
  0xB1, 0x05, 0xC4, 0x1C, 0xEC, 0x02, 0x29, 0x64, 0xD5, 0x01,
  0x3F, 0xFC, 0xC5, 0x00, 0xF2, 0x42, 0x00, 0x34, 0xBD, 0xF3,
  0x00, 0x29, 0x27, 0x00, 0x29, 0x46, 0x0A, 0xEF, 0x27, 0x5E,
  0x20, 0x00, 0xDE, 0xFE, 0x01, 0x27, 0xFF, 0xF1, 0xCA, 0xD7,
  0x00, 0xFC, 0xFE, 0xD5, 0xCA, 0xD9, 0x26, 0x08, 0xFF, 0xB5,
  0xAA, 0x15, 0xE8, 0x05, 0xFB, 0x15, 0xEC, 0xF4, 0x2B, 0x00,
  0xF8, 0xD0, 0x16, 0xF0, 0x24, 0x30, 0xD7, 0x4A, 0x00, 0x00,
  0x41, 0x28, 0x02, 0xDB, 0x1D, 0xE0, 0xF8, 0x27, 0x00, 0x3A,
  0xDA, 0xDE, 0x5C, 0x16, 0x03, 0x01, 0xD5, 0xEA, 0x2E, 0x79,
  0x34, 0x3F, 0x2A, 0xD4, 0x00, 0xF8, 0xD4, 0x39, 0xD3, 0x19,
  0x00, 0xF7, 0xFA, 0x03, 0xDA, 0xFC, 0x03, 0x2B, 0xEA, 0x19,
  0xB0, 0x00, 0x2C, 0xE8, 0xF3, 0xCD, 0x00, 0xF5, 0x00, 0x43,
  0x13, 0x05, 0x00, 0x00, 0x03, 0xE2, 0xF6, 0x23, 0x02, 0x09,
  0x22, 0x00, 0x55, 0xC6, 0x0A, 0x0F, 0x01, 0x28, 0x05, 0xFE,
  0xF0, 0xDC, 0xFB, 0xED, 0x00, 0x05, 0xFD, 0x00, 0xD0, 0x18,
  0x32, 0x3B, 0x09, 0x10, 0xF7, 0xDC, 0xF1, 0xF1, 0xD6, 0xFE,
  0x22, 0x25, 0x43, 0x00, 0x3D, 0x0F, 0x00, 0x34, 0x29, 0xF5,
  0xE8, 0x00, 0x00, 0xE0, 0xD3, 0xE9, 0xCB, 0x00, 0x0A, 0xED,
  0x0B, 0x41, 0x0C, 0x00, 0xEC, 0x00, 0x5B, 0x29, 0x94, 0x26,
  0x00, 0xB5, 0x4D, 0xFD, 0x01, 0xDB, 0x36, 0x13, 0x24, 0xED,
  0x16, 0xC6, 0xCC, 0xFD, 0x22, 0x00, 0xD8, 0x1B, 0x03, 0x0C,
  0x2E, 0xE5, 0x04, 0x00, 0xD6, 0xFD, 0x00, 0x09, 0x00, 0xE8,
  0x00, 0xED, 0x09, 0xFA, 0xD5, 0x15, 0x27, 0xF9, 0xBE, 0xEA,
  0x00, 0x23, 0xF1, 0x04, 0x25, 0xE7, 0xDC, 0x14, 0xB3, 0x1D,
  0x00, 0x10, 0x0A, 0x2A, 0x11, 0x00, 0x00, 0xC9, 0x16, 0x00,
  0x00, 0x24, 0x00, 0xE9, 0x1A, 0xE2, 0xDD, 0xE7, 0xDD, 0x18,
  0xE8, 0xEB, 0x14, 0x2A, 0x37, 0x29, 0xEF, 0x00, 0x0F, 0x16,
  0xD2, 0xD7, 0x49, 0x22, 0xEE, 0x0B, 0xED, 0x3A, 0xEB, 0x81,
  0x24, 0xAD, 0x52, 0x2B, 0x2A, 0xE9, 0x43, 0x02, 0x20, 0xED,
  0x41, 0x0D, 0x00, 0xE8, 0x19, 0xFF, 0x0C, 0xE8, 0xD8, 0x0F,
  0xE5, 0x2C, 0x00, 0x1C, 0x0A, 0xD7, 0xE2, 0x47, 0x04, 0x22,
  0xD3, 0x02, 0x37, 0x0B, 0x00, 0x0D, 0x09, 0x00, 0x06, 0xFF,
  0x36, 0xBE, 0x08, 0x38, 0xFC, 0x1D, 0x06, 0x00, 0xD6, 0x00,
  0x03, 0xF1, 0x00, 0xEC, 0x00, 0x21, 0xF3, 0x0D, 0x00, 0x00,
  0x03, 0xE1, 0xF2, 0xCA, 0x11, 0xF0, 0xFF, 0x1D, 0x01, 0x00,
  0xF2, 0x38, 0x04, 0x0D, 0x00, 0xD5, 0xE5, 0x15, 0x11, 0x00,
  0x39, 0x07, 0x22, 0x32, 0xF8, 0x27, 0x33, 0xF1, 0xF1, 0x23,
  0xDB, 0x37, 0x27, 0xF8, 0xE4, 0xFD, 0x24, 0xC8, 0x07, 0x00,
  0xFD, 0x0A, 0x2D, 0x00, 0xE0, 0xEA, 0x07, 0x24, 0x00, 0x28,
  0x29, 0xC4, 0x00, 0xF5, 0x36, 0xF9, 0x00, 0x29, 0x0E, 0x2F,
  0xD5, 0xFD, 0x1A, 0x13, 0x34, 0x1B, 0xE3, 0x29, 0x30, 0xE8,
  0x46, 0x32, 0xD7, 0xFB, 0xFA, 0x3A, 0x03, 0xD4, 0x00, 0x00,
  0xFD, 0x11, 0x30, 0x00, 0x37, 0x02, 0x21, 0x00, 0xBC, 0x27,
  0x00, 0xD6, 0x00, 0xF3, 0x3B, 0x00, 0x32, 0x00, 0x17, 0x09,
  0x22, 0x00, 0x41, 0x00, 0xDF, 0x40, 0x27, 0x16, 0x24, 0xF6,
  0x3B, 0xDD, 0x00, 0xF1, 0x2D, 0x00, 0x00, 0xBD, 0x1A, 0x2E,
  0x26, 0x1C, 0x16, 0x30, 0x2C, 0x00, 0xEB, 0x00, 0x16, 0x13,
  0x1A, 0x27, 0x34, 0x70, 0x03, 0x00, 0x00, 0xE6, 0x22, 0xC3,
  0x10, 0xC1, 0xDF, 0x1A, 0x00, 0x12, 0xE9, 0xBF, 0x42, 0xCB,
  0x28, 0x00, 0xD0, 0xC3, 0xE7, 0x02, 0x00, 0x00, 0x27, 0x0E,
  0xFF, 0x24, 0x31, 0xD2, 0x17, 0xDC, 0xE1, 0xFE, 0x00, 0xCE,
  0x00, 0xD8, 0xDA, 0x1A, 0x28, 0xDB, 0x25, 0x00, 0x00, 0x00,
  0x03, 0xFE, 0x00, 0x19, 0x0C, 0x00, 0xC6, 0x00, 0xCE, 0xEA,
  0x33, 0x00, 0xFF, 0x00, 0xD7, 0x30, 0x00, 0x00, 0x15, 0x00,
  0xEC, 0x34, 0x4A, 0x44, 0x4B, 0x15, 0x00, 0x3B, 0x2D, 0x05,
  0xD5, 0x29, 0xDC, 0x24, 0x26, 0x2C, 0xDA, 0xDC, 0x29, 0x2B,
  0xF7, 0xDD, 0xEA, 0x00, 0xD0, 0xF1, 0x3C, 0x10, 0xD3, 0x59,
  0x00, 0x00, 0x01, 0xFF, 0x2D, 0x00, 0xFD, 0x00, 0x21, 0x08,
  0x31, 0x00, 0x00, 0x00, 0x1F, 0x35, 0xE7, 0xC6, 0x08, 0x00,
  0xD2, 0x00, 0x34, 0x47, 0x4E, 0x27, 0xCC, 0x2F, 0x14, 0x0C,
  0x00, 0x00, 0x30, 0xC5, 0x00, 0x00, 0x3B, 0x00, 0xE1, 0xF7,
  0x00, 0xE0, 0xC8, 0xEB, 0x34, 0x1D, 0x1F, 0xED, 0x43, 0x50,
  0x35, 0x00, 0xCA, 0xBB, 0x00, 0xEC, 0xE5, 0xBD, 0xE1, 0xFC,
  0x27, 0x52, 0x00, 0x19, 0x2A, 0xCA, 0x40, 0xE6, 0xFD, 0x43,
  0x25, 0xD4, 0x2D, 0x26, 0x06, 0x39, 0x00, 0x00, 0x3B, 0xDA,
  0xED, 0xE4, 0xFE, 0x27, 0xB2, 0x14, 0xC7, 0x00, 0xFF, 0x96,
  0x1C, 0xE2, 0xF3, 0x7F, 0x02, 0x64, 0x00, 0x2F, 0x26, 0xBE,
  0xFF, 0x4B, 0xC9, 0xDC, 0xEC, 0x44, 0x29, 0x0E, 0x00, 0x00,
  0xF5, 0x05, 0x19, 0x00, 0x39, 0xD7, 0x49, 0x02, 0x37, 0x38,
  0xFE, 0x1A, 0x1F, 0xB8, 0x3B, 0x00, 0x2B, 0x36, 0x7F, 0xDB,
  0xED, 0xF3, 0x39, 0xBA, 0x3E, 0xBA, 0x4B, 0xE3, 0x19, 0x5C,
  0xD1, 0xE2, 0xEA, 0x39, 0x2E, 0xEA, 0xC2, 0x08, 0x2D, 0xFF,
  0x36, 0x3D, 0xE5, 0xEB, 0x31, 0xBE, 0xF8, 0xF7, 0x08, 0x00,
  0x21, 0x1B, 0x00, 0x00, 0x24, 0xD0, 0x31, 0x2A, 0x00, 0x29,
  0xF7, 0x52, 0x32, 0xDE, 0x19, 0x13, 0xD5, 0xED, 0xD0, 0xED,
  0xFD, 0x31, 0xC0, 0xF2, 0x47, 0xCE, 0x1D, 0xEC, 0xDD, 0xD4,
  0xE5, 0xF8, 0x07, 0x1F, 0xFE, 0x0A, 0x2E, 0xF7, 0xFE, 0xF7,
  0x9A, 0x24, 0x03, 0x3C, 0x27, 0xEC, 0x3F, 0x32, 0xD7, 0x1C,
  0x00, 0xAD, 0x07, 0x0B, 0x22, 0x79, 0x59, 0xD5, 0x20, 0xCB,
  0x34, 0xB5, 0x00, 0xE2, 0x31, 0x21, 0x00, 0x40, 0x03, 0xCE,
  0x00, 0xEC, 0x25, 0x14, 0x5F, 0x44, 0x22, 0xD4, 0x09, 0xDA,
  0xE1, 0x0D, 0x0F, 0xD6, 0x01, 0xFC, 0x33, 0x60, 0x2F, 0xFF,
  0xEF, 0x38, 0xE5, 0xC5, 0x00, 0x39, 0x52, 0x28, 0xFD, 0x18,
  0xC5, 0x06, 0x16, 0x38, 0x29, 0x15, 0x11, 0x24, 0x33, 0x13,
  0xE9, 0xDB, 0xFA, 0x38, 0xF9, 0x00, 0xFA, 0x2F, 0xF3, 0x30,
  0x07, 0x05, 0x08, 0x05, 0x19, 0xF6, 0x39, 0x3B, 0x13, 0x00,
  0x1E, 0xD0, 0xEC, 0xEE, 0x06, 0x1E, 0x31, 0x44, 0xE0, 0x3E,
  0x00, 0xD6, 0xD0, 0xF2, 0x1B, 0x3F, 0xD7, 0xF7, 0xFB, 0x3D,
  0xCB, 0x43, 0xF2, 0xE9, 0x12, 0xE4, 0x06, 0x16, 0x02, 0xE1,
  0x0F, 0xDB, 0x00, 0x3F, 0xD3, 0xD1, 0x00, 0x06, 0xDB, 0x00,
  0xDA, 0xFC, 0x00, 0x26, 0x1C, 0xD9, 0x09, 0x3C, 0x2C, 0x13,
  0x40, 0x00, 0x00, 0x0E, 0xF0, 0xEE, 0xD9, 0xE4, 0x08, 0xF3,
  0xD1, 0x2E, 0x3B, 0xFB, 0xDD, 0x00, 0xF0, 0xCD, 0xE1, 0xD5,
  0x1F, 0x62, 0x13, 0xDF, 0x25, 0xB3, 0x0D, 0x27, 0xE6, 0xF4,
  0x22, 0xF3, 0x25, 0xD2, 0x2C, 0x37, 0x14, 0xDF, 0x00, 0x00,
  0xF2, 0xBA, 0xEF, 0x2B, 0x0B, 0xF1, 0x10, 0xD4, 0x00, 0x00,
  0x06, 0x2E, 0xFD, 0x12, 0xEF, 0x00, 0x32, 0xE3, 0xB7, 0x0C,
  0xE6, 0xEB, 0x00, 0x05, 0x00, 0x4E, 0xDD, 0x69, 0xED, 0xB9,
  0x3E, 0x33, 0x00, 0xE6, 0xDA, 0x0E, 0x54, 0x1F, 0x0E, 0xED,
  0x05, 0x9A, 0x1E, 0xE0, 0xCA, 0x00, 0xF9, 0xE6, 0x00, 0x20,
  0x64, 0x50, 0xE7, 0x1A, 0x36, 0xCC, 0x52, 0x1D, 0x34, 0x46,
  0xD5, 0x00, 0xE2, 0x49, 0xFC, 0xF0, 0xE5, 0x94, 0x0E, 0xE8,
  0xBF, 0x3F, 0x0F, 0xE4, 0x00, 0x54, 0xFE, 0xED, 0xBD, 0x00,
  0x0C, 0xDE, 0x39, 0xFD, 0x34, 0x55, 0x00, 0x05, 0x00, 0x5C,
  0xE3, 0x09, 0x38, 0x9D, 0x12, 0xC2, 0xD0, 0x00, 0x32, 0xFC,
  0xDA, 0xF1, 0x4A, 0x2E, 0x3D, 0x00, 0x28, 0x00, 0x00, 0x1B,
  0x3E, 0x49, 0x4E, 0xFB, 0xEF, 0x9F, 0xD5, 0x3A, 0x0E, 0x00,
  0xEF, 0x2D, 0x00, 0x3A, 0xD4, 0x10, 0x29, 0xF9, 0xC3, 0xAE,
  0x1B, 0xE8, 0x00, 0x1A, 0x0A, 0x00, 0x1A, 0xF0, 0xAE, 0xF1,
  0x14, 0xD5, 0xE7, 0x89, 0x4C, 0xEF, 0xF0, 0x00, 0x30, 0xE5,
  0x5A, 0xFD, 0x2C, 0xE7, 0x32, 0xF2, 0xFE, 0xE9, 0x50, 0x38,
  0x43, 0x97, 0x05, 0x0C, 0xED, 0xE3, 0xD4, 0xF9, 0xF3, 0xB9,
  0xF4, 0xEC, 0x25, 0x1B, 0x00, 0x05, 0xFB, 0x43, 0xF6, 0xF3,
  0x29, 0xBC, 0x63, 0x32, 0x0C, 0x00, 0xF9, 0x23, 0xD6, 0x56,
  0x08, 0xA0, 0xD9, 0x0A, 0x06, 0xCC, 0x18, 0xC8, 0x06, 0xBD,
  0xD3, 0x30, 0x18, 0x12, 0x1C, 0x23, 0xEA, 0x36, 0x29, 0xFF,
  0xDC, 0x4E, 0x29, 0xFD, 0x00, 0x01, 0x31, 0xC2, 0x40, 0xFC,
  0x11, 0x3B, 0x4D, 0xFA, 0x4D, 0x00, 0x39, 0x0E, 0xCE, 0x57,
  0xFF, 0x09, 0xB1, 0x02, 0xFC, 0x30, 0x54, 0x00, 0x2D, 0x03,
  0x02, 0xFD, 0x24, 0x26, 0x46, 0x4F, 0xD0, 0xD4, 0x06, 0x33,
  0xD3, 0x28, 0x9D, 0xFA, 0x40, 0x31, 0x0C, 0x88, 0x1C, 0xB9,
  0x03, 0xEC, 0x81, 0x70, 0x3B, 0x0C, 0xC6, 0xD7, 0xFF, 0x17,
  0x0E, 0x38, 0x2D, 0x09, 0x25, 0x0B, 0x00, 0x00, 0x4A, 0x34,
