alignas(8) const unsigned char g_model[] = {
  0x24, 0x00, 0x00, 0x00, 0x54, 0x46, 0x4C, 0x33, 0x00, 0x00,
  0x00, 0x00, 0x00, 0x00, 0x00, 0x00, 0x00, 0x00, 0x12, 0x00,
  0x1C, 0x00, 0x04, 0x00, 0x08, 0x00, 0x0C, 0x00, 0x10, 0x00,
  0x14, 0x00, 0x00, 0x00, 0x18, 0x00, 0x12, 0x00, 0x00, 0x00,
  0x03, 0x00, 0x00, 0x00, 0x18, 0x45, 0x00, 0x00, 0x88, 0x34,
  0x00, 0x00, 0x70, 0x34, 0x00, 0x00, 0x3C, 0x00, 0x00, 0x00,
  0x04, 0x00, 0x00, 0x00, 0x01, 0x00, 0x00, 0x00, 0x0C, 0x00,
  0x00, 0x00, 0x08, 0x00, 0x0C, 0x00, 0x04, 0x00, 0x08, 0x00,
  0x08, 0x00, 0x00, 0x00, 0x08, 0x00, 0x00, 0x00, 0x0E, 0x00,
  0x00, 0x00, 0x13, 0x00, 0x00, 0x00, 0x6D, 0x69, 0x6E, 0x5F,
  0x72, 0x75, 0x6E, 0x74, 0x69, 0x6D, 0x65, 0x5F, 0x76, 0x65,
  0x72, 0x73, 0x69, 0x6F, 0x6E, 0x00, 0x0F, 0x00, 0x00, 0x00,
  0x24, 0x34, 0x00, 0x00, 0x10, 0x34, 0x00, 0x00, 0xA4, 0x33,
  0x00, 0x00, 0x10, 0x33, 0x00, 0x00, 0xCC, 0x32, 0x00, 0x00,
  0xA8, 0x32, 0x00, 0x00, 0xE4, 0x2D, 0x00, 0x00, 0xD0, 0x17,
  0x00, 0x00, 0x8C, 0x00, 0x00, 0x00, 0x80, 0x00, 0x00, 0x00,
  0x6C, 0x00, 0x00, 0x00, 0x58, 0x00, 0x00, 0x00, 0x44, 0x00,
  0x00, 0x00, 0x30, 0x00, 0x00, 0x00, 0x04, 0x00, 0x00, 0x00,
  0x56, 0xCB, 0xFF, 0xFF, 0x04, 0x00, 0x00, 0x00, 0x10, 0x00,
  0x00, 0x00, 0x31, 0x2E, 0x35, 0x2E, 0x30, 0x00, 0x00, 0x00,
  0x00, 0x00, 0x00, 0x00, 0x00, 0x00, 0x00, 0x00, 0x00, 0x00,
  0x00, 0x00, 0x00, 0x00, 0x00, 0x00, 0x00, 0x00, 0x00, 0x00,
  0x54, 0xC0, 0xFF, 0xFF, 0x00, 0x00, 0x00, 0x00, 0x00, 0x00,
  0x00, 0x00, 0x00, 0x00, 0x00, 0x00, 0x64, 0xC0, 0xFF, 0xFF,
  0x00, 0x00, 0x00, 0x00, 0x00, 0x00, 0x00, 0x00, 0x00, 0x00,
  0x00, 0x00, 0x74, 0xC0, 0xFF, 0xFF, 0x00, 0x00, 0x00, 0x00,
  0x00, 0x00, 0x00, 0x00, 0x00, 0x00, 0x00, 0x00, 0x84, 0xC0,
  0xFF, 0xFF, 0x00, 0x00, 0x00, 0x00, 0x00, 0x00, 0x00, 0x00,
  0x00, 0x00, 0x00, 0x00, 0x94, 0xC0, 0xFF, 0xFF, 0x00, 0x00,
  0x00, 0x00, 0xC6, 0xCB, 0xFF, 0xFF, 0x04, 0x00, 0x00, 0x00,
  0x34, 0x17, 0x00, 0x00, 0xFE, 0xFF, 0x3C, 0xCD, 0xEC, 0xC2,
  0xD7, 0x00, 0xF6, 0xA2, 0xBF, 0x15, 0x1A, 0x0E, 0xDF, 0xC4,
  0x36, 0x1A, 0xFF, 0xFF, 0xF8, 0x2F, 0xE6, 0x2F, 0x27, 0x33,
  0x0D, 0x43, 0x17, 0xDA, 0x85, 0xFF, 0x09, 0x08, 0x1C, 0xCB,
  0xC7, 0x02, 0xF4, 0xC3, 0x29, 0x38, 0x22, 0x38, 0xDD, 0x38,
  0x7F, 0x0A, 0x1A, 0x35, 0x9D, 0xC6, 0x17, 0xE7, 0x23, 0xBA,
  0x66, 0xEA, 0xDA, 0x30, 0x1D, 0x23, 0xDA, 0x41, 0x13, 0xF1,
  0xF6, 0x0F, 0x07, 0xDF, 0x6B, 0x13, 0xCF, 0x2F, 0x13, 0xE3,
  0x2A, 0x01, 0x4D, 0x29, 0x0C, 0xE0, 0x18, 0xD2, 0x50, 0xF4,
  0xEB, 0x20, 0x1C, 0x3A, 0x09, 0x55, 0x5F, 0x4F, 0xD6, 0xCD,
  0xE2, 0x04, 0xE0, 0xA1, 0x39, 0xA8, 0x4D, 0x00, 0x32, 0x11,
  0x2A, 0xE0, 0xD1, 0xF8, 0xF2, 0x3B, 0xD8, 0xFC, 0xDF, 0x60,
  0xB4, 0xEB, 0x02, 0xE2, 0x18, 0xE2, 0x39, 0x16, 0xB9, 0x17,
  0xF7, 0xFA, 0x32, 0xDB, 0x40, 0x21, 0xE6, 0xF7, 0xEA, 0xD8,
  0x45, 0x24, 0x24, 0x37, 0xD4, 0xF9, 0xE7, 0xDE, 0x3F, 0xD4,
  0x5C, 0xD9, 0x02, 0x3E, 0xF8, 0xFF, 0x14, 0x44, 0xE5, 0xE1,
  0x0D, 0x31, 0x6F, 0xC2, 0x1A, 0x16, 0xF5, 0x00, 0x15, 0xEC,
  0xE8, 0xDA, 0xA6, 0x01, 0x03, 0xED, 0x2E, 0x1E, 0xFE, 0x27,
  0x22, 0x20, 0x39, 0x18, 0xFF, 0x8C, 0x0F, 0x2B, 0x33, 0x0F,
  0x0C, 0x12, 0xFB, 0x4B, 0xE2, 0x1D, 0x9B, 0x18, 0x47, 0xD1,
  0xF2, 0x12, 0xDB, 0x1D, 0x23, 0x6A, 0xF6, 0xF2, 0xC3, 0xD4,
  0x2D, 0x3E, 0x3E, 0x19, 0x25, 0xCF, 0x12, 0xDA, 0x2A, 0xF2,
  0x3E, 0x44, 0xC8, 0x56, 0xD3, 0xF7, 0x11, 0xF2, 0xD0, 0xF3,
  0x25, 0xEE, 0xC3, 0xCB, 0x09, 0x01, 0x20, 0x22, 0xFA, 0xFC,
  0x08, 0xE0, 0xE5, 0x5B, 0xF4, 0x2A, 0xE2, 0x27, 0xF9, 0xC3,
  0x20, 0x0F, 0x10, 0xE4, 0xFF, 0xE2, 0xCC, 0x0D, 0x2C, 0xE5,
  0x21, 0x05, 0x26, 0xD5, 0xAC, 0x3E, 0xFA, 0x1D, 0x1C, 0xE0,
  0xEE, 0x45, 0x28, 0x38, 0xCA, 0x27, 0x09, 0xF2, 0x23, 0x26,
  0x7F, 0x02, 0x3A, 0xF9, 0x29, 0xD2, 0x40, 0x04, 0x2D, 0x42,
  0xF8, 0xE3, 0x28, 0x11, 0x24, 0x0A, 0xD6, 0xE5, 0x19, 0x13,
  0xE6, 0x0F, 0x1B, 0xBE, 0xF5, 0x2B, 0xF9, 0xE2, 0x09, 0xE8,
  0xFB, 0xEE, 0x25, 0xEB, 0xFF, 0x01, 0xD3, 0x10, 0x11, 0x01,
  0x0B, 0x1F, 0x01, 0xE0, 0x12, 0x20, 0x00, 0x07, 0xDB, 0xCC,
  0x31, 0x14, 0xBD, 0xDF, 0xDE, 0xE3, 0x04, 0x1D, 0x68, 0xF5,
  0x20, 0x04, 0xC5, 0xD3, 0xF9, 0x3D, 0x38, 0x0C, 0x17, 0x01,
  0xFB, 0x0D, 0x0A, 0xDA, 0x0C, 0x2E, 0x0A, 0xEA, 0x2A, 0x46,
  0x04, 0xE9, 0xD5, 0x2B, 0x22, 0x45, 0x41, 0x0C, 0xEC, 0x11,
  0x0F, 0x3B, 0x03, 0xF7, 0x08, 0xB3, 0x13, 0xEE, 0xDC, 0x3D,
  0xFD, 0x11, 0xE6, 0x13, 0x0C, 0xE9, 0x07, 0xE2, 0x16, 0xE1,
  0xF7, 0xCF, 0x16, 0x2F, 0x31, 0x21, 0xF8, 0xED, 0xAF, 0xE9,
  0xEF, 0x18, 0xF4, 0xFD, 0x1F, 0x22, 0x16, 0x0F, 0x39, 0xCE,
  0xFC, 0xFD, 0x30, 0x05, 0x34, 0xF2, 0x46, 0xFE, 0xFF, 0x14,
  0xFC, 0x35, 0xFE, 0x1F, 0xD4, 0x11, 0x08, 0x3A, 0xFE, 0xF7,
  0x18, 0x18, 0x20, 0x07, 0x00, 0xFB, 0x0E, 0x0D, 0xFD, 0x1E,
  0x36, 0xFE, 0xEC, 0x19, 0x25, 0xEA, 0xAD, 0x0D, 0x81, 0x15,
  0xC7, 0xAC, 0xE6, 0x07, 0x00, 0x08, 0xC0, 0x06, 0xF4, 0x03,
  0xBF, 0xC3, 0x39, 0x07, 0xDD, 0xEA, 0xF9, 0xF9, 0xFE, 0xDA,
  0x14, 0x2F, 0x1B, 0x3C, 0xE7, 0x03, 0xFA, 0x25, 0x2C, 0x06,
  0x03, 0x16, 0x28, 0xE1, 0xD4, 0x08, 0x23, 0x13, 0xF3, 0xDE,
  0xFB, 0xEA, 0x14, 0xDE, 0x1D, 0x32, 0x02, 0x03, 0xEA, 0x05,
  0x10, 0x31, 0x16, 0x27, 0xD9, 0x08, 0xEA, 0xE9, 0xF1, 0x15,
  0xE9, 0x15, 0x04, 0x2B, 0xFC, 0xD8, 0xD4, 0xE5, 0x0C, 0x33,
  0x02, 0xF5, 0xF2, 0xB9, 0xEA, 0xF7, 0xE9, 0xFE, 0x26, 0x15,
  0xD0, 0x00, 0x28, 0xED, 0x0B, 0x2F, 0x0B, 0xF8, 0x10, 0x0E,
  0x12, 0x38, 0xEF, 0x22, 0xF0, 0x03, 0x12, 0x14, 0xE6, 0x0A,
  0xDD, 0x28, 0x12, 0xFE, 0x1C, 0x33, 0x1C, 0x09, 0x00, 0x1F,
  0xE7, 0x18, 0x2E, 0x2F, 0xEC, 0xFA, 0x02, 0x19, 0x01, 0xF8,
  0x02, 0x18, 0x08, 0xF9, 0xEB, 0xF6, 0xEF, 0x0E, 0x2D, 0x13,
  0x27, 0xF7, 0x04, 0x0D, 0x0A, 0x04, 0x1D, 0x04, 0x37, 0xEB,
  0x14, 0xF3, 0xFE, 0xFB, 0x03, 0x03, 0xBB, 0x19, 0xD9, 0x21,
  0x1C, 0x48, 0x1D, 0x27, 0x2E, 0xEB, 0xDF, 0xEE, 0x52, 0xDC,
  0x22, 0x2C, 0x2C, 0x0C, 0xBB, 0xCF, 0x38, 0x14, 0xB9, 0x17,
  0xE8, 0x2A, 0x0A, 0x17, 0x1B, 0x00, 0xF5, 0xCE, 0x18, 0x2C,
  0x5A, 0xD0, 0xCB, 0xF9, 0xC4, 0x39, 0x22, 0x16, 0x3E, 0xCD,
  0xEA, 0xD5, 0x4A, 0xBB, 0x23, 0x12, 0x23, 0xE8, 0xC2, 0xFD,
  0x0F, 0xF5, 0xA5, 0xFB, 0xF8, 0xFA, 0xCC, 0x1A, 0x02, 0x19,
  0xDE, 0xC9, 0x51, 0x04, 0x16, 0x08, 0xF3, 0x2D, 0xEC, 0x3A,
  0x04, 0x1E, 0x12, 0x49, 0x2E, 0x11, 0x1F, 0x17, 0x40, 0xD3,
  0x10, 0xDA, 0x03, 0x0D, 0x60, 0xFE, 0xDC, 0xEA, 0xC1, 0x0B,
  0xBB, 0x3A, 0xFD, 0xBD, 0x4A, 0x23, 0x12, 0xE8, 0xEC, 0xF1,
  0x0A, 0xF0, 0xCE, 0x4D, 0x23, 0x19, 0xD8, 0x42, 0x33, 0x3F,
  0xF4, 0xF1, 0x81, 0xF4, 0x25, 0xE0, 0xDC, 0x29, 0xD2, 0x03,
  0xE9, 0x0A, 0xCD, 0xEE, 0x53, 0xD5, 0xE1, 0x48, 0xC9, 0xD7,
  0x05, 0x29, 0xED, 0x33, 0x74, 0x04, 0x06, 0x40, 0xF4, 0x16,
  0xEE, 0x30, 0x2E, 0xFB, 0xED, 0x21, 0xCB, 0xEE, 0xFD, 0x02,
  0x05, 0x19, 0x14, 0x01, 0xF3, 0x16, 0xFF, 0x8F, 0x0B, 0x1F,
  0xD5, 0xE7, 0x47, 0xEC, 0xFE, 0xC2, 0xF6, 0x06, 0xE7, 0x06,
  0xE2, 0xFE, 0xB7, 0x0D, 0x08, 0x17, 0xD2, 0xFE, 0x85, 0xF3,
  0xEC, 0xA2, 0x2A, 0x60, 0xE8, 0x25, 0xDB, 0xC6, 0x15, 0x36,
  0xB7, 0x1A, 0x06, 0xF0, 0x14, 0x03, 0xE3, 0xFE, 0xBF, 0xC2,
  0x25, 0xF2, 0x2A, 0x00, 0xCD, 0xE0, 0xBF, 0xE0, 0xCB, 0x00,
  0x01, 0x08, 0xFB, 0x15, 0xF9, 0xF6, 0x27, 0xD9, 0xE2, 0x36,
  0xED, 0x3B, 0xCA, 0xFD, 0xF0, 0xE2, 0x1A, 0x35, 0xD0, 0xF0,
  0xC7, 0x09, 0xFD, 0x28, 0x12, 0xE7, 0xF9, 0xFD, 0xF6, 0x06,
  0x04, 0xFD, 0x03, 0x08, 0xDB, 0x2C, 0xF1, 0x1F, 0x34, 0x08,
  0xC6, 0xFE, 0xF1, 0x1E, 0x2F, 0x21, 0x1D, 0xF0, 0x22, 0x1D,
  0xFC, 0x2F, 0x08, 0x12, 0xFD, 0xC6, 0x1C, 0xEE, 0xE5, 0x01,
  0x0F, 0x31, 0xEA, 0x15, 0xF3, 0x02, 0x03, 0x10, 0xB9, 0x12,
  0xB3, 0x05, 0xF8, 0xC2, 0x15, 0x2A, 0x12, 0x12, 0x16, 0xF6,
  0xF4, 0x3A, 0xFD, 0x0A, 0xFE, 0x11, 0x25, 0xF4, 0x03, 0x18,
  0xEC, 0x0D, 0xF2, 0xF6, 0xF3, 0xEB, 0x2A, 0x2E, 0x04, 0x08,
  0x30, 0xD3, 0xF6, 0x1D, 0x0C, 0x12, 0x52, 0x23, 0x4A, 0x0A,
  0x0F, 0xF6, 0xF1, 0xE4, 0xD7, 0x01, 0x33, 0x3A, 0x00, 0xE4,
  0x32, 0x52, 0x81, 0x17, 0xFD, 0xF6, 0xEB, 0x3F, 0x27, 0xEB,
  0xEB, 0xE9, 0x08, 0xE6, 0x26, 0x37, 0x00, 0xDC, 0xC8, 0xCC,
  0x0E, 0xE4, 0x4B, 0xFC, 0xF4, 0x33, 0xF0, 0xE3, 0xD5, 0xF6,
  0xE8, 0x08, 0xF1, 0x13, 0xCC, 0xCD, 0x4B, 0x20, 0x13, 0xF2,
  0x0C, 0xDD, 0x15, 0xE3, 0x0D, 0x05, 0x41, 0x3E, 0x2A, 0x1E,
  0xB2, 0x16, 0x29, 0x20, 0xF7, 0x39, 0xDC, 0xC8, 0x0C, 0x3B,
  0x12, 0xED, 0x2B, 0xAA, 0x06, 0x04, 0x3B, 0xE8, 0xE4, 0x37,
  0x18, 0x16, 0xD8, 0xFF, 0x08, 0x05, 0xF6, 0x38, 0x0F, 0x05,
  0x31, 0x0B, 0x13, 0x13, 0xE5, 0x29, 0x10, 0x16, 0x10, 0x21,
  0xFA, 0x1A, 0xEE, 0x08, 0xD6, 0x2A, 0x14, 0xF9, 0x09, 0xD9,
  0x03, 0x0D, 0x66, 0x13, 0x3B, 0xBF, 0xE2, 0xCC, 0x2B, 0xF9,
  0x2B, 0x05, 0x24, 0x08, 0xE2, 0x28, 0xBD, 0xEC, 0x01, 0x31,
  0x2D, 0xF4, 0xF0, 0xE3, 0xF4, 0xFA, 0x4A, 0x27, 0x3A, 0x1F,
  0xE6, 0x11, 0xC9, 0xE4, 0x34, 0xFA, 0x57, 0xF4, 0xFD, 0x0D,
  0x0A, 0x10, 0x2A, 0x13, 0xE2, 0x03, 0x14, 0x2B, 0x28, 0xD7,
  0x07, 0xF1, 0xFB, 0x27, 0xF8, 0x38, 0xFB, 0xF8, 0x0D, 0xF4,
  0xFF, 0x02, 0x3E, 0xEE, 0xEA, 0x0B, 0xEC, 0x08, 0xF6, 0xF9,
  0x48, 0xDB, 0x0C, 0xEA, 0x0F, 0xDF, 0x15, 0x14, 0xC4, 0xD5,
  0xF5, 0xFE, 0xEE, 0xED, 0xDE, 0x14, 0xF9, 0xE9, 0xD6, 0x0E,
  0x07, 0xD5, 0xF2, 0x30, 0x11, 0xD1, 0xCA, 0xBE, 0xDF, 0xED,
  0x0A, 0x24, 0xC1, 0xDD, 0x15, 0x2A, 0xEA, 0xF4, 0x34, 0x04,
  0xFD, 0x0E, 0xD5, 0x39, 0x0F, 0x04, 0x17, 0x2B, 0xE5, 0xE3,
  0xC7, 0x0D, 0xA4, 0x24, 0x23, 0x1F, 0x1E, 0x16, 0x18, 0xC4,
  0x0F, 0xE9, 0x5E, 0x17, 0x0C, 0xFB, 0xFA, 0x11, 0xD4, 0xF6,
  0x2A, 0x03, 0x81, 0xEE, 0x9E, 0x29, 0xE1, 0xC6, 0xFC, 0xFB,
  0x1E, 0xE0, 0xE9, 0xBD, 0x21, 0xCE, 0xBF, 0xCA, 0x19, 0xCF,
  0xF5, 0xF7, 0x3F, 0x15, 0xEF, 0x3F, 0x9B, 0x02, 0xB3, 0x32,
  0x6A, 0x13, 0xC2, 0xD8, 0xD3, 0xB8, 0x27, 0xE2, 0xFC, 0x14,
  0xFD, 0x25, 0x2A, 0xE9, 0x1D, 0x36, 0x33, 0x16, 0xB6, 0x1D,
  0xD7, 0xC4, 0x09, 0x04, 0x29, 0xD5, 0x1F, 0x16, 0x0D, 0x29,
  0xCE, 0xDD, 0x06, 0x1F, 0x1C, 0x2E, 0x19, 0x37, 0x09, 0xF2,
  0xE9, 0x59, 0x47, 0xCB, 0xA8, 0xD1, 0x0B, 0xCB, 0xF9, 0x98,
  0x0A, 0xCA, 0x31, 0xC9, 0xFD, 0x21, 0x4C, 0xF3, 0x12, 0x00,
  0xED, 0x6A, 0xAB, 0x6E, 0x2E, 0x43, 0xF3, 0x83, 0x39, 0x24,
  0x06, 0xED, 0x18, 0x11, 0x08, 0x17, 0x0A, 0x05, 0x81, 0x11,
  0x18, 0x01, 0xFB, 0x5C, 0x2D, 0xC2, 0xE9, 0x07, 0x44, 0x10,
  0x24, 0xCD, 0xEA, 0x05, 0x02, 0xC4, 0x22, 0x72, 0x3C, 0x28,
  0x49, 0x57, 0x0D, 0xEF, 0x38, 0x16, 0x10, 0x23, 0xDD, 0xEA,
  0x3C, 0x10, 0x73, 0xC1, 0xBA, 0x7B, 0x19, 0x06, 0xEC, 0x6F,
  0x27, 0x18, 0x42, 0x5D, 0x03, 0x1D, 0x31, 0xFF, 0x12, 0x19,
  0x4F, 0x03, 0x0E, 0x8F, 0x0A, 0xF8, 0x16, 0xD7, 0x8A, 0xCC,
  0x05, 0x01, 0xD5, 0x51, 0x67, 0x4A, 0x5F, 0xE2, 0x49, 0xEB,
  0x48, 0xE0, 0x1F, 0xCD, 0x2E, 0x1A, 0xD7, 0x33, 0xF7, 0x5D,
  0xA1, 0x0C, 0xF6, 0xD3, 0xFE, 0x01, 0x17, 0xBE, 0x25, 0x5E,
  0x16, 0x1E, 0x22, 0xFA, 0x06, 0x27, 0x29, 0xA8, 0xFB, 0xEC,
  0xEB, 0xE8, 0x3C, 0xFA, 0x39, 0xC6, 0x37, 0xE7, 0xC6, 0xDA,
  0xDD, 0xE7, 0xD4, 0xDD, 0xFD, 0xE5, 0x19, 0x2A, 0x2B, 0xFF,
  0xC7, 0xEE, 0x2E, 0x13, 0xF1, 0x04, 0xD9, 0xFC, 0xD9, 0x0B,
  0xF0, 0x3C, 0xE5, 0x0C, 0x27, 0x08, 0x27, 0x08, 0xF0, 0xED,
  0x0D, 0xF4, 0x02, 0x07, 0x02, 0x0C, 0x01, 0xE0, 0x17, 0xE1,
  0x29, 0x08, 0xC4, 0x2D, 0x0C, 0xF4, 0x1A, 0x0C, 0x28, 0xCE,
  0x22, 0xE2, 0x0A, 0x4A, 0xFE, 0x0E, 0x2D, 0xF3, 0xD1, 0xEE,
  0xFD, 0xEB, 0x29, 0x15, 0xE5, 0x21, 0x08, 0xD0, 0x07, 0xDC,
  0x12, 0x05, 0x1B, 0xF0, 0x02, 0xF0, 0x1B, 0xFB, 0xCF, 0x07,
  0x11, 0x2A, 0x1A, 0x18, 0xD3, 0xEB, 0x59, 0x26, 0xDB, 0xC8,
  0x1A, 0x1D, 0x2D, 0x09, 0xF2, 0xFC, 0xD9, 0xDF, 0x0A, 0x09,
  0xF0, 0x1A, 0x1F, 0x05, 0xBC, 0xE1, 0xED, 0xE8, 0x51, 0x29,
  0xFA, 0x16, 0xF6, 0xFE, 0xEE, 0x2A, 0xF1, 0xFA, 0x06, 0xF2,
  0xD6, 0x0E, 0x22, 0xD1, 0x29, 0x1C, 0xFB, 0x0B, 0xEC, 0xF3,
  0xF6, 0xF4, 0xFF, 0x19, 0x06, 0x0E, 0x7F, 0x0D, 0xF7, 0x22,
  0xE6, 0xD7, 0xE6, 0x19, 0x17, 0x35, 0x3E, 0x36, 0x03, 0x05,
  0xD7, 0xF6, 0x2B, 0x2E, 0x1B, 0x20, 0x03, 0x24, 0x0B, 0xF0,
  0xD9, 0x01, 0x27, 0x14, 0xFA, 0xFE, 0x07, 0x2B, 0x58, 0x23,
  0x24, 0xDE, 0xF7, 0xFF, 0x1E, 0x13, 0x05, 0xFD, 0xF9, 0x00,
  0xF7, 0x15, 0xDB, 0x0A, 0x14, 0x18, 0xDF, 0x18, 0x0C, 0xD3,
  0x39, 0x42, 0x1E, 0xD1, 0xFE, 0x1F, 0x12, 0x3D, 0x20, 0x05,
  0xF1, 0x12, 0x36, 0xD9, 0x12, 0xF7, 0x1E, 0x2F, 0x53, 0x02,
  0x9C, 0x15, 0xDE, 0x20, 0xD8, 0xC6, 0x40, 0xC5, 0x12, 0xD7,
  0x14, 0x34, 0x92, 0xDF, 0x33, 0xDB, 0xBF, 0x23, 0xFE, 0xEC,
  0x3C, 0xC9, 0x12, 0x0D, 0xFD, 0xF5, 0xF4, 0xC1, 0x0C, 0x93,
  0x16, 0xEC, 0x06, 0xD3, 0xBA, 0xE4, 0xE0, 0x15, 0xF2, 0x56,
  0xB9, 0xDF, 0xF9, 0xE6, 0xF6, 0xE2, 0xFA, 0xFA, 0xC3, 0x37,
  0xE8, 0x06, 0x54, 0xC1, 0x14, 0x06, 0x00, 0x58, 0xFC, 0xFB,
  0x2E, 0x1A, 0xF4, 0x06, 0x24, 0x30, 0x46, 0xF9, 0xED, 0x22,
  0x47, 0x03, 0x42, 0x28, 0x4A, 0x2D, 0x3F, 0xEE, 0xE7, 0x2D,
  0x02, 0x01, 0xEE, 0x30, 0x4B, 0x09, 0x06, 0x4C, 0x0F, 0xD6,
  0xFE, 0x0D, 0x0C, 0x2C, 0x36, 0x0B, 0xA6, 0x11, 0xFB, 0xA6,
  0x38, 0x2F, 0xC7, 0x09, 0xC5, 0xF4, 0x36, 0x39, 0x21, 0x15,
  0x2D, 0x33, 0x0C, 0xF3, 0xD2, 0x60, 0xF2, 0x0E, 0x00, 0xEF,
  0xF3, 0x1A, 0x4F, 0x2B, 0xFA, 0xEC, 0xE8, 0xD4, 0x25, 0xF4,
  0x2F, 0x29, 0x66, 0xEB, 0x05, 0x11, 0x47, 0x97, 0x4A, 0x2E,
  0x0E, 0x53, 0x2E, 0xCC, 0xEF, 0xFB, 0xFA, 0x2C, 0xD1, 0xE7,
  0x0A, 0xCA, 0x0D, 0x1E, 0x3C, 0xF4, 0xF0, 0xC5, 0xF1, 0x32,
  0xCF, 0xD6, 0x2A, 0xD2, 0x1D, 0xFD, 0x3D, 0xFB, 0xFB, 0xD9,
  0xDB, 0x16, 0x12, 0xE3, 0xFC, 0xFE, 0x29, 0x1C, 0x81, 0xCA,
  0x42, 0xFB, 0x21, 0x25, 0xE0, 0xF7, 0x1B, 0x21, 0x1A, 0x51,
  0xF3, 0x31, 0xD5, 0x0D, 0xF0, 0xF3, 0x4B, 0xCA, 0x2C, 0x18,
  0x03, 0xFB, 0x05, 0x2D, 0x20, 0xF9, 0xDA, 0x20, 0x34, 0x23,
  0x3D, 0xE5, 0xE3, 0x09, 0x3A, 0xE7, 0x2C, 0xD3, 0xE7, 0x0B,
  0x5C, 0x29, 0x12, 0xE1, 0x34, 0x10, 0xE0, 0xF6, 0x18, 0x13,
  0xFA, 0xA3, 0x2A, 0xD8, 0x3D, 0xEE, 0xC3, 0x33, 0x16, 0xE5,
  0xC6, 0x11, 0x07, 0x20, 0x12, 0xD2, 0xFD, 0x27, 0xC4, 0xF3,
  0x15, 0x46, 0xC4, 0x15, 0xEF, 0x3F, 0xFD, 0x0D, 0x33, 0x0B,
  0x08, 0x29, 0x33, 0xE5, 0x12, 0xCA, 0x18, 0xBE, 0x1B, 0xCE,
  0x4F, 0x04, 0xA1, 0x03, 0x12, 0x05, 0x34, 0xE0, 0x0D, 0xCD,
  0x23, 0x0F, 0xF7, 0x02, 0x17, 0x21, 0x1E, 0x17, 0x20, 0x03,
  0x09, 0x34, 0xD2, 0xDA, 0x11, 0xCF, 0x09, 0xDB, 0x60, 0x1F,
  0x6B, 0xC9, 0x44, 0x23, 0x26, 0x15, 0x05, 0x04, 0xED, 0x1B,
  0xF2, 0x0A, 0x37, 0x0C, 0xC2, 0x03, 0xCE, 0xF8, 0x0D, 0xCF,
  0x14, 0x0D, 0xE3, 0x41, 0xF1, 0xEE, 0x0F, 0x4B, 0xB2, 0xDF,
  0x35, 0xEB, 0xD3, 0xE9, 0xF7, 0x24, 0x3A, 0xBB, 0xEE, 0xF6,
  0xD0, 0xEA, 0xD7, 0xC5, 0x81, 0x52, 0x29, 0xAA, 0x1C, 0x1C,
  0x21, 0xFA, 0x4A, 0xCD, 0x02, 0xFF, 0x46, 0x3E, 0x24, 0xD4,
  0x1B, 0x0F, 0x0C, 0x16, 0x03, 0xF6, 0xAC, 0x34, 0xFB, 0xDF,
  0xB2, 0xFB, 0xF0, 0xEE, 0x35, 0x14, 0x0E, 0xBE, 0x45, 0xFD,
  0xFE, 0x25, 0xF4, 0x0F, 0x11, 0xE0, 0x43, 0xBA, 0xFA, 0xBE,
  0xDC, 0x23, 0x2A, 0x54, 0xF6, 0xC9, 0x81, 0xC3, 0xE6, 0x0D,
  0x26, 0xDB, 0x07, 0xC3, 0x62, 0xA9, 0x26, 0x0B, 0x29, 0xE2,
  0xF2, 0x5B, 0xED, 0x70, 0xCF, 0x11, 0x23, 0xBC, 0x03, 0xFE,
  0x00, 0x09, 0xA4, 0xEE, 0xC6, 0x09, 0x08, 0x43, 0x28, 0xC5,
  0x93, 0xDD, 0xC2, 0x69, 0x1A, 0x15, 0xEE, 0x52, 0x4A, 0x44,
  0x3E, 0xFB, 0xF8, 0xE6, 0xF5, 0xA2, 0xEA, 0xA5, 0x35, 0x24,
  0x0A, 0x11, 0x16, 0x3B, 0x13, 0xC8, 0xDA, 0xC6, 0xD9, 0x49,
  0x14, 0x30, 0x91, 0xED, 0xD9, 0xE2, 0x49, 0x0D, 0x0A, 0xE4,
  0xB9, 0xFC, 0x47, 0xEE, 0x06, 0x6B, 0xCD, 0x28, 0xED, 0x7F,
  0xFF, 0x15, 0x24, 0x2D, 0x26, 0xFF, 0x02, 0x0C, 0xC8, 0xB0,
  0x2D, 0x43, 0x05, 0xFC, 0x26, 0xDB, 0x03, 0xD4, 0x4B, 0x49,
  0xEC, 0xD4, 0xD7, 0xFD, 0xFA, 0x09, 0xF4, 0x5D, 0xCD, 0xF7,
  0xE5, 0xC1, 0xDF, 0xEF, 0x21, 0x05, 0x08, 0x2B, 0x5F, 0x45,
  0x89, 0x17, 0xB6, 0x33, 0x0A, 0x02, 0x07, 0x01, 0xFC, 0xCA,
  0x17, 0xED, 0x25, 0xE1, 0x66, 0x04, 0x03, 0xBF, 0x30, 0x34,
  0xED, 0x36, 0xF1, 0xF4, 0x50, 0x01, 0x13, 0x97, 0xF8, 0x62,
  0x40, 0xAD, 0xC8, 0x3A, 0xFE, 0xF7, 0x31, 0x00, 0xF4, 0xE5,
  0x2F, 0x11, 0x76, 0xF6, 0x01, 0x11, 0x41, 0x56, 0x21, 0xE7,
  0x00, 0x64, 0x73, 0xFA, 0x9E, 0xE5, 0x57, 0xED, 0xE4, 0xF6,
  0x35, 0x38, 0x0D, 0xFB, 0x49, 0xD7, 0x02, 0x27, 0xFD, 0xC6,
  0x49, 0x0D, 0x34, 0xE6, 0x4A, 0xF0, 0xF2, 0xB4, 0x0C, 0x08,
  0xF9, 0x18, 0x21, 0x49, 0xF1, 0x0B, 0x38, 0xCC, 0xF4, 0xF3,
  0x45, 0xF4, 0xC0, 0xDA, 0xFC, 0x29, 0x3F, 0x06, 0xEF, 0xD5,
  0x1F, 0x3C, 0xE1, 0x1D, 0x0A, 0xEE, 0xE6, 0x17, 0x57, 0x07,
  0x1A, 0x26, 0x69, 0x24, 0xE0, 0xE8, 0xFF, 0x09, 0x76, 0x19,
  0xF5, 0x1F, 0xEC, 0xDE, 0xFF, 0x3C, 0xF7, 0x21, 0x0B, 0x21,
  0x2D, 0xD4, 0x22, 0xEA, 0xF5, 0x3F, 0xF8, 0xEF, 0x0D, 0xE2,
  0x1C, 0x20, 0x0C, 0x01, 0xE6, 0xFC, 0x23, 0x09, 0xE2, 0x45,
  0xF5, 0x16, 0xEF, 0x1E, 0x39, 0xEE, 0xA0, 0xC1, 0x0E, 0x29,
  0xDC, 0xEC, 0x1E, 0xF7, 0x2E, 0x3A, 0x04, 0x0B, 0xFA, 0xEC,
  0xFE, 0x08, 0xED, 0xFC, 0x96, 0xE3, 0xE8, 0x34, 0x24, 0x91,
  0xE1, 0x01, 0xFB, 0x9E, 0xFF, 0xFF, 0x0E, 0x02, 0x49, 0x26,
  0xB8, 0x37, 0xE8, 0x20, 0x17, 0xED, 0x17, 0xF4, 0x7F, 0x1D,
  0x0F, 0x4C, 0xE7, 0xF9, 0xED, 0xFF, 0x33, 0xEA, 0x0C, 0x24,
  0x23, 0x45, 0xFB, 0x01, 0x6C, 0xFF, 0xF5, 0xFE, 0x54, 0x12,
  0x52, 0xF5, 0xA2, 0x31, 0x3A, 0xDE, 0x0F, 0x12, 0x47, 0x1B,
  0x21, 0xEC, 0x19, 0xF7, 0x13, 0xFB, 0xEA, 0x30, 0xDF, 0x1C,
  0x0C, 0xFC, 0x11, 0x14, 0xFC, 0xF0, 0xF7, 0xE7, 0x2E, 0xE9,
  0xE5, 0xB4, 0x0E, 0x17, 0x0C, 0xE9, 0x1F, 0xDA, 0x07, 0xDB,
  0x1D, 0x08, 0x03, 0xDA, 0xBB, 0x63, 0xE0, 0x16, 0x19, 0x06,
  0xF8, 0xE6, 0xF8, 0xEB, 0x1D, 0xBA, 0x46, 0x13, 0xB6, 0xF5,
  0x02, 0xF5, 0x0F, 0x2C, 0xF3, 0x05, 0x1D, 0x0F, 0x18, 0xFF,
  0x09, 0xD2, 0xFA, 0xFD, 0x45, 0x01, 0xA2, 0xD5, 0x3E, 0xFF,
  0x28, 0x43, 0x28, 0x25, 0xFD, 0xC1, 0x58, 0x1B, 0x23, 0xDF,
  0x3F, 0x1C, 0x0E, 0x1A, 0x1B, 0x1F, 0x1D, 0x03, 0x02, 0xE4,
  0x20, 0xE5, 0x35, 0xF1, 0xE0, 0x05, 0xF8, 0xF7, 0x30, 0xD8,
  0xFD, 0x08, 0x14, 0x2B, 0x00, 0xE7, 0x0A, 0x35, 0xE2, 0x0D,
  0xCD, 0x0E, 0x19, 0xF1, 0x07, 0xF8, 0x1B, 0xC5, 0xF4, 0x15,
  0xDD, 0x2E, 0xF9, 0xE8, 0x18, 0x13, 0x10, 0xFE, 0xE6, 0x24,
  0x37, 0x3F, 0x39, 0x29, 0xC6, 0xE7, 0xC6, 0x1C, 0x15, 0xD5,
  0xE7, 0x16, 0xEC, 0x05, 0x2D, 0x58, 0xDA, 0xFD, 0x19, 0x37,
  0x1D, 0xD3, 0xDD, 0xF3, 0xF7, 0x01, 0x22, 0xDA, 0x24, 0xDC,
  0xFE, 0x2F, 0x25, 0x31, 0xEA, 0xEA, 0xE0, 0x0A, 0x33, 0x12,
  0x24, 0x0A, 0xD5, 0xDB, 0xCD, 0x23, 0xFF, 0x00, 0x0F, 0x1C,
  0x24, 0xDC, 0xFC, 0x1F, 0xDE, 0x08, 0x4D, 0xF0, 0xED, 0x2C,
  0xE5, 0x0C, 0x10, 0x47, 0x56, 0xDE, 0xE7, 0xFA, 0x37, 0x0E,
  0x1D, 0x18, 0x25, 0x34, 0xC8, 0x3F, 0x29, 0xDC, 0xD5, 0x34,
  0x17, 0x3F, 0x99, 0xD6, 0xEE, 0x3B, 0xF8, 0xEA, 0xF8, 0x05,
  0x04, 0x1A, 0x93, 0x7F, 0x0D, 0xD8, 0xEA, 0x2F, 0x0B, 0xEA,
  0xE8, 0x1D, 0x1D, 0xDD, 0xDD, 0x10, 0xB3, 0x37, 0xDE, 0x1D,
  0xDF, 0x11, 0x06, 0x0C, 0x0B, 0x17, 0xC9, 0xED, 0x44, 0xC4,
  0xFA, 0x22, 0xF3, 0xFE, 0x08, 0x4A, 0x12, 0xFB, 0x3E, 0x30,
  0xDE, 0x12, 0x1D, 0xFE, 0x43, 0x13, 0xEE, 0x14, 0xF1, 0xDD,
  0x1F, 0x30, 0xF9, 0x22, 0x00, 0x0A, 0x19, 0x1F, 0xD0, 0x42,
  0x02, 0x18, 0x44, 0x16, 0x58, 0xC6, 0xFA, 0xF0, 0xB0, 0xF6,
  0x24, 0xD6, 0xE7, 0x30, 0x28, 0x20, 0x0C, 0x43, 0xCF, 0xD4,
  0x0B, 0xE9, 0xD9, 0xF9, 0x03, 0xFD, 0xE4, 0x08, 0xDC, 0x19,
  0xEA, 0xCB, 0xD9, 0xE3, 0x0C, 0xEB, 0x0D, 0xDF, 0x2E, 0x1C,
  0xD4, 0x2D, 0x2C, 0x2D, 0xE5, 0xCB, 0xED, 0x2B, 0x12, 0x0A,
  0xEA, 0x34, 0xF0, 0x21, 0x07, 0xFF, 0x16, 0x0B, 0x2A, 0x02,
  0xFA, 0x13, 0x1E, 0x02, 0x04, 0x4E, 0xE7, 0x15, 0xFE, 0x32,
  0x15, 0x3E, 0x04, 0xEA, 0xF1, 0x21, 0xB8, 0xE1, 0x5F, 0x15,
  0x12, 0x1A, 0x13, 0x23, 0xFE, 0x0D, 0x02, 0x09, 0xFD, 0xDD,
  0x42, 0x11, 0x1E, 0x08, 0x24, 0xF9, 0x22, 0xCA, 0xF4, 0x1E,
  0x81, 0xE7, 0x18, 0x03, 0x02, 0x0A, 0xB7, 0xF5, 0xF3, 0xD3,
  0x3F, 0xF4, 0xFB, 0x24, 0x25, 0x0B, 0xE2, 0x14, 0x3E, 0xEF,
  0x32, 0x23, 0xDA, 0xF2, 0x3C, 0xD0, 0x3D, 0xF5, 0xF6, 0x57,
  0xD7, 0x14, 0xF6, 0x17, 0xBD, 0x48, 0x1B, 0x35, 0xB6, 0xF0,
  0xFE, 0xF2, 0xDE, 0x03, 0x2A, 0xD9, 0x2C, 0xE2, 0x3F, 0x47,
  0x04, 0xEB, 0xA8, 0xE4, 0x22, 0x26, 0x3F, 0xFC, 0xFE, 0xDD,
  0x00, 0x2D, 0x1D, 0x0A, 0x2F, 0xCD, 0x48, 0x2D, 0xEA, 0x2A,
  0x2D, 0x28, 0xF6, 0x68, 0xD3, 0x35, 0xAE, 0xE2, 0xF3, 0xF6,
  0x29, 0xD2, 0x2F, 0xF4, 0x38, 0xEE, 0x01, 0xED, 0x1A, 0x22,
  0x2A, 0x56, 0x81, 0x1A, 0x13, 0x59, 0x23, 0x13, 0x12, 0xD4,
  0x1F, 0x1C, 0x6F, 0x0C, 0xF7, 0xF2, 0x05, 0x12, 0x0A, 0xF7,
  0x02, 0x14, 0xEB, 0x5B, 0xBC, 0x2C, 0x0C, 0xFF, 0xD1, 0x20,
  0x24, 0xF7, 0x16, 0xD6, 0xF0, 0xF3, 0x13, 0x2C, 0x03, 0x1E,
  0x2C, 0xF1, 0xC9, 0x22, 0x34, 0x5A, 0x5C, 0x20, 0x0B, 0xC3,
  0x55, 0xD0, 0x16, 0x28, 0xE6, 0x33, 0x0A, 0xF8, 0x0A, 0x14,
  0xDF, 0xE5, 0x02, 0x4E, 0x3C, 0x13, 0x3D, 0xDC, 0xF4, 0x2C,
  0x35, 0xDC, 0x3E, 0x59, 0x3F, 0x3D, 0x11, 0x10, 0x41, 0x67,
  0x0D, 0x0F, 0xCB, 0x06, 0x2C, 0xDA, 0x51, 0xF4, 0x34, 0xD7,
  0x4D, 0x00, 0xEE, 0xA0, 0xEC, 0x0A, 0x11, 0x31, 0x0E, 0x46,
  0x45, 0xFB, 0xF9, 0x03, 0x24, 0x04, 0xD2, 0xE1, 0x4F, 0xCA,
  0x10, 0xDA, 0x16, 0x07, 0xA2, 0x1E, 0xCB, 0x1A, 0x1B, 0x32,
  0xF8, 0x35, 0x24, 0x1A, 0x3C, 0x2A, 0xC7, 0x03, 0x53, 0xE4,
  0xD7, 0xEE, 0x38, 0xCB, 0x0B, 0x14, 0xDC, 0x0B, 0xF5, 0x0C,
  0xD0, 0xD7, 0x27, 0x2E, 0xE0, 0x26, 0x08, 0xE3, 0x3F, 0x6E,
  0xB4, 0x11, 0xAD, 0x0B, 0xC8, 0x00, 0x82, 0xB1, 0xDB, 0x04,
  0xBD, 0xF3, 0x56, 0x3F, 0x0D, 0xB5, 0xC3, 0x37, 0x85, 0xDF,
  0x27, 0x3B, 0xCC, 0x1A, 0xE9, 0x25, 0xEB, 0x42, 0xA5, 0xF8,
  0xD2, 0xE5, 0x07, 0x30, 0x17, 0xC2, 0xE9, 0xD8, 0xCF, 0xFA,
  0x33, 0x15, 0xE1, 0x3F, 0x1B, 0x0F, 0x0E, 0x3F, 0x2C, 0x28,
  0xA7, 0xFA, 0xA4, 0x25, 0x44, 0xA9, 0x32, 0xFB, 0xE4, 0x27,
  0xF1, 0x49, 0xFD, 0xE0, 0xE2, 0xF2, 0xFF, 0xCD, 0x0C, 0x15,
  0x2D, 0x99, 0x15, 0x2C, 0xE7, 0x08, 0x30, 0x02, 0x3E, 0xC0,
  0x63, 0x2C, 0xE3, 0xD4, 0xBD, 0xC4, 0x31, 0xBE, 0x1E, 0x1C,
  0x22, 0xDE, 0x3C, 0x15, 0x34, 0xE1, 0xEC, 0x14, 0x0F, 0x09,
  0xFD, 0x11, 0x38, 0x28, 0x06, 0xF7, 0xA7, 0xE4, 0xCF, 0x3A,
  0x2C, 0xDE, 0x18, 0x28, 0xD3, 0xD8, 0xCE, 0xDD, 0x4D, 0x24,
  0x0B, 0x1D, 0x05, 0x9C, 0xFB, 0xC6, 0x09, 0x52, 0x0D, 0xFE,
  0x11, 0xC6, 0x03, 0x21, 0xE9, 0x0A, 0x33, 0xC5, 0x30, 0x39,
  0xF4, 0x33, 0x7F, 0x38, 0xFF, 0x3A, 0xE6, 0x07, 0x07, 0x2B,
  0xF6, 0xE6, 0xEC, 0xBF, 0x20, 0x3C, 0x0A, 0xE4, 0x39, 0x2E,
  0x33, 0xDD, 0xDE, 0xDF, 0xD0, 0x01, 0x2B, 0x00, 0x0E, 0x3A,
  0xE5, 0xDD, 0xE6, 0x0F, 0xFA, 0x2D, 0x34, 0x00, 0x39, 0xC2,
  0x19, 0x1D, 0xE2, 0x20, 0x38, 0x46, 0xF3, 0xF6, 0x66, 0xF9,
  0xB6, 0xE1, 0x4C, 0x1C, 0x09, 0x24, 0xDA, 0xFA, 0xD4, 0x22,
  0x01, 0x08, 0xFD, 0xC7, 0x31, 0x1E, 0x2A, 0x06, 0xF7, 0x32,
  0x02, 0xFB, 0xDD, 0xF6, 0xDD, 0x13, 0xD6, 0xEA, 0xF5, 0xF2,
  0x01, 0x0C, 0xEC, 0x6D, 0x07, 0xD6, 0xEC, 0x08, 0xFD, 0x0D,
  0x1A, 0xE3, 0x16, 0x4C, 0x09, 0x3D, 0xAE, 0xFF, 0x13, 0x1C,
  0x51, 0xC2, 0xE6, 0xFE, 0xF9, 0x2D, 0x42, 0xCB, 0x60, 0x17,
  0x72, 0xE5, 0xDB, 0x3E, 0xC6, 0x20, 0xBE, 0x27, 0xE6, 0x02,
  0x1B, 0xC4, 0x62, 0x21, 0x00, 0x0F, 0xED, 0x05, 0x2A, 0xF4,
  0xDF, 0xDF, 0xF9, 0x0E, 0x19, 0x07, 0x31, 0x4F, 0x5C, 0x3C,
  0x14, 0x3D, 0xE4, 0x15, 0xFD, 0xF1, 0x1A, 0x19, 0xF7, 0x2F,
  0x28, 0xE2, 0xF2, 0x39, 0xC9, 0xC4, 0xF7, 0x97, 0x11, 0xD5,
  0x1C, 0x2D, 0xB6, 0x16, 0xCF, 0x00, 0x00, 0x3C, 0x54, 0x0A,
  0x20, 0xDC, 0xF5, 0x56, 0x31, 0x22, 0x06, 0x01, 0xCD, 0x2A,
  0xD5, 0x3A, 0x03, 0xD1, 0xE2, 0xF0, 0xF7, 0x06, 0xB5, 0x83,
  0xE4, 0x1B, 0x1A, 0xF0, 0xD2, 0x28, 0x07, 0x1C, 0x2C, 0x13,
  0x57, 0x32, 0x48, 0x14, 0xFE, 0x1A, 0x4E, 0xEF, 0xF4, 0x0F,
  0x19, 0x3F, 0x7F, 0xE7, 0x08, 0xFD, 0xC9, 0x4F, 0xD3, 0x21,
  0xBA, 0xD5, 0x2B, 0xDE, 0x2C, 0x0A, 0x06, 0xC2, 0x25, 0xD9,
  0xFD, 0x1C, 0x09, 0x0D, 0x16, 0x29, 0xEC, 0x28, 0x2B, 0x0C,
  0xA0, 0xE5, 0xC5, 0x0B, 0xDC, 0xDD, 0xF2, 0xFE, 0x15, 0x02,
  0xCC, 0xA1, 0x34, 0xFE, 0xB6, 0x00, 0x04, 0xFD, 0x02, 0x5D,
  0xE6, 0x0A, 0xEA, 0xFA, 0x28, 0xDD, 0xF4, 0xF3, 0x18, 0x06,
  0xD3, 0x02, 0xFD, 0x1B, 0xFC, 0xFE, 0x00, 0x12, 0xEF, 0x1C,
  0xF7, 0xEC, 0x05, 0x10, 0x22, 0x19, 0xE4, 0xE9, 0x21, 0x20,
  0xE0, 0x15, 0xF4, 0x03, 0x19, 0x06, 0x10, 0xEA, 0xC1, 0xE1,
  0x1B, 0x2F, 0xFE, 0x05, 0xEA, 0x04, 0x28, 0x09, 0x46, 0x20,
  0x44, 0x1E, 0x5C, 0x31, 0x2F, 0x44, 0x33, 0x0F, 0x53, 0xF4,
  0x1E, 0xE9, 0x03, 0x09, 0xFC, 0x05, 0x0F, 0x0C, 0xEA, 0x0B,
  0xE8, 0xE3, 0xBD, 0xEA, 0x72, 0x53, 0x3E, 0x01, 0xEA, 0xEB,
  0xF5, 0xE4, 0x15, 0xEC, 0x23, 0xFF, 0xFB, 0x0B, 0xE5, 0xFD,
  0x07, 0x31, 0xCD, 0x37, 0xDA, 0xFD, 0xD1, 0xE4, 0xD6, 0xF5,
  0x29, 0x10, 0xE4, 0x2D, 0x1C, 0xE6, 0x0E, 0xE0, 0x06, 0x11,
  0x1E, 0x0F, 0xAD, 0xCD, 0xE0, 0x3E, 0xF4, 0xFC, 0xCD, 0x26,
  0xE0, 0x47, 0x22, 0xEC, 0xD7, 0xCA, 0xD8, 0x9D, 0xE8, 0x0E,
  0x34, 0x0A, 0xE6, 0x32, 0xCA, 0x3E, 0xF6, 0x4F, 0x23, 0x23,
  0x1A, 0xB5, 0x7F, 0x0F, 0xFC, 0x2E, 0x37, 0xE6, 0x27, 0x07,
  0x3C, 0xFE, 0xF6, 0x0A, 0xFA, 0x3B, 0xF8, 0x2B, 0xF9, 0xC4,
  0x2B, 0x14, 0x47, 0xCB, 0x20, 0x17, 0xD5, 0xCD, 0xD0, 0x2D,
  0xD8, 0xFC, 0x2A, 0xE6, 0xFE, 0x26, 0x2C, 0xEC, 0xE5, 0x38,
  0xD5, 0xF4, 0x11, 0xCA, 0x38, 0x01, 0xD2, 0x05, 0xE0, 0x21,
  0xB0, 0x12, 0xBF, 0x3E, 0x46, 0xF4, 0x1E, 0xE8, 0xF6, 0xCD,
  0x61, 0x49, 0xFD, 0xFB, 0x29, 0x32, 0x23, 0xFD, 0x04, 0x24,
  0xF8, 0x16, 0xE3, 0xDD, 0x4C, 0xE8, 0x2E, 0x2F, 0xDA, 0xF2,
  0xE9, 0xE8, 0x36, 0xE2, 0xAB, 0xDF, 0x5E, 0xF1, 0xE9, 0x34,
  0xFC, 0xF9, 0x69, 0xFC, 0x1B, 0x12, 0x56, 0xD2, 0xFD, 0xEA,
  0xDA, 0x01, 0xCF, 0xFF, 0x51, 0x1F, 0x03, 0x32, 0xDB, 0xF9,
  0x0B, 0xDC, 0xD8, 0x3B, 0x33, 0xD9, 0xE9, 0xFC, 0x7F, 0x0C,
  0x40, 0xFF, 0xCA, 0xFE, 0xA7, 0x2B, 0x08, 0xF4, 0xDA, 0x04,
  0x2E, 0xDE, 0xE4, 0xE7, 0xBF, 0x04, 0x6D, 0x02, 0x15, 0xE4,
  0xE1, 0xBB, 0xCD, 0xFB, 0xAA, 0x41, 0x0C, 0x11, 0x10, 0x2A,
  0xF0, 0x23, 0x1D, 0xFF, 0xF6, 0xE0, 0x22, 0xE0, 0x14, 0xE5,
  0xEB, 0x20, 0x25, 0xCF, 0x05, 0xE8, 0x05, 0x02, 0xBD, 0x1A,
  0x16, 0x26, 0xFD, 0x40, 0xEA, 0x0C, 0xC5, 0x1D, 0x0F, 0xDF,
  0xE7, 0x16, 0xD8, 0xB9, 0x9C, 0x11, 0xD4, 0x25, 0xCB, 0xE2,
  0xE4, 0x2C, 0x15, 0x12, 0x01, 0x04, 0xF6, 0x04, 0x24, 0x99,
  0x02, 0xBD, 0x40, 0x0F, 0x25, 0x51, 0xFD, 0x28, 0x58, 0xDC,
  0x32, 0x2D, 0xD4, 0x13, 0xED, 0xC0, 0x31, 0x55, 0x02, 0xCC,
  0x07, 0xE5, 0xCD, 0xCD, 0xF4, 0x17, 0x2E, 0x15, 0x3C, 0x19,
  0xDE, 0xBF, 0xC4, 0x56, 0xF1, 0xEA, 0x1C, 0x2B, 0xF7, 0xEC,
  0xCC, 0x26, 0x0F, 0xF0, 0xF6, 0xEF, 0xEB, 0xF5, 0x0E, 0xEC,
  0x35, 0x1D, 0x1E, 0x0E, 0x11, 0x3A, 0xF1, 0xDE, 0x3A, 0xCB,
  0x00, 0xD7, 0x4F, 0x08, 0x48, 0xE9, 0xBD, 0xD8, 0xC6, 0x16,
  0xA6, 0x30, 0xD4, 0xE6, 0xCF, 0xAA, 0xD2, 0xDD, 0x2D, 0xDF,
  0x2F, 0x4A, 0x03, 0xC1, 0x42, 0x1B, 0xB5, 0x13, 0xFF, 0x52,
  0xC4, 0x46, 0xF9, 0xF7, 0xE0, 0xC9, 0x3F, 0xEA, 0xF2, 0x10,
  0x23, 0xBF, 0x42, 0x0F, 0xF8, 0xCF, 0x5A, 0x17, 0xFB, 0x28,
  0xEE, 0x12, 0x27, 0x0B, 0x51, 0x0D, 0x4B, 0x8A, 0x41, 0xB4,
  0xC8, 0x0A, 0x30, 0xFC, 0xEA, 0xED, 0xBC, 0xFC, 0xEC, 0xF5,
  0x30, 0x36, 0x10, 0x02, 0xCB, 0x17, 0xC5, 0x12, 0x02, 0xFD,
  0xDF, 0x1C, 0xE2, 0x02, 0xF0, 0x45, 0x18, 0x18, 0xB6, 0x11,
  0xF2, 0xA6, 0x00, 0xFF, 0xDE, 0x1A, 0x24, 0xFF, 0xDE, 0x23,
  0xE0, 0x83, 0x1F, 0x05, 0x02, 0xE7, 0x1C, 0x05, 0x35, 0xFB,
  0x76, 0x17, 0x2A, 0x15, 0xED, 0x13, 0x1C, 0xDA, 0x14, 0x20,
  0x12, 0x00, 0x27, 0xD0, 0x19, 0x31, 0x0D, 0xD8, 0xDF, 0x1F,
  0xDA, 0x69, 0xD5, 0x06, 0xFF, 0x40, 0xFE, 0xE7, 0x7F, 0xED,
  0x54, 0xDF, 0x0C, 0x20, 0xDA, 0xEE, 0x70, 0x3B, 0x0D, 0x1A,
  0x26, 0xC4, 0xD1, 0x04, 0xED, 0x11, 0xF8, 0x21, 0x49, 0xE7,
  0x42, 0xFA, 0xFE, 0xF3, 0x01, 0x36, 0x12, 0xF1, 0x5D, 0x10,
  0xEF, 0x19, 0xD6, 0x39, 0xD8, 0xE3, 0xAE, 0x42, 0xF3, 0xEB,
  0x0F, 0xFB, 0xB8, 0x17, 0xCF, 0x27, 0xE1, 0xB2, 0x1A, 0x08,
  0x34, 0x34, 0x0C, 0x4F, 0x0D, 0xF9, 0xE6, 0xEB, 0x3E, 0x1F,
  0xD9, 0x3F, 0x15, 0x21, 0xCD, 0xD4, 0x57, 0x18, 0x21, 0x3F,
  0x42, 0x35, 0xFB, 0xFE, 0x2A, 0x06, 0xF2, 0xD9, 0xFB, 0xD1,
  0x00, 0x2C, 0x2A, 0x7C, 0x43, 0x0E, 0xD7, 0xFF, 0x20, 0xFB,
  0x1B, 0xE5, 0x0F, 0xD8, 0x14, 0x0C, 0xE7, 0x23, 0x18, 0xEF,
  0x02, 0x56, 0x15, 0xD0, 0x2B, 0x15, 0x26, 0xC8, 0xF1, 0xFA,
  0xBD, 0xEB, 0xFC, 0xEE, 0x30, 0x0D, 0x60, 0x00, 0xBC, 0xE2,
  0xFE, 0xD8, 0x19, 0x5A, 0xDC, 0xF1, 0x24, 0x00, 0xE9, 0x0E,
  0xDD, 0x17, 0x2E, 0x26, 0x2C, 0x11, 0xAC, 0xAD, 0x2A, 0x0F,
  0xC1, 0x0B, 0x33, 0x1C, 0x26, 0xE3, 0x01, 0xD7, 0x64, 0xC4,
  0x13, 0xDE, 0xE2, 0xF5, 0xE1, 0x0A, 0xBE, 0xED, 0x13, 0x2E,
  0xD3, 0x19, 0xF3, 0x15, 0xE3, 0xFA, 0x19, 0x1D, 0x19, 0xDE,
  0x07, 0x7F, 0xEA, 0xFD, 0x26, 0xEB, 0x2D, 0x2E, 0xF8, 0x9E,
  0xCB, 0x33, 0xED, 0xC8, 0xF2, 0x16, 0x30, 0x28, 0xF4, 0x22,
  0xF0, 0x34, 0x0F, 0x1D, 0x1B, 0xC6, 0x04, 0xBB, 0xF7, 0x14,
  0x1D, 0x08, 0x37, 0xC5, 0x35, 0xE5, 0xE2, 0xED, 0x0C, 0xE1,
  0xFE, 0xE1, 0xC3, 0x42, 0x1D, 0xDB, 0xF7, 0x0A, 0xAF, 0x02,
  0xD4, 0x09, 0x42, 0x42, 0x01, 0x2A, 0xEA, 0xF3, 0xC0, 0x21,
  0x06, 0x0D, 0x16, 0xFB, 0x5A, 0xF6, 0xF2, 0x56, 0xFC, 0xCE,
  0xE6, 0xFC, 0x2D, 0xE0, 0xAF, 0xB0, 0x44, 0x03, 0xFE, 0x36,
  0x32, 0xEA, 0xF1, 0xD3, 0xEB, 0x55, 0xB7, 0x34, 0x42, 0xAD,
  0x00, 0x4D, 0xC6, 0xCD, 0x3A, 0x0D, 0x58, 0x3D, 0xF5, 0xAC,
  0x0D, 0x41, 0xDE, 0xE3, 0xBF, 0x09, 0x2A, 0xF1, 0x2D, 0x39,
  0xD3, 0xF0, 0x44, 0x74, 0x03, 0xC0, 0xFA, 0x01, 0x29, 0x10,
  0xFC, 0x2A, 0x37, 0xD5, 0x12, 0x17, 0x0F, 0xE8, 0x1D, 0xD9,
  0x0B, 0xEB, 0x00, 0x1C, 0xC9, 0x08, 0xB9, 0xE5, 0xDA, 0x24,
  0x07, 0xFD, 0xEC, 0x30, 0x0F, 0x05, 0x06, 0x2D, 0x05, 0x1D,
  0xD0, 0xCF, 0x0E, 0xD5, 0x17, 0x0A, 0xE1, 0xBF, 0xEB, 0xC9,
  0xD2, 0xE7, 0xF0, 0xEB, 0x35, 0x17, 0xD5, 0x01, 0x13, 0xEE,
  0x03, 0x1D, 0x42, 0x3F, 0xFD, 0xED, 0x25, 0x14, 0xFA, 0xEF,
  0xC7, 0xEC, 0xD3, 0xFA, 0xDE, 0xE9, 0xE1, 0x83, 0x16, 0xD9,
  0x1C, 0x2E, 0x25, 0x18, 0x5A, 0x0E, 0x03, 0x1C, 0xF0, 0x4D,
  0xDB, 0x3D, 0x35, 0xF0, 0xDB, 0xC6, 0x44, 0x10, 0x37, 0xF5,
  0x11, 0xEC, 0x39, 0x0E, 0x50, 0x4F, 0x81, 0xC3, 0xD0, 0xC5,
  0x37, 0xD4, 0xE9, 0xEF, 0xB8, 0x37, 0x9E, 0x03, 0xD3, 0x0D,
  0xF7, 0x3A, 0x82, 0x02, 0x2B, 0xD0, 0x3E, 0xDF, 0xE9, 0x3B,
  0x00, 0x0E, 0xFE, 0x0A, 0x70, 0x41, 0xEA, 0x02, 0xB7, 0x5D,
  0xFA, 0xCD, 0x03, 0xF0, 0xDB, 0xFA, 0x0C, 0xFF, 0x25, 0x20,
  0xFE, 0x49, 0xEA, 0xD0, 0x37, 0xF8, 0xE3, 0x05, 0x0C, 0x1B,
  0xFF, 0x06, 0x27, 0x2F, 0x66, 0xCA, 0x45, 0x1E, 0x34, 0xF9,
  0x1C, 0x19, 0x34, 0x19, 0x04, 0x01, 0xEF, 0xF7, 0x15, 0x4C,
  0xFB, 0xDD, 0xE3, 0xF5, 0xFF, 0xED, 0x01, 0xFC, 0x04, 0x01,
  0x22, 0xF3, 0x05, 0x32, 0x1D, 0x29, 0xD2, 0xFA, 0xFE, 0x04,
  0xC7, 0x3B, 0x26, 0xDF, 0x19, 0xFE, 0xF3, 0x27, 0x07, 0xB9,
  0x0A, 0xE6, 0xCE, 0xE5, 0x02, 0x1C, 0xF8, 0x1B, 0xCF, 0x10,
  0x3F, 0x13, 0xF7, 0x34, 0xE3, 0x3D, 0xFE, 0xFA, 0xDF, 0x03,
  0xF8, 0x0F, 0x40, 0xF0, 0x1F, 0xFF, 0x06, 0x0D, 0xF4, 0xF2,
  0xC9, 0x22, 0x06, 0x2B, 0x16, 0x1E, 0x13, 0xFF, 0x17, 0x3C,
  0xF1, 0x18, 0xE8, 0xFE, 0xFA, 0xEC, 0xFD, 0xF2, 0xFC, 0x00,
  0x0E, 0x32, 0xEC, 0x27, 0xFC, 0x0D, 0xFA, 0xD3, 0x10, 0x20,
  0x1A, 0xEA, 0x32, 0x12, 0x32, 0xD5, 0x09, 0xF6, 0xED, 0xF5,
  0xF0, 0xD2, 0xF7, 0x45, 0xDF, 0x2B, 0xD0, 0xA0, 0xF8, 0x4C,
  0x05, 0x21, 0xCC, 0xDE, 0xEE, 0x07, 0xE0, 0x06, 0xE3, 0xF6,
  0x09, 0xF4, 0x0D, 0xB3, 0x3B, 0x3D, 0xF1, 0x30, 0x02, 0x36,
  0x34, 0xF3, 0x2C, 0xFB, 0x3C, 0x22, 0xEA, 0x36, 0xFD, 0x01,
  0x5E, 0x0B, 0x0A, 0x00, 0xD8, 0xB4, 0xBF, 0xBF, 0x5C, 0x24,
  0x0D, 0x32, 0x38, 0xB4, 0xD6, 0xE4, 0xFA, 0x26, 0x14, 0xFC,
  0x0D, 0xC6, 0xF0, 0x27, 0xDF, 0xEF, 0x14, 0xE5, 0xD2, 0x27,
  0x81, 0x34, 0xF5, 0xC1, 0x41, 0x3D, 0xF1, 0x09, 0x13, 0xCD,
  0xEF, 0xE9, 0xF5, 0xFE, 0xF9, 0xF6, 0xAD, 0x1E, 0x2B, 0x2C,
  0xC7, 0xFA, 0xC6, 0xFD, 0x2C, 0xE8, 0xBF, 0x1A, 0xBC, 0xDA,
  0x9C, 0x2F, 0x63, 0x59, 0xE4, 0xDD, 0xC1, 0x58, 0x2B, 0xBC,
  0x13, 0xE6, 0xC7, 0xDF, 0xDF, 0xD4, 0xDC, 0x26, 0x76, 0x0C,
  0xDB, 0x19, 0x3D, 0x2E, 0x2C, 0x19, 0xF7, 0xBC, 0xC4, 0xE3,
  0x37, 0x34, 0x1E, 0x04, 0xFA, 0x37, 0xE6, 0xCB, 0x07, 0x1E,
  0x38, 0x11, 0xD8, 0xCC, 0x0D, 0x20, 0x31, 0x23, 0xAF, 0xFC,
  0x13, 0xE7, 0xD4, 0x62, 0x24, 0x43, 0xEB, 0x06, 0x81, 0x28,
  0x0F, 0xD8, 0x1B, 0x03, 0x38, 0x0E, 0xCA, 0x00, 0xF9, 0x09,
  0x05, 0x25, 0x3F, 0x3D, 0xC2, 0x22, 0x38, 0xEE, 0xF2, 0x21,
  0xC7, 0x41, 0x0D, 0xF4, 0x30, 0xDA, 0xFA, 0x08, 0x3F, 0x23,
  0xE3, 0xED, 0xF2, 0xC7, 0x1F, 0x07, 0xEB, 0x08, 0x1B, 0xF7,
  0x3B, 0x35, 0x0D, 0xEB, 0xF4, 0x15, 0xFD, 0x20, 0x0C, 0x33,
  0x26, 0x28, 0xD8, 0xF3, 0xC5, 0x12, 0xA6, 0xF0, 0x2A, 0xFB,
  0xD1, 0xEA, 0xE7, 0x37, 0x99, 0xF1, 0x0A, 0xD7, 0x27, 0x33,
  0x71, 0xE0, 0xDA, 0xB5, 0xCB, 0x11, 0x06, 0x59, 0x32, 0x21,
  0xA7, 0xD5, 0xFD, 0x26, 0x1F, 0xFA, 0x06, 0x06, 0x41, 0xE3,
  0x28, 0x1A, 0xF4, 0xFC, 0xED, 0x0A, 0x02, 0xBD, 0x1A, 0x18,
  0x3D, 0xFA, 0x19, 0x0B, 0x22, 0xF4, 0x2C, 0xB8, 0xD9, 0x19,
  0xFF, 0xF6, 0xC8, 0x1D, 0xC4, 0xF4, 0x03, 0x29, 0xF2, 0xF9,
  0x15, 0xC1, 0xCD, 0xFA, 0x24, 0x10, 0x47, 0x2B, 0x66, 0x01,
  0xBF, 0x7E, 0xAE, 0x54, 0x13, 0xFF, 0x1D, 0xE9, 0x63, 0x09,
  0x02, 0xD9, 0x09, 0x3E, 0x7F, 0xDA, 0x0F, 0x36, 0xEC, 0xFD,
  0x69, 0x1D, 0xC5, 0x56, 0x02, 0xEE, 0xCA, 0xFA, 0x1B, 0x61,
  0x4E, 0x30, 0xD1, 0xD4, 0x3D, 0x45, 0x40, 0xFE, 0x02, 0xF5,
  0x22, 0xC0, 0xEB, 0x3E, 0x20, 0xD2, 0x16, 0xD4, 0xF8, 0x49,
  0x0C, 0x3B, 0x48, 0x22, 0xBE, 0xE3, 0x95, 0x3D, 0x58, 0xCF,
  0xCE, 0xA7, 0xC9, 0x3E, 0x5E, 0x57, 0x01, 0xE6, 0x30, 0x1D,
  0xF3, 0xCC, 0x24, 0x33, 0x3C, 0xEC, 0xD6, 0x0D, 0x15, 0x1B,
  0x69, 0x35, 0xCF, 0x20, 0x1D, 0xF3, 0xE3, 0x16, 0x47, 0xD6,
  0x39, 0x04, 0xF6, 0xF5, 0xF6, 0x11, 0xE3, 0x46, 0xF5, 0x18,
  0x20, 0x02, 0x48, 0x06, 0x0B, 0xEA, 0xD5, 0x0F, 0xBA, 0x07,
  0xE0, 0x00, 0x07, 0xF0, 0x1F, 0x30, 0xF8, 0xD1, 0xB5, 0x33,
  0x11, 0x14, 0x24, 0xF8, 0x2C, 0xFC, 0xAA, 0x27, 0x0E, 0x0F,
  0x2F, 0xC1, 0xBC, 0xCE, 0xE4, 0x0B, 0x0B, 0x02, 0x9E, 0xDE,
  0xED, 0xC3, 0xC9, 0x1D, 0xC2, 0xCF, 0x0E, 0x13, 0x0C, 0x1D,
  0xDF, 0x14, 0xC4, 0xD2, 0xF4, 0x26, 0x16, 0xFC, 0x1E, 0x45,
  0xB5, 0x09, 0x29, 0x12, 0x2A, 0xD7, 0xB4, 0x02, 0xB0, 0x36,
  0xE0, 0x40, 0x0C, 0x0D, 0x22, 0x49, 0xC0, 0x22, 0x01, 0xF5,
  0xC9, 0xDE, 0xF2, 0x00, 0x1E, 0xDF, 0x2B, 0xBF, 0xED, 0x99,
  0xB9, 0x17, 0x23, 0x51, 0x06, 0x0C, 0xCB, 0x22, 0xE4, 0xC7,
  0xAA, 0x03, 0xE7, 0xEA, 0x2E, 0x06, 0xDA, 0xEE, 0x1B, 0xF9,
  0x00, 0x22, 0x01, 0x05, 0xF3, 0x0F, 0xF8, 0x5D, 0xDA, 0x15,
  0xB2, 0xFD, 0xFB, 0xEB, 0xD3, 0x13, 0x16, 0x07, 0x1A, 0xEE,
  0x0A, 0xEE, 0xF4, 0xD4, 0xE1, 0xFA, 0xD9, 0x0A, 0xF2, 0x39,
  0xDF, 0xF8, 0xC2, 0x11, 0xE1, 0xC4, 0xE1, 0xD2, 0x22, 0x13,
  0x04, 0xEB, 0x03, 0xF3, 0xCA, 0x11, 0xC5, 0xE5, 0x54, 0xF1,
  0xD7, 0xE4, 0x14, 0x1B, 0x0B, 0xF9, 0xD7, 0xFB, 0x00, 0x10,
  0x16, 0x0C, 0xFD, 0x06, 0x62, 0x2D, 0x03, 0xF1, 0x4D, 0x16,
  0xEF, 0x03, 0x1D, 0x42, 0xB4, 0x02, 0xEA, 0xF3, 0xFB, 0x3C,
  0x28, 0x1B, 0x00, 0xC6, 0xF9, 0x21, 0x0D, 0x15, 0x0A, 0xE8,
  0x17, 0x15, 0x0C, 0x22, 0xFF, 0xEC, 0x08, 0x1A, 0xCF, 0x33,
  0xEF, 0xE1, 0xCE, 0x33, 0xE2, 0x19, 0xB7, 0x0B, 0x2E, 0x0C,
  0x29, 0x7C, 0x35, 0x0D, 0x4E, 0x1E, 0x0F, 0xC2, 0x5A, 0x24,
  0xFB, 0x22, 0xF9, 0xEE, 0x03, 0x21, 0x37, 0x1D, 0x30, 0xF8,
  0x71, 0x1C, 0x18, 0xC1, 0x60, 0x1B, 0xF9, 0xF6, 0x2B, 0xF9,
  0xF5, 0xDA, 0x35, 0x40, 0xE2, 0xDC, 0xF9, 0x10, 0xEC, 0x29,
  0x05, 0xE2, 0x30, 0x2E, 0xCE, 0x0A, 0xF6, 0x12, 0xF6, 0x3C,
  0x4D, 0xEE, 0x05, 0xE9, 0x58, 0x09, 0xC8, 0x5F, 0xF7, 0x09,
  0x1D, 0x3B, 0x2C, 0x5F, 0x81, 0xF1, 0xC6, 0x24, 0x2B, 0xDE,
  0xF4, 0x36, 0xEF, 0xCC, 0x81, 0xCD, 0x00, 0x4C, 0x25, 0xED,
  0x31, 0x4F, 0xDC, 0x05, 0xCE, 0x01, 0x04, 0x43, 0x33, 0x0F,
  0xD7, 0xEA, 0xF8, 0xF3, 0x1F, 0xF7, 0xB7, 0x0A, 0xD2, 0x35,
  0xFD, 0x1F, 0x3D, 0x3D, 0xE1, 0x08, 0xD8, 0x09, 0x2E, 0x04,
  0xA3, 0xD2, 0x0A, 0x20, 0xFF, 0xCC, 0xF4, 0x1C, 0xDE, 0x22,
  0x9A, 0xBF, 0x47, 0xCA, 0x14, 0x3B, 0x11, 0x27, 0xD1, 0x25,
  0xD9, 0x39, 0x04, 0xC8, 0x2F, 0xEF, 0x2A, 0x0F, 0xEF, 0x0E,
  0xD5, 0x03, 0xAB, 0x3C, 0x3E, 0x22, 0xD2, 0x06, 0x07, 0x1D,
  0xE6, 0xF4, 0x10, 0x2E, 0x1B, 0x28, 0xF0, 0x04, 0xCB, 0xEC,
  0x21, 0x0D, 0x15, 0xEE, 0x09, 0xCA, 0x16, 0x02, 0xF9, 0xFB,
  0x0D, 0x26, 0xBF, 0x12, 0x00, 0x0A, 0xE6, 0xEB, 0x3F, 0xCC,
  0x3A, 0xE4, 0x0A, 0xF5, 0x27, 0x27, 0xB1, 0x1E, 0x13, 0x0B,
  0x06, 0x33, 0xFD, 0xFB, 0xBD, 0x56, 0x2E, 0x08, 0x94, 0x14,
  0x38, 0xF5, 0x2D, 0x21, 0x15, 0x44, 0xD4, 0x3B, 0x1B, 0x0D,
  0x11, 0x0E, 0x0B, 0xF5, 0x0B, 0x1A, 0xFC, 0xFC, 0xC9, 0xDA,
  0x26, 0x2B, 0xE3, 0xD9, 0xFC, 0xC1, 0x1D, 0xED, 0x0B, 0xD4,
  0xDA, 0xF5, 0x25, 0x0F, 0x1B, 0x19, 0x10, 0x12, 0xBE, 0x45,
  0x02, 0x13, 0xD2, 0xE7, 0x21, 0x14, 0xDC, 0xFC, 0x00, 0xF6,
  0xF9, 0x2E, 0xE6, 0x32, 0x31, 0x17, 0x14, 0x2D, 0x3F, 0xEE,
  0x0E, 0xBE, 0x25, 0xE3, 0x5F, 0xB1, 0xD8, 0x09, 0xF6, 0x05,
  0xC1, 0x25, 0xD2, 0x4B, 0x16, 0xEC, 0x1A, 0xE1, 0xEA, 0x06,
  0x48, 0x00, 0x23, 0x1E, 0xCA, 0x29, 0xE3, 0x0C, 0x23, 0x01,
  0xC8, 0xEB, 0xE8, 0x0E, 0x0D, 0x03, 0x0C, 0xFF, 0x94, 0xC3,
  0xCA, 0x0F, 0x2E, 0xE7, 0x95, 0xCE, 0x1E, 0x14, 0x1E, 0x36,
  0x43, 0xDE, 0xED, 0xA3, 0xFC, 0xE9, 0xB8, 0xFE, 0x14, 0x0A,
  0x2A, 0x35, 0xDD, 0x24, 0x0D, 0x08, 0x8E, 0xD1, 0xFA, 0x32,
  0xF0, 0x01, 0x30, 0x3A, 0x71, 0xF8, 0x06, 0xB1, 0xA3, 0x1A,
  0xE9, 0x24, 0x1C, 0x07, 0xFA, 0x45, 0xCB, 0xDC, 0xEC, 0x18,
  0xFB, 0xE4, 0x36, 0xE4, 0xDA, 0x3A, 0x34, 0xF4, 0x1D, 0x36,
  0xB2, 0x2B, 0x12, 0x16, 0xF3, 0x50, 0xF3, 0xFA, 0x47, 0x03,
  0xB1, 0x00, 0x26, 0x11, 0x08, 0x10, 0x1A, 0xF0, 0xE9, 0x3B,
  0x54, 0x1E, 0x4D, 0x0D, 0x37, 0xCB, 0xC1, 0x24, 0x12, 0x7F,
  0x10, 0x30, 0x0C, 0xE2, 0x05, 0xEF, 0xF6, 0x5B, 0x2B, 0xC4,
  0x41, 0x18, 0xF3, 0x1D, 0xAB, 0xFD, 0x3B, 0xE5, 0x10, 0xD0,
  0xDA, 0xB1, 0x1E, 0x34, 0xBD, 0x1A, 0xE7, 0x12, 0x16, 0x09,
  0xDB, 0x22, 0x22, 0x66, 0xF3, 0xFD, 0x61, 0xFE, 0x13, 0xC0,
  0x10, 0x12, 0x1E, 0x41, 0x05, 0x06, 0xF1, 0x67, 0x0D, 0x28,
  0xCE, 0xD2, 0xB8, 0xF4, 0xE4, 0x47, 0x13, 0x52, 0xF2, 0x1F,
  0x94, 0xF5, 0x47, 0xE8, 0xFE, 0x36, 0xEC, 0x2A, 0x19, 0xDA,
  0xC0, 0x08, 0x1A, 0xAE, 0x1F, 0x0D, 0x55, 0x08, 0xEC, 0x37,
  0x15, 0x0D, 0xEF, 0x0D, 0x0A, 0xD8, 0x3A, 0xF7, 0x0A, 0x15,
  0xFD, 0xEA, 0x06, 0x02, 0x0C, 0x1C, 0x0A, 0x18, 0xF7, 0xE4,
  0x07, 0x01, 0x00, 0x17, 0xEF, 0xFE, 0x0F, 0x07, 0x1B, 0xEB,
  0x0F, 0xE4, 0xF8, 0xF7, 0x18, 0xF8, 0x05, 0x15, 0x39, 0xD7,
  0xFB, 0x03, 0x05, 0x11, 0x11, 0x24, 0xED, 0x18, 0x13, 0xD8,
  0xCB, 0x0D, 0xF7, 0xE6, 0xF3, 0x06, 0xE1, 0x08, 0x12, 0xFF,
  0x4A, 0xDE, 0x35, 0xBA, 0xFC, 0xDD, 0x4B, 0x1E, 0xF6, 0xD5,
  0xEB, 0x0C, 0x31, 0x17, 0x21, 0xFC, 0xFE, 0xDF, 0x5A, 0x18,
  0x09, 0xEA, 0xDC, 0x25, 0x15, 0x27, 0x1D, 0xE6, 0x12, 0xCE,
  0x22, 0x1E, 0xD7, 0x32, 0x0F, 0x03, 0x0F, 0x0D, 0x1F, 0xF1,
  0x01, 0x08, 0xFC, 0xF8, 0xF9, 0x26, 0x01, 0x18, 0xE7, 0x09,
  0x1D, 0x0A, 0x23, 0x21, 0x02, 0x18, 0xE9, 0x00, 0x10, 0x2A,
  0x1C, 0xE3, 0xD9, 0xDB, 0x30, 0x66, 0xE1, 0x2C, 0xF6, 0x0C,
  0x06, 0x12, 0x51, 0x25, 0x20, 0x15, 0xF8, 0x05, 0x2E, 0xE8,
  0x23, 0x07, 0x25, 0x0A, 0x4A, 0x25, 0x0E, 0xFF, 0x38, 0xF0,
  0xF1, 0x35, 0xE6, 0xE4, 0x10, 0xFA, 0x7F, 0x1E, 0x1C, 0xE9,
  0xE7, 0x1D, 0xE7, 0x0B, 0x14, 0xF8, 0x0B, 0x0E, 0xFB, 0xF3,
  0x04, 0xF3, 0x2E, 0x0B, 0x2F, 0xFA, 0xF8, 0xFC, 0x4C, 0x46,
  0xDA, 0xD8, 0x17, 0xF3, 0xCF, 0x06, 0x1D, 0x50, 0xE2, 0xDC,
  0xD7, 0xE1, 0xDA, 0x08, 0x1D, 0x02, 0xC9, 0xD1, 0x95, 0xCE,
  0x05, 0x25, 0xF0, 0xF3, 0x10, 0x33, 0xC8, 0xAE, 0x01, 0xFD,
  0x1D, 0x36, 0xE4, 0x00, 0x36, 0x2E, 0xE2, 0xE7, 0xE1, 0x48,
  0xE1, 0x01, 0x33, 0xFE, 0x34, 0x2A, 0x2C, 0x4B, 0xE8, 0x2D,
  0xDD, 0xFC, 0x22, 0x16, 0x35, 0xD2, 0x2F, 0x11, 0xD6, 0xEC,
  0xEB, 0x04, 0x6E, 0x15, 0xCB, 0xC0, 0x2E, 0xFA, 0x06, 0xFC,
  0xCC, 0x0D, 0x32, 0xDD, 0xC7, 0x20, 0xD2, 0x9A, 0x33, 0xD6,
  0xF9, 0xEA, 0xEC, 0xF7, 0xCA, 0x0A, 0x3F, 0x2C, 0x37, 0xE8,
  0xFD, 0x2C, 0x12, 0x15, 0xE5, 0x02, 0x0F, 0x0B, 0xDD, 0x4A,
  0xBF, 0xFE, 0x40, 0x00, 0xEF, 0xFF, 0xF2, 0x47, 0x33, 0xC9,
  0xD3, 0x0B, 0x0E, 0xE6, 0xDA, 0xD5, 0xE2, 0x24, 0x2F, 0x50,
  0xA9, 0xD7, 0x3E, 0x04, 0x18, 0x29, 0xF5, 0x2D, 0x28, 0x18,
  0xCA, 0x45, 0xDC, 0xF4, 0xE6, 0x02, 0xDE, 0x20, 0xEA, 0x1B,
  0x63, 0x02, 0x24, 0xA3, 0xCB, 0x38, 0x4F, 0xF5, 0x0A, 0x5B,
  0xDE, 0x58, 0x2E, 0xEA, 0xF9, 0x25, 0x07, 0x1C, 0x52, 0xF7,
  0xF5, 0x0C, 0x5B, 0x63, 0x19, 0x0F, 0x01, 0x1B, 0xEE, 0x28,
  0x4C, 0x58, 0x28, 0x45, 0xCF, 0x14, 0xDA, 0x0E, 0x72, 0x3C,
  0x0F, 0x25, 0xDC, 0xD0, 0x7F, 0x4C, 0x34, 0xAC, 0xEF, 0x04,
  0xE6, 0x43, 0x48, 0x2E, 0x0B, 0xFA, 0x13, 0x77, 0xDA, 0x22,
  0x27, 0x3D, 0xAC, 0x10, 0xF5, 0x02, 0xD1, 0x07, 0x25, 0x92,
  0x37, 0xC5, 0x2A, 0x52, 0x06, 0xE3, 0xFF, 0xFF, 0x04, 0x00,
  0x00, 0x00, 0x00, 0x16, 0x00, 0x00, 0xF8, 0x3C, 0x07, 0xD3,
  0xB4, 0xC2, 0xB6, 0xE1, 0xD9, 0xDE, 0xE6, 0xAD, 0xAA, 0xAD,
  0x1C, 0x4F, 0x02, 0x28, 0x3F, 0xFA, 0x0A, 0xF1, 0x0D, 0xDA,
  0xF1, 0x05, 0xEF, 0x09, 0xEB, 0xFC, 0xFF, 0x77, 0x1B, 0x6E,
  0x35, 0x1D, 0xFE, 0xFF, 0xCC, 0xC5, 0xD3, 0xED, 0xDB, 0xD4,
  0xC3, 0xEC, 0x27, 0x6B, 0x20, 0x3A, 0x25, 0x1F, 0x00, 0xE4,
  0xD2, 0xD1, 0xF6, 0xE1, 0x0A, 0xFC, 0xD9, 0x35, 0x18, 0x62,
  0xF5, 0x33, 0x24, 0x11, 0xFD, 0x02, 0xCF, 0xEB, 0xEC, 0xD8,
  0xEF, 0xFA, 0x0A, 0x11, 0xF0, 0x0B, 0xE5, 0x2C, 0x0E, 0xFB,
  0xDA, 0xD6, 0xBB, 0xE9, 0xDD, 0xF2, 0xEB, 0xE3, 0xD5, 0xC8,
  0xD6, 0xE4, 0xF5, 0x18, 0x09, 0xDD, 0xE7, 0x9B, 0xC6, 0xF2,
  0xF6, 0xE6, 0x0A, 0xFA, 0xCB, 0xF6, 0xD8, 0xE2, 0x1F, 0x2E,
  0x09, 0xDA, 0xDE, 0xFB, 0x18, 0x2B, 0x1D, 0x16, 0x0A, 0x21,
  0x1E, 0x19, 0x23, 0x4A, 0x32, 0x2A, 0x21, 0x0C, 0x2B, 0x1D,
  0x05, 0x50, 0x46, 0x4B, 0x04, 0x25, 0x65, 0x52, 0x4A, 0x56,
  0x54, 0x65, 0x53, 0x55, 0x41, 0x26, 0x0A, 0x33, 0x1C, 0x12,
  0x12, 0x33, 0x7F, 0x3F, 0x2B, 0x2F, 0x67, 0x61, 0x34, 0x26,
  0x2D, 0x2E, 0x0D, 0x00, 0xF0, 0xF8, 0x03, 0x2D, 0x2F, 0x20,
  0x21, 0xE4, 0x40, 0x3A, 0x12, 0x22, 0x00, 0x0C, 0x3B, 0x12,
  0x03, 0xC8, 0xF0, 0x13, 0xF9, 0xF4, 0xCC, 0xAB, 0x3B, 0x15,
  0x13, 0x1E, 0x37, 0x1C, 0x23, 0x22, 0xEB, 0xDF, 0xD2, 0x1B,
  0x09, 0xBE, 0xB0, 0xB4, 0x2F, 0x3B, 0x19, 0x1D, 0x34, 0x23,
  0x25, 0x23, 0x2F, 0x0B, 0xF6, 0x04, 0xE5, 0xA9, 0xB8, 0xFE,
  0x34, 0x1C, 0x26, 0x15, 0x1F, 0x28, 0xF9, 0x35, 0x2E, 0xFC,
  0xEA, 0xF2, 0xBB, 0xBC, 0xDC, 0xE0, 0x10, 0x0E, 0x0F, 0xFE,
  0xFA, 0xEC, 0x0E, 0x1E, 0xF0, 0xD1, 0x03, 0x03, 0xBD, 0xCE,
  0xDC, 0xFA, 0xDF, 0x12, 0x44, 0x3F, 0x3E, 0x23, 0x12, 0x07,
  0x08, 0xFD, 0xF1, 0xF4, 0x0F, 0x15, 0xF9, 0x04, 0xCC, 0xF0,
  0x0C, 0x22, 0x22, 0x19, 0x07, 0x0C, 0x03, 0xF8, 0x06, 0xF7,
  0x0A, 0x12, 0x09, 0x19, 0xC9, 0xD7, 0x17, 0x2B, 0x1A, 0x20,
  0x22, 0x0C, 0xFF, 0xF6, 0x07, 0x18, 0x0C, 0x0C, 0xFA, 0xE2,
  0xE1, 0xF5, 0x10, 0x32, 0x1E, 0x14, 0x10, 0x0C, 0x1D, 0x18,
  0x18, 0x14, 0xFA, 0xE5, 0xE8, 0xC9, 0xFD, 0x18, 0x25, 0x1D,
  0x0A, 0x02, 0xE1, 0xFC, 0xED, 0x03, 0xFC, 0xFE, 0xD9, 0xC3,
  0xDA, 0xDA, 0xFF, 0x09, 0x04, 0x02, 0xF9, 0xF1, 0xE1, 0xF1,
  0xDD, 0xEC, 0xE4, 0xD4, 0xE1, 0xD2, 0xE1, 0xE5, 0x04, 0x08,
  0x13, 0xF7, 0xF2, 0x0A, 0xFE, 0xF3, 0xEF, 0xE3, 0xDC, 0xD8,
  0xFE, 0x08, 0x06, 0xEE, 0x1F, 0x10, 0xF2, 0xF3, 0x05, 0x1F,
  0x07, 0xED, 0xEE, 0xE3, 0xE4, 0x03, 0x1C, 0x2E, 0x18, 0x17,
  0x1E, 0x20, 0xFD, 0xEB, 0xFB, 0xFE, 0x05, 0x0C, 0xF8, 0xF0,
  0xFE, 0x0A, 0x1E, 0x17, 0x04, 0xED, 0x06, 0x00, 0xE8, 0xDE,
  0xE5, 0x0E, 0xF4, 0xF9, 0x02, 0x04, 0xFF, 0x10, 0xFF, 0xEE,
  0xDD, 0xEE, 0xE4, 0xDB, 0xD9, 0xE9, 0xF1, 0x0E, 0x0B, 0x00,
  0x02, 0x0B, 0xFB, 0xF9, 0xEA, 0xE5, 0xE1, 0xEF, 0xF1, 0xDF,
  0xDE, 0x06, 0x0C, 0x1F, 0x18, 0x19, 0x00, 0x11, 0xF4, 0xEF,
  0xE8, 0xE3, 0xDB, 0x00, 0xC6, 0xD9, 0x0F, 0x24, 0x39, 0x16,
  0x24, 0x16, 0x0E, 0xF6, 0xFD, 0xFA, 0xE7, 0xE8, 0xFB, 0x0A,
  0xDF, 0xE9, 0x11, 0x24, 0x3B, 0x17, 0xFD, 0x0C, 0x0F, 0x13,
  0x00, 0x0A, 0xF1, 0x12, 0x13, 0x1A, 0xE2, 0xEE, 0xFC, 0x02,
  0x0F, 0xE5, 0xD7, 0x07, 0x19, 0x23, 0x01, 0x11, 0x28, 0x3C,
  0x31, 0x4A, 0xFC, 0xE9, 0xE0, 0xE3, 0xE5, 0xCF, 0xE4, 0x1F,
  0x13, 0x12, 0x0C, 0x20, 0x40, 0x53, 0x61, 0x7F, 0xDC, 0xE1,
  0xF0, 0xF8, 0xF6, 0xF6, 0x04, 0xED, 0xFA, 0xFE, 0xFD, 0x07,
  0x01, 0xFE, 0x0F, 0x20, 0xFB, 0x07, 0x05, 0x09, 0xFC, 0x05,
  0x0A, 0x06, 0x05, 0xFF, 0x10, 0x0C, 0x11, 0x11, 0x0D, 0x1D,
  0xF5, 0x12, 0x0C, 0x13, 0xF5, 0xF5, 0xEB, 0x11, 0x07, 0x08,
  0x04, 0xF6, 0xF1, 0xED, 0xEA, 0x01, 0xEA, 0xF8, 0x1D, 0x1B,
  0xF7, 0xE3, 0x05, 0x08, 0xFA, 0xEC, 0xEC, 0xCA, 0xCC, 0xBB,
  0xD0, 0xFD, 0xE3, 0xFB, 0x01, 0x00, 0xF5, 0xF6, 0xF2, 0xF8,
  0xE8, 0xE9, 0xF0, 0xB6, 0xB9, 0xC8, 0xE6, 0xF1, 0xEA, 0xF4,
  0x01, 0xEB, 0xE0, 0xE4, 0xEC, 0x0F, 0x0C, 0x29, 0x1B, 0xFB,
  0x06, 0x00, 0x0C, 0xF6, 0xF4, 0xEE, 0x00, 0xF4, 0xF8, 0x11,
  0x2C, 0x31, 0x38, 0x3C, 0x4C, 0x58, 0x45, 0x38, 0x44, 0x39,
  0xF4, 0xF6, 0x09, 0x18, 0x17, 0x3D, 0x30, 0x31, 0x39, 0x38,
  0x44, 0x59, 0x5E, 0x48, 0x55, 0x46, 0xFA, 0x00, 0x0D, 0x20,
  0x21, 0x1C, 0x2D, 0x21, 0x37, 0x19, 0x39, 0x48, 0x5F, 0x4D,
  0x2A, 0x2E, 0xFF, 0xFD, 0x0F, 0x00, 0x0A, 0x09, 0x0C, 0x0A,
  0xFB, 0xF9, 0x09, 0x0D, 0x29, 0x22, 0x0C, 0x1B, 0xF5, 0xF9,
  0x00, 0xFE, 0x02, 0xEA, 0xE3, 0xCF, 0xBE, 0xB4, 0xBD, 0x9F,
  0xC6, 0xE6, 0xE2, 0xE4, 0xFC, 0x02, 0x10, 0x05, 0xF1, 0xD0,
  0xCA, 0xB5, 0xB9, 0xA1, 0x88, 0x81, 0x87, 0xC2, 0xBC, 0xF0,
  0x0E, 0x0B, 0x03, 0x05, 0xE3, 0xDD, 0xE2, 0xD7, 0xC5, 0xC4,
  0xDA, 0xBA, 0xAE, 0xBC, 0xE7, 0xF5, 0x01, 0xFF, 0xFF, 0xF5,
  0x08, 0x0F, 0x07, 0x14, 0x11, 0x1C, 0x19, 0x06, 0xFF, 0xF3,
  0xF8, 0x04, 0xDC, 0xC5, 0xF0, 0xF6, 0x00, 0x0A, 0x1A, 0x2A,
  0x13, 0x0E, 0x17, 0x13, 0xED, 0xF5, 0xF4, 0xEE, 0xD7, 0xD2,
  0xE0, 0xE8, 0x01, 0x0E, 0x00, 0x16, 0x14, 0x13, 0x09, 0xFE,
  0xE7, 0xE2, 0xDD, 0xE2, 0xF6, 0xC9, 0xE3, 0xF5, 0x0E, 0x16,
  0x0C, 0x0A, 0xFB, 0xE5, 0xC7, 0xC2, 0xDC, 0x2B, 0x20, 0x50,
  0xE0, 0xBA, 0xDD, 0x14, 0x2B, 0x51, 0x28, 0x0E, 0xF4, 0xEA,
  0xBE, 0xBF, 0xC8, 0xFD, 0x16, 0x15, 0xE0, 0xE9, 0x09, 0x2D,
  0x44, 0x4F, 0x23, 0xF3, 0xEF, 0x18, 0xEE, 0xBA, 0x9A, 0xBB,
  0xC7, 0x0A, 0x1C, 0x1B, 0x1D, 0x1B, 0x2E, 0x3B, 0x19, 0x2D,
  0x28, 0x32, 0x14, 0xBE, 0xB3, 0x9F, 0xB1, 0xBF, 0x1F, 0x16,
  0x09, 0xE5, 0xF9, 0x08, 0x11, 0x2D, 0x1F, 0x19, 0x0A, 0xF5,
  0xFC, 0xE5, 0xC7, 0xD9, 0x0C, 0x12, 0xF9, 0xD2, 0xDA, 0xE8,
  0x11, 0x2D, 0x06, 0x20, 0x24, 0x3F, 0x36, 0x20, 0x02, 0xE6,
  0x1F, 0x18, 0x00, 0xE4, 0xDE, 0xF7, 0x2E, 0x0D, 0xFA, 0x10,
  0x47, 0x71, 0x7F, 0x35, 0x20, 0x03, 0x0F, 0x0E, 0xEE, 0xE3,
  0xD2, 0x00, 0x06, 0xFB, 0x07, 0x0C, 0x28, 0x61, 0x75, 0x42,
  0x39, 0x0D, 0x10, 0x12, 0xF4, 0xFD, 0xF3, 0xFB, 0xFC, 0x12,
  0xF3, 0xF3, 0xEB, 0x01, 0x12, 0x13, 0x34, 0x45, 0x19, 0x27,
  0x15, 0x0C, 0x13, 0xF2, 0xF7, 0x06, 0xE3, 0xDB, 0xAF, 0xB0,
  0xCF, 0xEE, 0x3C, 0x3F, 0x05, 0x21, 0x2C, 0xFF, 0xF9, 0x0B,
  0x09, 0xEA, 0xF2, 0xE3, 0xC6, 0xB5, 0xC5, 0x01, 0x29, 0x1C,
  0x00, 0x25, 0x2A, 0x17, 0x14, 0xEB, 0xD8, 0xDD, 0xF3, 0xD2,
  0xDB, 0x04, 0xD7, 0x08, 0x28, 0x19, 0x05, 0xF9, 0x10, 0xFB,
  0xF3, 0xD7, 0xBC, 0xE2, 0xE0, 0xF2, 0xF8, 0x16, 0x03, 0x04,
  0xF6, 0x04, 0x17, 0x02, 0x09, 0xEC, 0xFA, 0xF0, 0xD8, 0xFD,
  0x07, 0x11, 0x0B, 0x14, 0x00, 0xF9, 0xD0, 0xE2, 0xFE, 0x0E,
  0x0C, 0xFB, 0xFE, 0xF3, 0xFE, 0x11, 0x17, 0x2E, 0x25, 0xFD,
  0x00, 0xF5, 0xD1, 0xC9, 0xF0, 0x0D, 0x11, 0xEE, 0x22, 0x05,
  0x09, 0x1C, 0x0A, 0x29, 0x15, 0xFC, 0xEB, 0xE7, 0xC8, 0xB5,
  0xFF, 0x05, 0xFF, 0x18, 0x09, 0x0F, 0x02, 0x10, 0x17, 0x12,
  0x08, 0xF3, 0xFC, 0xEE, 0xEE, 0xE8, 0x06, 0x18, 0x10, 0x16,
  0x0A, 0x0D, 0x02, 0xFF, 0x09, 0x07, 0x03, 0x0D, 0x01, 0xF8,
  0xF5, 0xF7, 0xFB, 0xF5, 0x05, 0x0A, 0xFE, 0xF6, 0xF2, 0x07,
  0x02, 0x0D, 0x14, 0x10, 0x02, 0xE5, 0xED, 0xF1, 0xEE, 0xF9,
  0x04, 0x0A, 0x0A, 0xFF, 0x17, 0x1B, 0x1A, 0x07, 0xF8, 0xF4,
  0xF2, 0xE6, 0xEB, 0xE6, 0xE7, 0xEA, 0xD3, 0xEE, 0xEF, 0xF1,
  0x17, 0x21, 0x00, 0xF7, 0xF8, 0xDC, 0xDF, 0xE7, 0xEF, 0xF0,
  0xE0, 0xA5, 0x94, 0xAD, 0xB1, 0xC8, 0xD0, 0xD4, 0xDE, 0xCF,
  0xB8, 0xDE, 0xF8, 0xFE, 0x01, 0xF5, 0x01, 0xA8, 0x81, 0x95,
  0x93, 0x87, 0x9A, 0x95, 0xB4, 0xBA, 0xC4, 0xF3, 0x1C, 0xFF,
  0x09, 0x02, 0x25, 0xE2, 0xC1, 0xBB, 0xB3, 0xA2, 0xA6, 0xB6,
  0xC8, 0xE5, 0xF0, 0x12, 0x1F, 0xFC, 0x0E, 0x04, 0x32, 0x19,
  0x04, 0xF5, 0x0E, 0xFA, 0x0B, 0xF3, 0x06, 0x06, 0x11, 0x1D,
  0x18, 0x05, 0x0F, 0x13, 0x39, 0x27, 0x3A, 0x1C, 0x30, 0x25,
  0x36, 0x32, 0x29, 0x20, 0x13, 0x08, 0x03, 0xFC, 0x04, 0x14,
  0x24, 0x2F, 0x3D, 0x37, 0x3F, 0x34, 0x30, 0x34, 0x22, 0x16,
  0x1A, 0x07, 0x15, 0x06, 0xFF, 0x1E, 0x2C, 0x35, 0x36, 0x36,
  0x34, 0x30, 0x17, 0x1C, 0x15, 0x16, 0x12, 0x0D, 0x03, 0xEC,
  0xFB, 0x21, 0x57, 0x3F, 0x39, 0x37, 0x20, 0x13, 0x08, 0x0A,
  0x15, 0x0D, 0x12, 0x07, 0xFB, 0x13, 0x13, 0x0C, 0x4B, 0x2C,
  0x2D, 0x07, 0xF6, 0xFE, 0xFB, 0xFB, 0x0F, 0x24, 0x23, 0x12,
  0x17, 0x0B, 0x08, 0x0F, 0x08, 0xF2, 0xE6, 0xED, 0xE7, 0xE8,
  0xF4, 0xF8, 0x0C, 0x14, 0x0E, 0x02, 0x14, 0x04, 0xFD, 0xF9,
  0xFF, 0xE1, 0xDD, 0xF1, 0xE7, 0xEA, 0xD1, 0xE7, 0xE7, 0xF3,
  0xF5, 0xF5, 0x12, 0x02, 0x07, 0xEB, 0xD9, 0xFB, 0xDD, 0xD1,
  0x0B, 0x15, 0x1A, 0x0C, 0x1B, 0x14, 0x11, 0x3F, 0x47, 0x4E,
  0x31, 0xF6, 0xF6, 0xDA, 0xD0, 0xD7, 0xDF, 0xE7, 0xEF, 0xF3,
  0xF5, 0xFE, 0xFE, 0x0C, 0x22, 0x29, 0x44, 0x29, 0xEF, 0xC8,
  0xE6, 0xDB, 0xE3, 0xEB, 0xD7, 0xDE, 0xF9, 0x19, 0x0C, 0xFE,
  0xFA, 0xEC, 0x08, 0xFA, 0x0C, 0xE4, 0xCF, 0xEF, 0x0C, 0xFC,
  0x0B, 0x22, 0x22, 0x2B, 0xFC, 0xDA, 0xDA, 0xCB, 0xD2, 0xCA,
  0x10, 0xDB, 0x05, 0x0A, 0x2F, 0x32, 0x4E, 0x25, 0x1A, 0x18,
  0xF1, 0xCA, 0xD1, 0xCF, 0xCF, 0xAE, 0x19, 0xF3, 0xD5, 0x24,
  0x2F, 0x1F, 0x3E, 0x0E, 0x08, 0x07, 0x11, 0xFF, 0xFD, 0xD0,
  0xDF, 0xE4, 0xEC, 0xD3, 0xF0, 0x20, 0x41, 0x47, 0x46, 0x35,
  0x2F, 0x1B, 0x1A, 0x07, 0xFE, 0xDD, 0xE6, 0xF3, 0xAA, 0xDD,
  0xE0, 0x14, 0x2E, 0x61, 0x6E, 0x45, 0x49, 0x28, 0x18, 0xFD,
  0x11, 0x21, 0x32, 0x07, 0x9B, 0xC4, 0xB3, 0xF0, 0xEB, 0x0E,
  0x23, 0x1D, 0x37, 0x14, 0x29, 0x26, 0x08, 0x2E, 0x42, 0x28,
  0xB4, 0xA2, 0x88, 0xA2, 0x98, 0xA1, 0xC7, 0xD7, 0x00, 0xFA,
  0x01, 0x35, 0x25, 0x39, 0x3D, 0xF2, 0xD2, 0xC1, 0xB9, 0xB1,
  0x8F, 0xAF, 0xA0, 0xBB, 0xDA, 0x07, 0x07, 0x2F, 0x38, 0x32,
  0x03, 0xB2, 0x0B, 0xE4, 0xDF, 0xC0, 0xCC, 0xCF, 0xB5, 0xC2,
  0xFC, 0x1D, 0x13, 0x1F, 0x27, 0x2F, 0xE8, 0xA7, 0x27, 0x11,
  0xF2, 0xD8, 0xC2, 0xE0, 0xE2, 0xE9, 0x01, 0x0E, 0x24, 0xF3,
  0x29, 0xFA, 0xC7, 0x97, 0x19, 0x07, 0xF4, 0xEF, 0xF6, 0x0F,
  0x1F, 0x1D, 0x00, 0xFB, 0xF6, 0xF3, 0xF1, 0xDB, 0xB5, 0x81,
  0x02, 0xF7, 0x12, 0x10, 0x03, 0x36, 0x44, 0x27, 0xFF, 0x03,
  0xF7, 0xDD, 0xCC, 0xD3, 0xC3, 0xB2, 0x2B, 0x49, 0x3D, 0x42,
  0x1A, 0x35, 0x3C, 0x35, 0x01, 0xF3, 0xDF, 0xBE, 0xB9, 0xE3,
  0xC2, 0xCE, 0xEB, 0xE7, 0xFF, 0x12, 0x1B, 0x11, 0x1C, 0x1E,
  0xE2, 0xF7, 0xE8, 0x1C, 0x27, 0x19, 0xF3, 0x0A, 0xD3, 0xE0,
  0xCD, 0xEA, 0xFA, 0xFB, 0xF9, 0xE6, 0xED, 0xF0, 0xFA, 0x35,
  0x19, 0x0A, 0x01, 0xDF, 0x26, 0x3F, 0x22, 0x1A, 0xFA, 0xF3,
  0xC2, 0xFB, 0xEC, 0xFE, 0xF1, 0x04, 0x33, 0x2A, 0x00, 0xEE,
  0x4D, 0x4F, 0x30, 0x16, 0xEB, 0xF2, 0xF0, 0x18, 0x0D, 0xEF,
  0xFA, 0x1E, 0x23, 0x31, 0x23, 0xE7, 0x43, 0x17, 0x17, 0x1D,
  0x0D, 0x0B, 0xF4, 0x0F, 0xE9, 0xD3, 0xEE, 0x36, 0x59, 0x63,
  0x3B, 0xD7, 0x4C, 0x1B, 0x28, 0x0F, 0x06, 0xE5, 0xF2, 0xDB,
  0xCB, 0xD0, 0xE5, 0x45, 0x68, 0x6F, 0x21, 0xD4, 0x27, 0x0E,
  0x06, 0xE4, 0xDB, 0xE3, 0xE7, 0xE7, 0xF8, 0xF6, 0x3E, 0x53,
  0x63, 0x3C, 0x09, 0xBD, 0xE2, 0xE1, 0xD5, 0xB4, 0xCD, 0x10,
  0x3E, 0x26, 0x2C, 0x28, 0x34, 0x61, 0x3D, 0x07, 0xD3, 0xA1,
  0xB6, 0x9A, 0xBB, 0xB6, 0x04, 0x2F, 0x3B, 0x42, 0x30, 0x22,
  0x25, 0x2A, 0x1D, 0xD6, 0x81, 0xA5, 0xCC, 0xAB, 0x9A, 0xAC,
  0x02, 0x33, 0x2D, 0x26, 0x36, 0x10, 0x01, 0x08, 0xC6, 0x87,
  0x82, 0x89, 0xF8, 0xB0, 0xA1, 0xE7, 0x27, 0x4E, 0x38, 0x33,
  0x11, 0xEA, 0xE9, 0xD5, 0xB8, 0x9C, 0xCA, 0xBB, 0xFB, 0xAE,
  0xA7, 0xDC, 0x0B, 0x30, 0x39, 0x28, 0x06, 0xF8, 0x04, 0xDA,
  0xE3, 0xD5, 0xE8, 0xCB, 0xC6, 0xBF, 0xB2, 0xCF, 0x0F, 0x28,
  0x27, 0x20, 0xFC, 0xF7, 0x11, 0x06, 0xDE, 0xCD, 0xE1, 0xE6,
  0xCF, 0xC1, 0x98, 0xD6, 0xF7, 0x31, 0x01, 0xD7, 0xD8, 0xE9,
  0x1A, 0x0C, 0xEC, 0xE6, 0xBB, 0xC0, 0xCF, 0xD3, 0xDC, 0xE7,
  0x1A, 0x52, 0x24, 0xF1, 0xE6, 0x07, 0x2F, 0x36, 0x1B, 0xEF,
  0xCD, 0x91, 0xFA, 0xE3, 0xF8, 0xBD, 0xEE, 0x1E, 0x3F, 0xF2,
  0x03, 0x35, 0x34, 0x33, 0x37, 0x21, 0xF9, 0xBC, 0x55, 0x1A,
  0xEB, 0xE0, 0x13, 0x3A, 0x20, 0x1A, 0x20, 0x2C, 0x1D, 0x4A,
  0x46, 0x2F, 0xD5, 0x81, 0x21, 0x0F, 0xF0, 0xCA, 0xFD, 0x0D,
  0xFD, 0x28, 0x4C, 0x34, 0x34, 0x4B, 0x59, 0x4D, 0x31, 0xCC,
  0x05, 0xE8, 0xB8, 0xA5, 0xD8, 0xE8, 0xD9, 0x16, 0x0B, 0x07,
  0x16, 0x49, 0x66, 0x7A, 0x47, 0x00, 0xD6, 0xC6, 0xCD, 0xCB,
  0x06, 0xF6, 0xF3, 0xEA, 0xD3, 0xBD, 0xD6, 0x0F, 0x39, 0x71,
  0x4B, 0x49, 0xF6, 0xEB, 0xE8, 0x01, 0xFF, 0xEB, 0xEF, 0xEE,
  0xDC, 0xD3, 0xB3, 0xCA, 0xF7, 0x0A, 0x3A, 0x46, 0x1C, 0xF6,
  0x00, 0xDB, 0xBB, 0xAD, 0xB0, 0x9E, 0xB4, 0xCB, 0xA9, 0xB5,
  0xBE, 0xFC, 0x08, 0x49, 0x31, 0x25, 0xFD, 0xCB, 0x9E, 0xB3,
  0xBC, 0xCA, 0xD6, 0xE5, 0xC9, 0xE3, 0xD4, 0x16, 0x4C, 0x2E,
  0x2B, 0x20, 0xE7, 0xD9, 0xD8, 0xF8, 0x17, 0xFF, 0xF1, 0xDD,
  0xDC, 0xD0, 0xD8, 0x2D, 0x5E, 0x35, 0x42, 0x17, 0xFD, 0xE3,
  0x05, 0xE9, 0x04, 0x0B, 0xFA, 0xE6, 0xD7, 0xCE, 0xE6, 0xFE,
  0x3E, 0x3D, 0x52, 0xFD, 0x06, 0x18, 0x17, 0xE0, 0x0C, 0x19,
  0x08, 0xF3, 0x06, 0x1B, 0x13, 0x13, 0x17, 0x30, 0x3B, 0xF8,
  0xF9, 0x16, 0x48, 0x27, 0x25, 0x1A, 0x19, 0x23, 0x47, 0x35,
  0x32, 0x4B, 0x3A, 0x3C, 0x2E, 0x06, 0xF4, 0x1A, 0x2F, 0x3E,
  0x3B, 0x4F, 0x48, 0x54, 0x39, 0x4F, 0x21, 0x40, 0x16, 0x31,
  0x55, 0x2C, 0x33, 0x3F, 0x1A, 0x1D, 0x1A, 0x3F, 0x57, 0x3A,
  0x40, 0x37, 0x29, 0xF9, 0xD7, 0x04, 0x32, 0x32, 0x1F, 0xE8,
  0xDD, 0xD0, 0xD1, 0xF2, 0x2F, 0x1E, 0xED, 0xFB, 0xE5, 0xD9,
  0xEB, 0xF0, 0x5E, 0x48, 0xFA, 0xC2, 0xB7, 0xA8, 0xAA, 0xD8,
  0xC0, 0xC4, 0xD1, 0xCE, 0xD3, 0xE7, 0x00, 0x0E, 0x4F, 0x2D,
  0xEE, 0xC1, 0xBF, 0xB3, 0xBC, 0xA5, 0xA2, 0xBF, 0xD2, 0xBF,
  0xC1, 0xFA, 0xD7, 0xFF, 0xFA, 0x26, 0x3F, 0x43, 0x35, 0x42,
  0x29, 0x38, 0x51, 0x59, 0x3A, 0x17, 0x26, 0x09, 0x2C, 0x2E,
  0xE0, 0xE0, 0x02, 0xEF, 0x24, 0x12, 0xFE, 0x28, 0x43, 0x4E,
  0x34, 0x46, 0x4A, 0x1E, 0x08, 0x28, 0xE3, 0xDE, 0xC6, 0xEA,
  0xD8, 0xEF, 0x10, 0x13, 0x51, 0x5C, 0x79, 0x4D, 0x44, 0x2D,
  0x18, 0xE2, 0x02, 0xDF, 0xCE, 0xF1, 0xD8, 0xDC, 0xE6, 0x32,
  0x48, 0x5B, 0x62, 0x66, 0x69, 0x2C, 0x1B, 0xF1, 0xEE, 0xFF,
  0xE8, 0xCE, 0xB6, 0xBC, 0xEF, 0xE8, 0xE8, 0x00, 0x0C, 0x33,
  0x24, 0x42, 0x21, 0xF9, 0xFD, 0xFD, 0xDF, 0xDF, 0xE7, 0x08,
  0xDB, 0xED, 0xE5, 0xD0, 0xEA, 0x11, 0x34, 0x33, 0x0C, 0xFD,
  0xCB, 0xD5, 0xD8, 0x1D, 0x17, 0x1B, 0x11, 0xB6, 0x81, 0xA5,
  0xBE, 0xDC, 0x25, 0x3E, 0x15, 0x05, 0x0F, 0x18, 0xF4, 0x00,
  0x33, 0x2B, 0xDC, 0x8F, 0xA7, 0xA9, 0xD0, 0xF7, 0x43, 0x16,
  0x27, 0x41, 0x49, 0x46, 0x0F, 0x0D, 0x41, 0x10, 0xE7, 0xCF,
  0xB6, 0xCC, 0xC7, 0xD9, 0x05, 0xEC, 0x24, 0x38, 0x4C, 0x1B,
  0x2F, 0x25, 0x15, 0xEA, 0xD1, 0xC4, 0xE4, 0xE3, 0xB5, 0xB6,
  0xE0, 0xFD, 0xDE, 0x34, 0x40, 0x3D, 0x3F, 0x35, 0x07, 0xC6,
  0xAC, 0xEA, 0xD4, 0xED, 0xDE, 0xBA, 0xCB, 0xF4, 0xF2, 0x19,
  0x1A, 0x25, 0x56, 0x25, 0xD6, 0xA0, 0xA0, 0xE8, 0x05, 0x01,
  0xE3, 0xBA, 0x90, 0xF1, 0xFC, 0xE2, 0x64, 0x53, 0x77, 0x52,
  0x18, 0xBB, 0xBB, 0xEC, 0xFF, 0x04, 0xBA, 0xBC, 0xC0, 0xDA,
  0xAB, 0xA6, 0x58, 0x53, 0x62, 0x69, 0x2E, 0xF3, 0xE3, 0xFC,
  0xEC, 0xEF, 0xF3, 0xDC, 0xD6, 0xE8, 0xB6, 0x9F, 0x4B, 0x49,
  0x3C, 0x66, 0x4C, 0x30, 0x23, 0x1B, 0xFA, 0xEA, 0xF0, 0xEE,
  0xE8, 0x17, 0xF7, 0x02, 0x27, 0x14, 0x06, 0x22, 0x56, 0x71,
  0x51, 0x38, 0x2A, 0xFD, 0xFE, 0x14, 0xF0, 0x1B, 0x00, 0x33,
  0xE0, 0x0F, 0x2C, 0x4F, 0x34, 0x03, 0xFC, 0xF6, 0xCE, 0xD8,
  0xE6, 0xCF, 0xBB, 0xF2, 0xF7, 0x1D, 0x2C, 0x2B, 0x5B, 0x63,
  0x3B, 0xDF, 0xC9, 0xF4, 0xE9, 0x10, 0xFD, 0xEA, 0xC9, 0xF6,
  0x0A, 0x09, 0x56, 0x31, 0x30, 0x24, 0xE5, 0x93, 0xA5, 0xD8,
  0xE5, 0x2C, 0x36, 0xFB, 0xD3, 0xFA, 0xF6, 0xF0, 0x4F, 0xFB,
  0xBD, 0xA2, 0x9E, 0xA0, 0xA9, 0xF0, 0x22, 0x2D, 0x29, 0xFE,
  0xE5, 0xE4, 0xE1, 0xF9, 0xD8, 0xA9, 0x9A, 0x81, 0xF3, 0x16,
  0x3E, 0x61, 0x4B, 0x35, 0x1B, 0xEA, 0xD3, 0xE9, 0xEF, 0xF1,
  0x97, 0x9B, 0xB2, 0xE4, 0x51, 0x7A, 0x7D, 0x63, 0x34, 0x17,
  0xE5, 0xDB, 0xE9, 0xD8, 0x02, 0x08, 0xAE, 0xC3, 0x03, 0x3E,
  0x62, 0x65, 0x3D, 0x2E, 0x07, 0xD8, 0x01, 0xEA, 0x12, 0xD9,
  0xE0, 0xF2, 0xE1, 0x26, 0x43, 0x61, 0x4F, 0x39, 0x05, 0x13,
  0xDC, 0xCA, 0x0C, 0x0A, 0x00, 0xD2, 0xC5, 0xC3, 0xE2, 0x25,
  0x4A, 0x3C, 0x1A, 0x11, 0xF9, 0xFF, 0xE2, 0xD3, 0x1E, 0x21,
  0xF5, 0xDE, 0xAC, 0xE6, 0x1C, 0x2B, 0x24, 0x0D, 0x0F, 0xFC,
  0xF1, 0xFD, 0xFC, 0x24, 0x3B, 0xFB, 0xFF, 0xD6, 0x9B, 0xE2,
  0x3D, 0x1D, 0xF9, 0xE0, 0xF8, 0x06, 0x08, 0xFC, 0xDF, 0xFE,
  0x0F, 0xE2, 0x0F, 0xF2, 0xCF, 0x1A, 0x17, 0x0D, 0xEC, 0xB9,
  0xEC, 0xE6, 0xEE, 0xDE, 0xC2, 0xEA, 0xE9, 0x0D, 0x4D, 0x42,
  0x3D, 0x34, 0x2B, 0x00, 0xD4, 0xF1, 0xF1, 0xE6, 0xF0, 0xD0,
  0xBF, 0xBE, 0xE1, 0x13, 0x63, 0x70, 0x5C, 0x32, 0x04, 0xFE,
  0xED, 0x0A, 0x10, 0xFE, 0xF2, 0xE9, 0xCB, 0xCE, 0xED, 0x0B,
  0x2C, 0x49, 0x3B, 0x37, 0xF2, 0xE9, 0x04, 0x16, 0x02, 0xFC,
  0x0D, 0xED, 0xD4, 0xDC, 0x0D, 0x04, 0xF7, 0x02, 0x2D, 0x48,
  0xD3, 0xD9, 0xCD, 0xE7, 0xE2, 0x2B, 0x44, 0xE8, 0xFB, 0xFF,
  0xF6, 0xEC, 0xE0, 0xDA, 0xFD, 0x10, 0x0B, 0xFD, 0xF8, 0x15,
  0x12, 0x10, 0xF6, 0xFA, 0xE8, 0xFA, 0xF4, 0xFF, 0x18, 0x1B,
  0x0F, 0xF2, 0xFC, 0xEF, 0xE3, 0x00, 0x05, 0x1C, 0x03, 0xF9,
  0xEC, 0xC7, 0xD0, 0xFF, 0x1B, 0x0F, 0x0E, 0x06, 0xF4, 0xDE,
  0xE7, 0xF3, 0x06, 0x23, 0x2E, 0x0E, 0xE4, 0xC4, 0xCA, 0xD0,
  0xE6, 0xF3, 0x05, 0xF5, 0xFB, 0xE7, 0xED, 0x0E, 0x19, 0x3D,
  0x47, 0x20, 0x01, 0xC2, 0xC4, 0x9F, 0xD7, 0xE9, 0xED, 0xE6,
  0x1B, 0x1C, 0x02, 0x17, 0x01, 0x11, 0x35, 0x37, 0x24, 0xF1,
  0xC7, 0xB4, 0xD5, 0xD3, 0xE9, 0xEF, 0x1D, 0x18, 0x0C, 0x08,
  0x01, 0xFB, 0x19, 0x31, 0x2E, 0x04, 0xE2, 0xCA, 0xCE, 0xC6,
  0xEB, 0x03, 0x06, 0x03, 0x0D, 0xFD, 0xF9, 0x03, 0x0A, 0x05,
  0x21, 0x10, 0x11, 0x0B, 0xF3, 0xE0, 0xD7, 0xDB, 0x03, 0x09,
  0x0D, 0x05, 0x05, 0x09, 0x0D, 0x0C, 0x2B, 0x3B, 0x34, 0x27,
  0x1C, 0xEF, 0xDB, 0xC7, 0x17, 0x1A, 0x25, 0x25, 0x0E, 0xFE,
  0x18, 0x0F, 0x29, 0x47, 0x4F, 0x2B, 0x27, 0x01, 0xE4, 0xDA,
  0xF4, 0x0E, 0x25, 0x27, 0x1B, 0x1E, 0x29, 0x06, 0x18, 0x34,
  0x28, 0x26, 0x12, 0x22, 0xE8, 0xDC, 0xCF, 0xFF, 0x0F, 0x11,
  0x11, 0x28, 0x1A, 0x08, 0x0D, 0x11, 0x10, 0xF5, 0x04, 0x16,
  0xF5, 0xE9, 0xCB, 0xF0, 0x1B, 0x1E, 0x24, 0x2E, 0x11, 0x0F,
  0x0E, 0x00, 0xEF, 0xFD, 0x08, 0x16, 0x25, 0xFB, 0x81, 0xC3,
  0xF5, 0x07, 0x0F, 0x1E, 0x0E, 0xF8, 0x13, 0x0B, 0xF3, 0x03,
  0xFB, 0x18, 0x04, 0xED, 0x9C, 0xAA, 0xB4, 0xB6, 0xE3, 0xE5,
  0xDA, 0xDC, 0xF5, 0xF9, 0xF2, 0x14, 0xF3, 0x0B, 0xFE, 0xDE,
  0xC1, 0xB2, 0xB5, 0xC3, 0xCA, 0xE0, 0xC4, 0xD3, 0xDA, 0xF5,
  0xF7, 0xFC, 0x07, 0x02, 0xF4, 0xFA, 0xE3, 0xED, 0xD9, 0xC6,
  0xDF, 0xE4, 0xEB, 0xDC, 0xE8, 0xF0, 0xE9, 0x0B, 0x22, 0x22,
  0x10, 0x12, 0x81, 0xC7, 0xA8, 0xBD, 0xA3, 0xC4, 0xF8, 0xFB,
  0x10, 0xFA, 0xE0, 0xF2, 0xDD, 0xEE, 0x0B, 0x17, 0xC5, 0x07,
  0x23, 0xF7, 0xEB, 0xF8, 0x19, 0xEF, 0xF3, 0x03, 0xD5, 0x07,
  0x22, 0x1D, 0x22, 0x37, 0x28, 0x47, 0x41, 0x07, 0x12, 0x07,
  0x0E, 0xF3, 0xE1, 0xEE, 0xF8, 0x00, 0x0B, 0x12, 0x4C, 0x50,
  0x26, 0x32, 0x33, 0xF9, 0x11, 0xE8, 0xD8, 0xE9, 0xF0, 0xD1,
  0xDF, 0xD6, 0xE5, 0x1B, 0x59, 0x77, 0xE8, 0x0B, 0xFC, 0xEE,
  0x2E, 0x07, 0xFF, 0xFB, 0x07, 0xE4, 0xC7, 0xD2, 0xFD, 0x18,
  0x4E, 0x6B, 0xD9, 0x00, 0x13, 0x05, 0x20, 0xEE, 0xFA, 0xF2,
  0xDB, 0xD6, 0xCF, 0xFC, 0x0F, 0x32, 0x2C, 0x51, 0xDD, 0xEC,
  0x19, 0x29, 0x22, 0xD8, 0xF4, 0xEA, 0xDB, 0xEC, 0x1A, 0xF8,
  0x16, 0x3F, 0x26, 0x15, 0xC2, 0xF6, 0x24, 0x0C, 0x2D, 0xD6,
  0x0A, 0x00, 0x12, 0x21, 0x33, 0x13, 0x12, 0x1B, 0x05, 0x1A,
  0xBF, 0xCC, 0xCF, 0xEB, 0x10, 0xF0, 0x15, 0x30, 0x3C, 0x58,
  0x36, 0x13, 0xFF, 0x07, 0x02, 0x14, 0x29, 0x26, 0x1C, 0x04,
  0x10, 0x25, 0x2C, 0x55, 0x4E, 0x3B, 0x22, 0xE4, 0xF3, 0xF7,
  0x0F, 0x20, 0x3F, 0x1B, 0x08, 0xF5, 0x0F, 0x28, 0x2F, 0x3E,
  0x37, 0x27, 0x18, 0xE4, 0xF1, 0xF0, 0x09, 0x0F, 0x19, 0xF8,
  0xAD, 0xB7, 0xD1, 0xFC, 0x21, 0x1A, 0xEF, 0x12, 0xFC, 0xD5,
  0xF7, 0xD8, 0x13, 0x03, 0x3D, 0x1B, 0xF9, 0xCE, 0xBF, 0xF9,
  0xDE, 0xDC, 0xC9, 0xC8, 0xF8, 0xFB, 0xF9, 0xFB, 0xFF, 0x0C,
  0x36, 0x6A, 0x34, 0xEF, 0xF0, 0xE4, 0xEC, 0xDA, 0xAE, 0xA5,
  0xB6, 0xF4, 0x0F, 0xF1, 0xB9, 0xFA, 0x1D, 0x3F, 0x40, 0x00,
  0x04, 0xD1, 0x06, 0xFA, 0xD1, 0xBE, 0xE2, 0x1A, 0x10, 0xE2,
  0xDC, 0xB7, 0x08, 0x2A, 0x11, 0xE4, 0xE8, 0x01, 0x13, 0xEF,
  0xDF, 0xE9, 0x00, 0x21, 0x15, 0xF8, 0xF5, 0xB7, 0x01, 0xDF,
  0xDF, 0xF7, 0xF3, 0xEC, 0x09, 0x2F, 0x18, 0x12, 0xFF, 0xDB,
  0xDB, 0xC4, 0xCC, 0xE5, 0xE6, 0xF2, 0xEB, 0xE9, 0xF1, 0x20,
  0x23, 0x31, 0x3B, 0x45, 0x21, 0x14, 0x1D, 0x0F, 0x0C, 0x08,
  0xEA, 0xD6, 0xEB, 0xF8, 0xF9, 0x15, 0x2D, 0x25, 0x21, 0x2D,
  0x28, 0x34, 0x34, 0x2D, 0x12, 0x15, 0xD9, 0xD4, 0xF0, 0xF5,
  0x29, 0x31, 0x2F, 0x24, 0x0E, 0x2E, 0x30, 0x2B, 0x1A, 0x0B,
  0x00, 0xF0, 0x07, 0xE9, 0xE6, 0xE9, 0x28, 0x05, 0xF4, 0xFA,
  0xDF, 0xE9, 0xFC, 0xF4, 0xF6, 0xF2, 0x0D, 0x0E, 0x34, 0xFE,
  0xE3, 0xEE, 0xED, 0xB7, 0xAA, 0xA2, 0x9D, 0x95, 0xB4, 0xD4,
  0xFB, 0x10, 0xFF, 0xF5, 0x3D, 0x05, 0xFD, 0xF8, 0xE3, 0xCA,
  0xA2, 0x85, 0x81, 0xA3, 0xC9, 0xD2, 0xF7, 0xFD, 0xFF, 0x04,
  0x20, 0x1C, 0x12, 0x07, 0x1E, 0x14, 0xF3, 0xD7, 0xD1, 0xD2,
  0xE4, 0xEE, 0x0A, 0x1B, 0x1B, 0x05, 0xF6, 0x0C, 0x1C, 0x25,
  0x2A, 0x35, 0x4A, 0x3C, 0x29, 0x17, 0x20, 0x1B, 0x14, 0x0F,
  0x01, 0x25, 0x02, 0x19, 0x34, 0x48, 0x4F, 0x5F, 0x77, 0x7A,
  0x56, 0x44, 0x49, 0x1F, 0x06, 0x04, 0xF3, 0x01, 0xF1, 0xED,
  0x1A, 0x27, 0x33, 0x2D, 0x42, 0x47, 0x3C, 0x30, 0x14, 0xF5,
  0x09, 0xF9, 0xD6, 0xF2, 0xDE, 0xD5, 0xCA, 0xC1, 0xD8, 0xEE,
  0xE4, 0xF8, 0x18, 0x10, 0xF1, 0xE4, 0xE5, 0xF3, 0x00, 0x12,
  0xF6, 0xC4, 0x94, 0xA6, 0xB5, 0xBB, 0xBD, 0xCC, 0xDC, 0xEE,
  0xEA, 0xDD, 0xFA, 0xEE, 0xF0, 0xFD, 0xF7, 0xCA, 0xCE, 0xDE,
  0xD5, 0xC2, 0xC3, 0xC8, 0xD1, 0xDA, 0xD6, 0xE1, 0xF9, 0xD8,
  0xF4, 0xE4, 0xF5, 0x03, 0x10, 0x35, 0x0F, 0x0C, 0x0A, 0x01,
  0xFB, 0xEC, 0xEA, 0xED, 0x04, 0x07, 0xFB, 0x08, 0x1C, 0x01,
  0x25, 0x38, 0x07, 0x06, 0x0D, 0x0A, 0xE7, 0x03, 0xFD, 0x03,
  0x05, 0x24, 0x25, 0x30, 0x4B, 0x3F, 0xDF, 0xEE, 0xBA, 0xC9,
  0x9D, 0x9C, 0xCA, 0xC3, 0xCE, 0x29, 0x61, 0x35, 0xD6, 0xCF,
  0x7F, 0x34, 0x06, 0xAD, 0xE0, 0xD9, 0xE5, 0xFA, 0xE1, 0xDD,
  0xD9, 0x2D, 0x4E, 0x1C, 0x07, 0x07, 0x7C, 0x2B, 0xCD, 0xA3,
  0xD7, 0xFA, 0x18, 0x19, 0xF8, 0xC1, 0xE0, 0x44, 0x43, 0x11,
  0x2F, 0x50, 0x52, 0x0E, 0xC2, 0x8F, 0x19, 0x47, 0x26, 0xF9,
  0xB1, 0xB7, 0x0F, 0x51, 0x21, 0x19, 0x2B, 0x5A, 0x5F, 0x27,
  0xCC, 0xD6, 0x15, 0x34, 0x0C, 0xC2, 0xB0, 0x01, 0xFC, 0x12,
  0x3B, 0x61, 0x48, 0x33, 0x60, 0x1E, 0xF2, 0xDC, 0xE1, 0xDF,
  0xEE, 0xD9, 0xCC, 0xFA, 0x05, 0x18, 0x26, 0x44, 0x0E, 0x05,
  0x5C, 0x45, 0x17, 0xFD, 0xDD, 0xD1, 0xD0, 0xFC, 0x09, 0x34,
  0x29, 0x15, 0x32, 0x14, 0xF8, 0xF6, 0x5C, 0x4E, 0x3F, 0x20,
  0xFE, 0xEC, 0x1A, 0xFF, 0x12, 0x3C, 0x52, 0x1A, 0x2F, 0xE9,
  0xCF, 0xCD, 0x5B, 0x5C, 0x03, 0x31, 0xE3, 0xE6, 0xDE, 0xFE,
  0x00, 0x2A, 0x0F, 0x06, 0x1C, 0xE0, 0xB4, 0xD7, 0x61, 0x31,
  0x2D, 0x12, 0x13, 0xEE, 0xC7, 0x09, 0x0C, 0x26, 0x2F, 0x00,
  0xE5, 0xBB, 0xC5, 0x01, 0x12, 0xF7, 0xE9, 0x13, 0x2A, 0x24,
  0x11, 0x24, 0x0C, 0x44, 0x10, 0xE2, 0xC2, 0xDD, 0x0E, 0xF6,
  0xE1, 0xD3, 0x18, 0x12, 0x0D, 0x10, 0x12, 0x14, 0x09, 0x0C,
  0xF8, 0xD7, 0x1F, 0x27, 0x46, 0x10, 0xD7, 0xE5, 0x0D, 0xED,
  0xD8, 0xE6, 0x20, 0x35, 0x24, 0x0E, 0x11, 0xF9, 0xFC, 0x20,
  0x06, 0xF8, 0xE8, 0xFA, 0xED, 0x08, 0xF5, 0x0C, 0x2C, 0x13,
  0x39, 0xFC, 0x11, 0xD1, 0x14, 0xFF, 0xD4, 0xE9, 0x13, 0x16,
  0xF7, 0xDE, 0xF6, 0x07, 0x1A, 0x17, 0x23, 0x0B, 0xDD, 0xE3,
  0xEF, 0xF5, 0xDA, 0xCE, 0x2F, 0x12, 0xF8, 0xE6, 0xEE, 0xF9,
  0x15, 0xF2, 0x17, 0x05, 0x20, 0xFD, 0x0A, 0xEF, 0xF3, 0xE8,
  0x16, 0x03, 0x1C, 0x23, 0x39, 0x1A, 0x0C, 0xE7, 0xF8, 0xD3,
  0xEA, 0xD2, 0xDC, 0xE1, 0xE6, 0xE9, 0x1C, 0xEE, 0xFD, 0x0B,
  0x02, 0xD0, 0xE2, 0xBE, 0xB2, 0xD2, 0xCD, 0xD5, 0xEE, 0x05,
  0x02, 0xEE, 0xFD, 0xE3, 0xF3, 0xD5, 0xA6, 0xAB, 0xC8, 0x99,
  0xC8, 0xE5, 0x0D, 0xF9, 0x1E, 0x16, 0xFE, 0xF0, 0xF8, 0xE5,
  0xD6, 0xA5, 0x81, 0xE0, 0x06, 0xFE, 0xE9, 0x1B, 0x26, 0x2A,
  0x2B, 0x20, 0x23, 0xFC, 0xF8, 0xDD, 0xD1, 0xA3, 0xBC, 0x09,
  0x2E, 0x1D, 0x37, 0x48, 0x32, 0x2E, 0x22, 0x19, 0x0F, 0xFE,
  0x18, 0xF4, 0xCD, 0xDB, 0x1A, 0x40, 0x24, 0x2C, 0x35, 0x3C,
  0x2C, 0x0D, 0x11, 0xFA, 0xF8, 0x18, 0x32, 0x1D, 0xF9, 0x01,
  0x37, 0x72, 0x41, 0x2A, 0x04, 0x0A, 0x03, 0xDC, 0xE5, 0xE0,
  0xE4, 0x06, 0x58, 0x12, 0xF0, 0x0C, 0x41, 0x60, 0x22, 0xDB,
  0xEE, 0xC6, 0xCD, 0xC6, 0xBB, 0xCB, 0xF3, 0xF6, 0x2D, 0x0B,
  0xD3, 0x09, 0x37, 0x34, 0x00, 0xC4, 0xD9, 0xAF, 0xCE, 0xDF,
  0xBE, 0x07, 0x0F, 0x20, 0xFC, 0xBD, 0xBD, 0x22, 0x30, 0x24,
  0x11, 0xBE, 0xC0, 0xCD, 0xC4, 0xE9, 0xE4, 0x0B, 0x0D, 0x18,
  0xF0, 0xB5, 0xD7, 0x16, 0x4B, 0x5B, 0x0F, 0xF2, 0xD8, 0xCA,
  0xD2, 0xE5, 0xE3, 0xFB, 0x19, 0x08, 0xFD, 0xDF, 0xCC, 0x04,
  0x4F, 0x6B, 0x3C, 0x30, 0x1D, 0x27, 0x1F, 0x35, 0x17, 0x3D,
  0x33, 0x0C, 0xEC, 0xC3, 0xB7, 0x00, 0x51, 0x7A, 0x5F, 0x5F,
  0x66, 0x6D, 0x54, 0x4B, 0x4D, 0x3D, 0x28, 0xE5, 0xE1, 0xA8,
  0xBF, 0xE4, 0x02, 0x04, 0x46, 0x27, 0x3D, 0x3B, 0x35, 0x3F,
  0x4A, 0x20, 0xFE, 0xDB, 0xF8, 0xE8, 0xDB, 0xD0, 0xCF, 0xEA,
  0x12, 0xF1, 0x0A, 0xFC, 0x01, 0x16, 0xFE, 0xDC, 0xE0, 0xEC,
  0xFA, 0xF6, 0xBE, 0xD5, 0xFF, 0x13, 0x07, 0xEF, 0xDC, 0xC2,
  0xF4, 0xEF, 0xD1, 0x9A, 0xAC, 0xE4, 0xE4, 0xFA, 0xFB, 0xEA,
  0x02, 0xEF, 0xE8, 0xDE, 0xF0, 0x04, 0xE1, 0xCF, 0xE2, 0xE0,
  0xDB, 0x04, 0xFD, 0xF1, 0xEB, 0xFD, 0xF1, 0xD8, 0xF3, 0xDF,
  0xFE, 0x1E, 0xFC, 0xE0, 0xD6, 0xF2, 0xEE, 0x0B, 0xE7, 0xD6,
  0xDD, 0xF3, 0xFE, 0x02, 0x14, 0xE7, 0xEE, 0x03, 0x04, 0xD5,
  0xDA, 0xF0, 0x0D, 0x1B, 0xFB, 0xE0, 0xDE, 0xF0, 0xF7, 0x09,
  0xF6, 0x0A, 0xF2, 0xEC, 0xF1, 0xFA, 0xEF, 0x13, 0x2D, 0x27,
  0x16, 0x01, 0xEA, 0xFC, 0xF7, 0x0A, 0xD7, 0xEC, 0xDA, 0x03,
  0xE9, 0xF0, 0x01, 0x13, 0x10, 0x2A, 0x04, 0xF3, 0xBE, 0x10,
  0x13, 0x28, 0xE2, 0xF8, 0xF3, 0xF4, 0x02, 0x03, 0xFA, 0xEF,
  0x16, 0x1F, 0xE2, 0xB2, 0xDC, 0x10, 0x15, 0x1B, 0xF8, 0xFC,
  0xEF, 0x04, 0x1A, 0x08, 0xE2, 0x02, 0x10, 0xED, 0xE8, 0xB7,
  0xBF, 0x01, 0x11, 0x2F, 0x20, 0x04, 0x03, 0x00, 0x23, 0x08,
  0xF4, 0xDD, 0xDB, 0xDF, 0xD6, 0xD2, 0xF9, 0x17, 0x02, 0x21,
  0x0E, 0xFD, 0xFD, 0x0F, 0x16, 0x15, 0xFC, 0xE9, 0xD4, 0xF1,
  0xE7, 0xD8, 0x09, 0x34, 0x12, 0xFD, 0x09, 0xF2, 0xF9, 0x05,
  0x09, 0xF3, 0xE7, 0xC9, 0xCC, 0xF9, 0xE8, 0xE7, 0x13, 0x19,
  0x1A, 0x15, 0x1C, 0x0B, 0xFD, 0xFA, 0xFF, 0xEE, 0xCE, 0xB9,
  0xE7, 0xF9, 0xD2, 0xF7, 0x2F, 0x4C, 0x39, 0x25, 0x1A, 0x10,
  0x04, 0x21, 0x0C, 0xE6, 0xF2, 0xFD, 0x0E, 0x12, 0x07, 0x19,
  0x4F, 0x70, 0x4E, 0x35, 0x34, 0x3B, 0x1E, 0x3A, 0x26, 0x17,
  0x10, 0x3B, 0x05, 0x21, 0xF1, 0x15, 0x44, 0x62, 0x54, 0x39,
  0x36, 0x21, 0x0E, 0x27, 0x2B, 0x2A, 0x2D, 0x1F, 0x0D, 0x01,
  0xB6, 0xE3, 0x0C, 0x3D, 0x21, 0x10, 0xEE, 0x08, 0x0D, 0x1C,
  0x20, 0x2B, 0x22, 0x34, 0x2C, 0xFB, 0x81, 0xC6, 0xD4, 0xDB,
  0x05, 0xF0, 0xEC, 0x12, 0x11, 0x21, 0x36, 0x2C, 0x32, 0x30,
  0x27, 0x27, 0x02, 0xFC, 0xEE, 0xF6, 0xF0, 0xC8, 0xD1, 0xD9,
  0xBD, 0xC2, 0xE2, 0xDA, 0xDE, 0x0E, 0x23, 0x29, 0x06, 0xE8,
  0xD7, 0x0C, 0x0E, 0x00, 0xF6, 0xD8, 0xE8, 0xDA, 0xD3, 0xAA,
  0xC1, 0xFC, 0xD4, 0x08, 0x12, 0x03, 0xFE, 0x1F, 0x1A, 0x2A,
  0x0D, 0x19, 0x02, 0x1B, 0x08, 0xE4, 0xD5, 0xDD, 0xEB, 0xFE,
  0x1D, 0x14, 0x20, 0x28, 0x2A, 0x14, 0x16, 0x25, 0x3F, 0x3E,
  0x23, 0x02, 0xEA, 0xE9, 0xC8, 0x02, 0x1C, 0x06, 0x18, 0x2F,
  0x22, 0x0C, 0xF0, 0xFF, 0x1A, 0x1A, 0x3D, 0x2D, 0x34, 0x2B,
  0x0E, 0x0A, 0x0D, 0xF8, 0x06, 0x0F, 0xF3, 0xE1, 0xF7, 0xE1,
  0x0C, 0x33, 0x2D, 0x4B, 0x5D, 0x21, 0xF2, 0x25, 0x1A, 0x06,
  0xFD, 0xEB, 0x03, 0x02, 0x20, 0x10, 0x34, 0x42, 0x47, 0x55,
  0x4B, 0x0F, 0x33, 0x45, 0xEC, 0xE5, 0x03, 0x01, 0x01, 0x31,
  0x47, 0x46, 0x34, 0x3C, 0x16, 0x1B, 0x26, 0x20, 0x5E, 0x40,
  0xDC, 0xDD, 0xD8, 0xF0, 0xE4, 0x41, 0x44, 0x1E, 0xEF, 0xB6,
  0xCE, 0xCA, 0xDC, 0x15, 0x5B, 0x2E, 0xE3, 0xDD, 0xDD, 0xC0,
  0xE0, 0x0B, 0xFF, 0xC8, 0xBF, 0x81, 0xA5, 0xCA, 0xBF, 0x22,
  0x02, 0xDC, 0xE9, 0xE7, 0xBD, 0xCA, 0xC2, 0xD2, 0xB4, 0xB5,
  0xC2, 0xBE, 0xE2, 0xF1, 0xF6, 0x13, 0xDE, 0x9B, 0xDD, 0xC4,
  0xC6, 0xD9, 0xA6, 0x9B, 0xC8, 0x08, 0xFF, 0x1F, 0x34, 0x10,
  0xF6, 0xF5, 0xD4, 0xA7, 0xF9, 0x00, 0xE0, 0xDC, 0xD2, 0xC8,
  0x0A, 0x2A, 0x1F, 0x23, 0x26, 0xF9, 0xE2, 0xBF, 0xBC, 0xAC,
  0xFC, 0x00, 0x0A, 0x08, 0x0C, 0x0D, 0x1C, 0x19, 0x11, 0x25,
  0x08, 0x03, 0xDE, 0xC9, 0xD7, 0xCB, 0x16, 0xFE, 0x1D, 0x15,
  0x1E, 0x0B, 0xFF, 0x0F, 0x0F, 0x11, 0x0E, 0x25, 0xEF, 0xE2,
  0xEC, 0xD4, 0xF3, 0x07, 0x18, 0xF3, 0x09, 0xF8, 0xF6, 0xFA,
  0xEF, 0xFC, 0x19, 0x04, 0x03, 0xE8, 0xEC, 0xDD, 0x09, 0xF2,
  0xD8, 0xE4, 0xFC, 0xEE, 0xEF, 0x04, 0x02, 0x17, 0x19, 0x0B,
  0xEF, 0xEA, 0xF8, 0xF2, 0xFF, 0xF7, 0xEB, 0xE7, 0xEF, 0xF1,
  0xE3, 0xE4, 0xED, 0xF8, 0xFB, 0xF0, 0xDC, 0xD2, 0xF7, 0xE3,
  0x09, 0xF3, 0xEA, 0xE6, 0xE2, 0xE3, 0xE4, 0xE6, 0xF5, 0xF6,
  0xEA, 0xE9, 0xEE, 0xEC, 0xF4, 0xEE, 0x1B, 0x07, 0x13, 0xF6,
  0xF5, 0xEC, 0xFB, 0xFF, 0x0A, 0xFF, 0xEC, 0xE6, 0xF4, 0x06,
  0xF2, 0x17, 0x22, 0x1E, 0x1A, 0x10, 0x06, 0x0B, 0x0F, 0x11,
  0x0D, 0xFF, 0xFF, 0x08, 0x07, 0x12, 0x08, 0x12, 0x21, 0x29,
  0x21, 0x16, 0x19, 0x0D, 0x0A, 0x0F, 0x02, 0xFC, 0x0E, 0x1D,
  0x21, 0x1C, 0x10, 0x04, 0x27, 0x20, 0x1D, 0x14, 0x1B, 0x1D,
  0x0E, 0xF3, 0xE9, 0xF3, 0x02, 0x17, 0x37, 0x26, 0x10, 0xFA,
  0x0E, 0x1C, 0x1E, 0x25, 0x24, 0x1D, 0x19, 0x02, 0xEF, 0xE0,
  0xF4, 0x07, 0x2A, 0x29, 0x0A, 0xF9, 0x22, 0x28, 0x34, 0x2E,
  0x29, 0x15, 0x10, 0x04, 0xFB, 0xEA, 0xFC, 0x1A, 0x27, 0x23,
  0x17, 0x08, 0x20, 0x2D, 0x30, 0x30, 0x25, 0x0A, 0x12, 0xF4,
  0xE8, 0xEA, 0x14, 0x22, 0x25, 0x28, 0x17, 0xFB, 0x1A, 0x2E,
  0x26, 0x25, 0x26, 0x1F, 0xF7, 0xE7, 0xD6, 0xEA, 0x1D, 0x28,
  0x20, 0x16, 0xFF, 0x13, 0x18, 0x12, 0x2B, 0x23, 0x09, 0xE9,
  0xDC, 0xE7, 0xDD, 0xF2, 0x19, 0x17, 0x06, 0xFB, 0xE8, 0x07,
  0x01, 0x0B, 0xF4, 0xD2, 0xC3, 0xB9, 0xCB, 0xCF, 0xE5, 0xEE,
  0x18, 0x14, 0x10, 0x05, 0xFE, 0xF8, 0xBC, 0xAF, 0xA5, 0x9A,
  0x9F, 0xC0, 0xD2, 0xCF, 0xE6, 0x03, 0x17, 0xEE, 0x0A, 0x04,
  0xFA, 0xE3, 0xA0, 0x81, 0x92, 0x97, 0xB9, 0xDE, 0xDB, 0xD3,
  0xE4, 0x08, 0x0A, 0x00, 0x0B, 0xF0, 0xF2, 0xF6, 0xB9, 0xAE,
  0x9A, 0xBF, 0xD1, 0xE0, 0xDF, 0xDA, 0xEA, 0xFD, 0x06, 0x0F,
  0x12, 0xF3, 0x01, 0x05, 0x35, 0x23, 0x5C, 0x7C, 0x7F, 0x52,
  0xF9, 0xE2, 0xCD, 0xB0, 0xD9, 0xD5, 0xFD, 0xFA, 0xE6, 0xFE,
  0xEB, 0xE1, 0x0D, 0x27, 0x4C, 0x2E, 0x07, 0x12, 0xE1, 0x9B,
  0xA0, 0xC8, 0xF1, 0xF3, 0x02, 0x21, 0xC5, 0xC3, 0xEF, 0x38,
  0x50, 0x62, 0x44, 0x19, 0xF3, 0xBB, 0xAD, 0xA7, 0xB4, 0xDC,
  0xE8, 0x20, 0xF0, 0xF8, 0x02, 0x0B, 0x31, 0x4B, 0x4F, 0x49,
  0x2D, 0x03, 0x04, 0xBE, 0xC4, 0xB5, 0xD0, 0xDD, 0x13, 0xF8,
  0x00, 0xD1, 0xF3, 0x1B, 0x66, 0x74, 0x56, 0x4A, 0x29, 0xF7,
  0xB3, 0xBA, 0xC1, 0xCB, 0xEA, 0xF2, 0xF5, 0xD4, 0xBF, 0xFB,
  0x43, 0x77, 0x67, 0x41, 0x23, 0x1B, 0xFC, 0xDF, 0xE2, 0xE0,
  0xFD, 0x03, 0x09, 0xCA, 0xCA, 0x08, 0x2F, 0x37, 0x3D, 0x4B,
  0x58, 0x3B, 0x21, 0x0A, 0xFC, 0xD6, 0x08, 0x03, 0xEB, 0xE1,
  0xE1, 0x0C, 0x20, 0x19, 0x35, 0x62, 0x70, 0x59, 0x4C, 0x31,
  0xFB, 0xBD, 0xFD, 0xF3, 0xDF, 0xE2, 0xDB, 0xF8, 0xFA, 0x06,
  0x11, 0x32, 0x18, 0x26, 0x39, 0x21, 0xF7, 0xE9, 0x00, 0x02,
  0xE1, 0xE4, 0xF9, 0xDC, 0xE4, 0xF1, 0xDB, 0x01, 0xE4, 0xF1,
  0x09, 0xF7, 0xEF, 0xFC, 0xF2, 0x06, 0xF6, 0xDB, 0xDB, 0xDE,
  0xE9, 0xE4, 0xCA, 0xD5, 0xEB, 0xC7, 0xE6, 0xE5, 0xFF, 0x1B,
  0xE6, 0xF6, 0xE1, 0xEA, 0xEC, 0xDF, 0xEA, 0xD4, 0xE4, 0xD7,
  0xCB, 0xE0, 0xDE, 0xF3, 0x11, 0x2A, 0xE4, 0xF9, 0x0F, 0xEA,
  0x0C, 0x08, 0xE4, 0xC3, 0xE5, 0xDF, 0xD7, 0xDE, 0xEF, 0xF6,
  0x13, 0x2B, 0xEF, 0x0A, 0x10, 0x0B, 0x11, 0xF5, 0xF1, 0xD9,
  0xE6, 0xE5, 0xE7, 0x0A, 0xF9, 0x0C, 0x00, 0x1F, 0xCD, 0xF0,
  0x0F, 0x1B, 0xF7, 0xDE, 0xEC, 0xF1, 0xF7, 0x0D, 0x1B, 0x07,
  0x0A, 0x0E, 0x17, 0x30, 0xD8, 0x07, 0x01, 0xEF, 0xEF, 0x00,
  0xFE, 0xFD, 0x09, 0x0D, 0xF5, 0x0D, 0x0C, 0x02, 0x19, 0x1F,
  0x08, 0x12, 0x2B, 0x0C, 0x13, 0xFC, 0xFB, 0x10, 0x12, 0x18,
  0x11, 0x1B, 0x47, 0x24, 0x1F, 0x39, 0x1F, 0x11, 0x15, 0x12,
  0x1E, 0x1A, 0x27, 0x12, 0x31, 0x2F, 0x12, 0x06, 0x3E, 0x23,
  0x28, 0x35, 0x15, 0x18, 0x21, 0x15, 0x2D, 0xFA, 0xF4, 0x14,
  0x17, 0x2C, 0x1D, 0x31, 0x26, 0x1C, 0x39, 0x2A, 0x02, 0xE6,
  0x0B, 0x22, 0x2C, 0x02, 0xF7, 0xFE, 0x10, 0x09, 0x00, 0xF9,
  0x0E, 0x26, 0x45, 0x30, 0xF1, 0xF7, 0x41, 0x2C, 0x37, 0x1F,
  0xED, 0xF8, 0x07, 0x04, 0xE8, 0xEE, 0x1A, 0x2A, 0x35, 0x3C,
  0x2A, 0x2B, 0xEE, 0x04, 0x13, 0x04, 0x00, 0xEA, 0x17, 0xFD,
  0xDF, 0xEF, 0xE5, 0xED, 0x33, 0x67, 0x21, 0x12, 0x02, 0xD3,
  0xC7, 0xEE, 0x04, 0xB9, 0xDF, 0xE4, 0xD6, 0xCC, 0xE1, 0xD6,
  0xCF, 0x11, 0x1C, 0x13, 0xEC, 0xC9, 0xD8, 0x0A, 0x1F, 0xF6,
  0xF1, 0xE3, 0xC1, 0xC4, 0xCB, 0xB4, 0xD9, 0x07, 0x1F, 0x19,
  0xD2, 0xA2, 0x9C, 0xF7, 0x3C, 0x36, 0x0C, 0xE8, 0xEE, 0xD1,
  0xD3, 0xC4, 0xC8, 0x2A, 0x24, 0x17, 0xC1, 0xB3, 0xD4, 0x18,
  0x0F, 0x06, 0x07, 0x24, 0x0C, 0x1C, 0xDC, 0xB1, 0xD3, 0x29,
  0xFD, 0xD0, 0xC4, 0xB4, 0xBF, 0x10, 0x09, 0x11, 0xF3, 0xF0,
  0x04, 0x14, 0xD1, 0x9A, 0xCD, 0xFC, 0x14, 0xD6, 0xA7, 0x8F,
  0xE0, 0x1D, 0x17, 0x05, 0xF6, 0xCE, 0xD9, 0xF7, 0xB4, 0xC1,
  0xDC, 0x04, 0xB8, 0xB3, 0xC1, 0xFC, 0xF7, 0x26, 0x25, 0xD9,
  0xEE, 0xF8, 0xFD, 0xFE, 0x10, 0x22, 0xE0, 0xFA, 0x81, 0x96,
  0xF4, 0x18, 0x4C, 0x2D, 0x19, 0xEF, 0xF8, 0x1B, 0x0A, 0x29,
  0x11, 0x22, 0x08, 0x07, 0xB3, 0x1B, 0x56, 0x5F, 0x62, 0x3A,
  0x2B, 0x38, 0x3C, 0x1C, 0x1A, 0x23, 0x40, 0x2A, 0x1C, 0x21,
  0x37, 0x75, 0x51, 0x2B, 0x6F, 0x48, 0x40, 0x3C, 0x43, 0x42,
  0x0D, 0x0B, 0x08, 0x3C, 0x08, 0x42, 0x0D, 0x26, 0x18, 0x0E,
  0x0C, 0x12, 0x14, 0x19, 0x11, 0x04, 0x24, 0x20, 0x3B, 0x30,
  0x2E, 0x33, 0x0E, 0x2C, 0x1F, 0x02, 0xF6, 0xE1, 0xFD, 0xE5,
  0xD4, 0xBE, 0xCA, 0xD3, 0xD7, 0xDA, 0xEE, 0x0C, 0x19, 0x12,
  0x00, 0xDD, 0xC3, 0xBB, 0xCE, 0xCC, 0xC6, 0xB2, 0xAD, 0x99,
  0x97, 0xB7, 0xEC, 0x11, 0x07, 0x08, 0xFE, 0xC6, 0xB2, 0xC4,
  0xCA, 0xEC, 0xDE, 0xC3, 0x94, 0x81, 0x9E, 0xF4, 0x10, 0x2A,
  0x18, 0x17, 0xFC, 0xC4, 0xB7, 0xCB, 0xD4, 0xDC, 0xCC, 0xB3,
  0x9B, 0xB4, 0xFC, 0x25, 0x0D, 0x0E, 0x21, 0x0C, 0xFE, 0xE3,
  0xD2, 0xD2, 0xF0, 0xF3, 0xD7, 0xD4, 0xD0, 0xF4, 0x20, 0x38,
  0x08, 0xDE, 0x0D, 0x09, 0x03, 0xDF, 0xF3, 0xE6, 0x01, 0x0D,
  0xEE, 0xE7, 0xFC, 0x1E, 0x49, 0x36, 0x0F, 0xFA, 0xFB, 0x1C,
  0x1D, 0xFB, 0x0D, 0x07, 0x19, 0x08, 0x05, 0xED, 0xF2, 0x1D,
  0x2F, 0x2F, 0xFC, 0x09, 0xEB, 0xF7, 0x1E, 0x04, 0x14, 0x1A,
  0x1F, 0x1A, 0x09, 0xFB, 0xEF, 0x07, 0x33, 0x28, 0x07, 0xEB,
  0xD1, 0x05, 0x15, 0x0E, 0x25, 0x24, 0x1B, 0x32, 0x28, 0x07,
  0x08, 0x17, 0x22, 0x01, 0xF3, 0xE4, 0xD1, 0x0E, 0x12, 0x0F,
  0x0A, 0x06, 0x10, 0x22, 0x1B, 0x0B, 0xFC, 0x09, 0x14, 0x15,
  0x09, 0x09, 0xDF, 0x07, 0x06, 0x10, 0x09, 0x0A, 0x20, 0x0B,
  0xFD, 0x0E, 0xFE, 0xFF, 0x18, 0x0E, 0x0C, 0x2A, 0x09, 0x1C,
  0x15, 0x22, 0x06, 0x11, 0x09, 0x18, 0x16, 0x16, 0x12, 0x17,
  0x06, 0x0E, 0x1C, 0x36, 0x3F, 0x3D, 0x33, 0x1F, 0x13, 0x2B,
  0x19, 0x26, 0x1F, 0x05, 0x18, 0xEF, 0x15, 0x07, 0x22, 0x2B,
  0x3E, 0x28, 0x12, 0x2C, 0x23, 0x30, 0x16, 0x0E, 0x04, 0x08,
  0x0E, 0x05, 0xF5, 0xF4, 0x0E, 0x1D, 0x0F, 0xFB, 0x09, 0x26,
  0x2C, 0x2A, 0x19, 0x24, 0xE7, 0xED, 0x03, 0x02, 0xF5, 0xFD,
  0x17, 0x06, 0x11, 0xFF, 0x04, 0xEC, 0xEB, 0x0B, 0x32, 0x2F,
  0x47, 0x2A, 0x1D, 0x14, 0x26, 0x22, 0x1B, 0x18, 0x01, 0xF9,
  0x0D, 0x09, 0x0C, 0x2A, 0x20, 0x4D, 0x5A, 0x57, 0x44, 0x66,
  0x5D, 0x51, 0x24, 0x15, 0x29, 0x07, 0xFB, 0x0F, 0x17, 0x2F,
  0x38, 0x2C, 0x3F, 0x47, 0x35, 0x31, 0x4A, 0x16, 0x11, 0xF1,
  0x04, 0xF3, 0xE6, 0x09, 0x05, 0x3F, 0x3A, 0x4D, 0x38, 0x1E,
  0x07, 0xEB, 0xE5, 0x18, 0x13, 0xB2, 0xF8, 0x12, 0x02, 0x14,
  0x05, 0x38, 0x5C, 0x52, 0x27, 0x05, 0xC6, 0xCC, 0xC5, 0xD6,
  0xEB, 0xA4, 0x00, 0x29, 0xEA, 0xEC, 0x00, 0x2C, 0xFA, 0xE9,
  0xE9, 0xF2, 0xBA, 0xD7, 0xE6, 0x0D, 0x11, 0xB9, 0xF9, 0xFE,
  0x01, 0xE9, 0xEA, 0xC9, 0xC2, 0xAB, 0xD1, 0xC3, 0xCF, 0xE7,
  0xFB, 0x20, 0x02, 0xC9, 0x00, 0x15, 0x1F, 0xE6, 0xCA, 0xCB,
  0xAB, 0xB3, 0xDA, 0xD9, 0xD8, 0xEC, 0xE6, 0x03, 0xFC, 0xE1,
  0xEE, 0x06, 0xE4, 0xE4, 0xC7, 0xAF, 0xAA, 0xAC, 0xC9, 0xDF,
  0xED, 0xDB, 0xEC, 0x00, 0x12, 0x0B, 0x0E, 0xEF, 0xE3, 0xC6,
  0xA1, 0x97, 0xBA, 0xBE, 0xD8, 0xE2, 0xF1, 0x07, 0xDB, 0xDF,
  0xFC, 0x02, 0xFF, 0xEF, 0xE0, 0xD6, 0xBC, 0x81, 0x94, 0xE3,
  0xCD, 0xD5, 0xC8, 0xC2, 0xBF, 0xD8, 0xE6, 0xFC, 0x09, 0x18,
  0x19, 0xFF, 0x03, 0xF4, 0xFF, 0xE6, 0xED, 0xF2, 0xDD, 0xE6,
  0xBB, 0xF9, 0xE1, 0xFA, 0x11, 0x20, 0x46, 0x43, 0x62, 0x52,
  0x5F, 0x29, 0x2B, 0x14, 0x05, 0x1C, 0xE9, 0x10, 0xF3, 0xDA,
  0x01, 0x0B, 0x41, 0x6B, 0x57, 0x6A, 0x4E, 0x29, 0x43, 0x34,
  0x26, 0x3D, 0x25, 0x09, 0xFA, 0xEA, 0x1D, 0x2F, 0x4F, 0x4B,
  0x77, 0x4F, 0x41, 0x46, 0x4D, 0x14, 0x31, 0x25, 0x07, 0x10,
  0xEB, 0xF3, 0x28, 0x34, 0x21, 0x3E, 0x3B, 0x37, 0x3A, 0x40,
  0x29, 0x38, 0x19, 0x21, 0xF8, 0x09, 0xF0, 0xFD, 0x00, 0x00,
  0x00, 0x00, 0x16, 0xF9, 0xFF, 0xFF, 0x04, 0x00, 0x00, 0x00,
  0xB0, 0x04, 0x00, 0x00, 0x26, 0xC0, 0xC9, 0xF5, 0xE1, 0x24,
  0xE4, 0x0E, 0x1E, 0xBA, 0x0A, 0xE2, 0x1A, 0x35, 0x03, 0xDC,
  0x28, 0xF2, 0xF3, 0xFE, 0xEF, 0x29, 0x1F, 0xDB, 0xE7, 0x0E,
  0xF8, 0xF7, 0xF0, 0x11, 0xF2, 0x1B, 0x0B, 0xE2, 0xAC, 0x0B,
  0x27, 0xD9, 0x23, 0xD1, 0x15, 0x06, 0xF9, 0x0E, 0x10, 0x2D,
  0xD4, 0x21, 0xDD, 0x0F, 0xF9, 0x16, 0xF5, 0xE0, 0x16, 0x18,
  0xDE, 0xFA, 0x0B, 0xED, 0xCB, 0xD1, 0xE9, 0xC2, 0x32, 0x07,
  0xF5, 0xDF, 0x25, 0xC8, 0x22, 0x8B, 0xC3, 0x1A, 0xF8, 0xDF,
  0xFF, 0x0D, 0x04, 0x23, 0x18, 0xD3, 0xF5, 0x35, 0xAD, 0x00,
  0xF0, 0x23, 0xFF, 0xF7, 0xCF, 0x13, 0x09, 0x1A, 0xCA, 0xD3,
  0x2F, 0x31, 0x16, 0x23, 0x12, 0xB6, 0x0B, 0xF3, 0x2A, 0x2C,
  0xF2, 0xFD, 0x19, 0xF7, 0x24, 0xDC, 0xFD, 0x06, 0xE7, 0x16,
  0x3F, 0xFB, 0x2E, 0xF1, 0xDA, 0x23, 0x27, 0xD2, 0xAE, 0xCE,
  0xE4, 0x02, 0xD5, 0x0F, 0xD7, 0xE7, 0xE7, 0xD4, 0xD6, 0xDB,
  0x23, 0xD5, 0x22, 0xD6, 0x45, 0xBD, 0xCF, 0xD4, 0x21, 0x21,
  0x36, 0x01, 0xE1, 0xC0, 0x23, 0xE5, 0x32, 0xF8, 0x0D, 0x22,
  0xC4, 0x19, 0xCA, 0xD6, 0xF3, 0xF9, 0x22, 0xE0, 0xAE, 0xE5,
  0x0C, 0x18, 0xDF, 0x0C, 0xD5, 0x2B, 0xF0, 0x0A, 0xB3, 0xE4,
  0x38, 0x16, 0xFA, 0x1C, 0xED, 0xF9, 0x25, 0xFF, 0xC8, 0x0C,
  0x21, 0x08, 0xE8, 0x0C, 0xD2, 0x2C, 0x0E, 0xD4, 0xE5, 0x01,
  0x1D, 0xDA, 0xEB, 0x0F, 0x11, 0x2F, 0xFB, 0xA6, 0x1B, 0x24,
  0xDC, 0x1D, 0x34, 0x09, 0xEA, 0xDC, 0x18, 0xEF, 0x26, 0xE6,
  0x21, 0x1A, 0xEB, 0xCB, 0x0E, 0x44, 0xD7, 0xCF, 0x16, 0x00,
  0xDF, 0xE4, 0xC9, 0xDD, 0xE5, 0xED, 0xDA, 0xCB, 0x96, 0x1F,
  0x34, 0xFE, 0x01, 0x13, 0x25, 0x2D, 0x12, 0x2C, 0xDA, 0x06,
  0x2D, 0x29, 0x1D, 0xC7, 0xE8, 0x12, 0x23, 0xF2, 0xF6, 0x0F,
  0xF9, 0xFB, 0xEF, 0xF1, 0xE9, 0x02, 0xE5, 0xE9, 0xF1, 0xE5,
  0xB7, 0x31, 0xF1, 0xFA, 0xFF, 0x10, 0x38, 0xF6, 0x40, 0x06,
  0x07, 0xDD, 0xF3, 0xFE, 0x17, 0xD1, 0x0F, 0xE6, 0x26, 0x29,
  0x13, 0xFA, 0xF2, 0xC5, 0xE8, 0xD4, 0xFA, 0xCB, 0x29, 0x2C,
  0xD4, 0xE7, 0xFD, 0x12, 0x1A, 0x01, 0x1B, 0xE3, 0xFB, 0xD9,
  0xE4, 0x07, 0x23, 0xEF, 0xE4, 0xEC, 0x0C, 0x11, 0x2C, 0xCF,
  0x16, 0xF2, 0xEF, 0xC3, 0x05, 0x26, 0xDE, 0xFC, 0x0B, 0xB0,
  0x0D, 0xDD, 0xC7, 0xE5, 0xB2, 0xE7, 0x2E, 0x0E, 0x19, 0xFC,
  0xFB, 0x0E, 0x0B, 0x1A, 0xFC, 0x01, 0x0A, 0x28, 0xDD, 0x01,
  0xF7, 0xE1, 0x00, 0x1A, 0x2D, 0x06, 0xF4, 0x13, 0xE8, 0xF4,
  0x18, 0x2A, 0x1E, 0x2C, 0xE7, 0x2E, 0xFF, 0x1B, 0xF8, 0x11,
  0xE6, 0x18, 0xCC, 0x35, 0xEA, 0x12, 0x17, 0xC9, 0x3A, 0xDB,
  0xFD, 0xE2, 0xFB, 0xF1, 0x23, 0xE5, 0xDF, 0xA0, 0x35, 0x01,
  0xC4, 0xD8, 0x25, 0x1A, 0x10, 0xF9, 0x0F, 0x02, 0x06, 0x2A,
  0xEB, 0xF6, 0x18, 0x28, 0xEB, 0xCA, 0x1F, 0x28, 0xF0, 0x2B,
  0xF3, 0xE1, 0x1A, 0xF0, 0x1A, 0xCA, 0x28, 0xDA, 0x18, 0x20,
  0xDC, 0x14, 0x13, 0x02, 0x1C, 0x26, 0x0A, 0xE1, 0x00, 0xDB,
  0x08, 0x2E, 0xFC, 0xFF, 0x0F, 0x31, 0xF2, 0xD2, 0xE8, 0xDA,
  0xC1, 0x19, 0x11, 0xF3, 0xF4, 0xF7, 0x38, 0xD1, 0xFB, 0x13,
  0xE9, 0x18, 0x22, 0x36, 0x24, 0x1E, 0xFB, 0x36, 0xDF, 0xE8,
  0x15, 0xF2, 0x24, 0xE9, 0x1E, 0x1A, 0x1C, 0x0B, 0x09, 0xD9,
  0x07, 0x16, 0x1D, 0x02, 0x0A, 0xD4, 0x19, 0xE2, 0xD3, 0xF3,
  0x11, 0x1D, 0xF0, 0x0D, 0xAF, 0x0F, 0x29, 0xC9, 0x21, 0xEA,
  0xF4, 0xCE, 0x2F, 0x0C, 0x0E, 0xEB, 0xD5, 0x0A, 0xFC, 0x3C,
  0xDC, 0xF5, 0x8F, 0xC9, 0x2F, 0xDE, 0xFF, 0x23, 0xDA, 0x1B,
  0x17, 0x08, 0xE6, 0xF2, 0xEC, 0x09, 0xEF, 0x07, 0xEF, 0xDF,
  0x28, 0xF0, 0x08, 0x04, 0xE9, 0x1E, 0x02, 0xEB, 0xB8, 0x3D,
  0xE6, 0xF2, 0xC8, 0xE9, 0xD5, 0xEE, 0xDA, 0x03, 0xE4, 0xF8,
  0x22, 0xD0, 0x0C, 0xF4, 0xD4, 0xE4, 0x1F, 0x31, 0x2D, 0x12,
  0xE3, 0x14, 0x06, 0x1E, 0x0C, 0x18, 0xF6, 0x07, 0xE6, 0x24,
  0x24, 0x19, 0xD1, 0x21, 0x07, 0xEA, 0xEF, 0x32, 0x17, 0xEE,
  0xEE, 0xE4, 0x04, 0x0C, 0xFE, 0x15, 0xD7, 0xCA, 0x24, 0xE4,
  0xE0, 0x8E, 0xE8, 0x0C, 0xC0, 0x14, 0x16, 0xB9, 0x17, 0xE1,
  0xF4, 0xDF, 0x23, 0x22, 0xF6, 0xE9, 0xEA, 0x22, 0x1A, 0xC9,
  0xDE, 0xD3, 0xC5, 0xBC, 0x0A, 0xF8, 0xAC, 0x2C, 0x08, 0xEF,
  0x0A, 0x27, 0x0F, 0x24, 0xF4, 0x3E, 0x26, 0xF4, 0xD7, 0x0B,
  0x32, 0x21, 0x1C, 0x31, 0xDC, 0xF2, 0x31, 0x04, 0xE2, 0x01,
  0xE7, 0x02, 0xF9, 0x15, 0x0E, 0x2C, 0x81, 0xE2, 0xF0, 0x31,
  0x13, 0x1F, 0xF3, 0x23, 0x05, 0x2F, 0xC8, 0x27, 0x07, 0x09,
  0x0D, 0x04, 0x22, 0x22, 0xFE, 0xE7, 0xEB, 0xEB, 0xDF, 0xE5,
  0xCC, 0xE4, 0x20, 0x19, 0x3B, 0x00, 0xE4, 0xEC, 0xD0, 0x18,
  0xFB, 0xFB, 0x21, 0xF7, 0xF5, 0xFF, 0xE5, 0xCA, 0xE2, 0xE7,
  0x07, 0xED, 0xF0, 0xE8, 0xE3, 0xE3, 0x06, 0xF7, 0xEF, 0x2C,
  0xD9, 0xF2, 0x28, 0xE1, 0x23, 0x2F, 0xBF, 0x0D, 0xF8, 0xE7,
  0x12, 0xE0, 0xE7, 0xFE, 0xED, 0x35, 0xEC, 0xFF, 0x18, 0x02,
  0xE0, 0x18, 0x02, 0xF1, 0xE4, 0xDD, 0xD8, 0xDB, 0xEB, 0x20,
  0xCC, 0xDA, 0xDE, 0xF8, 0x26, 0x0F, 0x03, 0xD4, 0x28, 0xE5,
  0x0C, 0x2C, 0xD2, 0xC2, 0x02, 0x36, 0x1B, 0xDD, 0xAE, 0xF4,
  0x07, 0xE4, 0xE0, 0x1C, 0x13, 0x4A, 0xC9, 0x0D, 0xAC, 0x1F,
  0x20, 0xF8, 0xC2, 0x32, 0xF1, 0xF6, 0xA1, 0xD1, 0x18, 0xDF,
  0xF8, 0x0F, 0xCC, 0xC2, 0xFD, 0xFC, 0x23, 0x24, 0x00, 0xEC,
  0xF9, 0x3A, 0xE8, 0xF5, 0x1D, 0x08, 0xF1, 0x11, 0x26, 0xE8,
  0x2F, 0x16, 0xEB, 0x08, 0x0E, 0xFE, 0x89, 0x03, 0x16, 0x29,
  0x1F, 0xAE, 0xEA, 0x1A, 0xDA, 0xC9, 0xFD, 0x0C, 0xF7, 0x10,
  0xEB, 0x02, 0xEE, 0x13, 0x00, 0xF7, 0xE1, 0x0C, 0xE0, 0x15,
  0x20, 0x2F, 0x27, 0x00, 0x00, 0xF9, 0xBD, 0xFF, 0x03, 0xD5,
  0x32, 0xE2, 0x1A, 0x04, 0x35, 0xE8, 0x16, 0x2D, 0x2F, 0x01,
  0xCE, 0xE0, 0xD2, 0xF0, 0xCB, 0x32, 0x15, 0x06, 0xEF, 0x0B,
  0xDF, 0x2B, 0xF1, 0x02, 0x04, 0xE5, 0x09, 0xF9, 0xEC, 0x15,
  0x26, 0xB2, 0x21, 0x28, 0x04, 0x13, 0xAD, 0x07, 0x22, 0xA8,
  0x13, 0xD9, 0x11, 0xE1, 0x39, 0xFC, 0x1E, 0x1E, 0x30, 0x2D,
  0xE0, 0xDA, 0x02, 0xE7, 0x0A, 0x05, 0xE1, 0xE1, 0x1D, 0xE1,
  0x14, 0xF2, 0xE2, 0x06, 0x17, 0x26, 0x2F, 0x27, 0x04, 0xED,
  0xD6, 0x05, 0xE1, 0xE3, 0xD9, 0xC8, 0xE7, 0xD8, 0x01, 0xD5,
  0xD0, 0xDB, 0xEC, 0xDE, 0xD9, 0x28, 0xFD, 0x13, 0xDE, 0xF5,
  0xCA, 0xFD, 0x10, 0x0D, 0xA9, 0xC7, 0xD9, 0xB6, 0xD4, 0xFC,
  0xE9, 0x20, 0xE5, 0xE1, 0x1E, 0x3D, 0xD7, 0xF1, 0xF3, 0xE9,
  0xF4, 0x35, 0x0A, 0xEE, 0xD4, 0xF1, 0x28, 0xF1, 0xF4, 0x0F,
  0x0A, 0xED, 0xC3, 0x2B, 0x09, 0x17, 0xF7, 0xE0, 0xD3, 0x12,
  0x0F, 0xD6, 0x1A, 0xF2, 0x0F, 0x17, 0x01, 0x14, 0x10, 0xA7,
  0xEF, 0x0D, 0xC6, 0xDD, 0xFD, 0x1F, 0x2D, 0x16, 0xFD, 0xDE,
  0x08, 0x27, 0xE4, 0xFF, 0xF2, 0x1B, 0xF8, 0x09, 0xE0, 0x2F,
  0x24, 0x31, 0xC7, 0xE8, 0xD3, 0xF8, 0xFB, 0x2F, 0xE7, 0x0D,
  0xF6, 0x19, 0xF9, 0x15, 0xF5, 0xEB, 0xEF, 0xE1, 0xEF, 0x05,
  0x1F, 0xDA, 0x06, 0x0B, 0x18, 0xF6, 0xD7, 0x10, 0x31, 0xDA,
  0x03, 0xCE, 0xE4, 0x20, 0x12, 0x0B, 0x02, 0x0D, 0x1D, 0x07,
  0x26, 0xF2, 0x05, 0x19, 0xF2, 0x22, 0x05, 0x01, 0xBF, 0x2F,
  0x1F, 0x18, 0x16, 0x14, 0xF3, 0x19, 0xED, 0xFA, 0x05, 0x15,
  0x23, 0xF3, 0xF5, 0x15, 0x13, 0xCB, 0x23, 0x05, 0x23, 0xD2,
  0x26, 0x13, 0xD5, 0x1B, 0xFC, 0x00, 0xDE, 0x21, 0xED, 0x0B,
  0xC9, 0x04, 0xE6, 0x25, 0x21, 0xDF, 0x33, 0x15, 0xFA, 0x02,
  0x18, 0x27, 0x20, 0x17, 0xF7, 0xE9, 0xFA, 0x1B, 0x05, 0xF8,
  0xD5, 0xDB, 0xE4, 0x16, 0xF4, 0xAE, 0xB0, 0xF0, 0x25, 0xEA,
  0xF0, 0xF2, 0x0C, 0xFF, 0x00, 0xDC, 0xF9, 0xF1, 0xFA, 0xF6,
  0xC8, 0xF7, 0xF2, 0x17, 0xC7, 0xAA, 0x01, 0xE5, 0xEA, 0x0F,
  0xDC, 0xDD, 0xFB, 0xE8, 0x00, 0x2C, 0xE7, 0x1D, 0xC7, 0x15,
  0x0F, 0xDE, 0x28, 0x03, 0xD6, 0x0B, 0xD2, 0xC2, 0x03, 0xCD,
  0x17, 0xF0, 0x22, 0xF5, 0xF1, 0x0F, 0x24, 0xFB, 0xE0, 0xEA,
  0xDF, 0x09, 0xF8, 0xCD, 0x28, 0xD1, 0xF7, 0xCC, 0x24, 0xD6,
  0x29, 0xC9, 0xCE, 0xE5, 0x0B, 0xE9, 0x31, 0x2E, 0x0E, 0x31,
  0x21, 0x2C, 0x0F, 0x19, 0x2D, 0xB0, 0x1D, 0x33, 0x2A, 0x07,
  0x1F, 0xDC, 0x04, 0xDC, 0xD1, 0xF3, 0x03, 0x14, 0xCB, 0x24,
  0x11, 0x1F, 0xEE, 0x14, 0xBE, 0x0A, 0xF6, 0x19, 0xDC, 0xFE,
  0xF9, 0xCA, 0x10, 0xE2, 0xE5, 0x18, 0x0B, 0x0C, 0x3B, 0xED,
  0xFA, 0xF6, 0xFB, 0x0C, 0x00, 0x00, 0x00, 0x00, 0xD6, 0xFD,
  0xFF, 0xFF, 0x04, 0x00, 0x00, 0x00, 0x08, 0x00, 0x00, 0x00,
  0xFF, 0xFF, 0xFF, 0xFF, 0x78, 0x00, 0x00, 0x00, 0x00, 0x00,
  0x00, 0x00, 0x00, 0x00, 0x00, 0x00, 0x00, 0x00, 0x00, 0x00,
  0xF6, 0xFD, 0xFF, 0xFF, 0x04, 0x00, 0x00, 0x00, 0x28, 0x00,
  0x00, 0x00, 0x24, 0xFF, 0xFF, 0xFF, 0xED, 0xFE, 0xFF, 0xFF,
  0x4C, 0xFF, 0xFF, 0xFF, 0x6E, 0xFF, 0xFF, 0xFF, 0x88, 0xFF,
  0xFF, 0xFF, 0x31, 0x02, 0x00, 0x00, 0x2B, 0x00, 0x00, 0x00,
  0x83, 0xFF, 0xFF, 0xFF, 0x07, 0x01, 0x00, 0x00, 0x58, 0x00,
  0x00, 0x00, 0x00, 0x00, 0x00, 0x00, 0x00, 0x00, 0x00, 0x00,
  0x00, 0x00, 0x00, 0x00, 0x36, 0xFE, 0xFF, 0xFF, 0x04, 0x00,
  0x00, 0x00, 0x78, 0x00, 0x00, 0x00, 0xBE, 0x03, 0x00, 0x00,
  0x00, 0x02, 0x00, 0x00, 0x70, 0xFD, 0xFF, 0xFF, 0xB5, 0x01,
  0x00, 0x00, 0x04, 0x01, 0x00, 0x00, 0x5F, 0x04, 0x00, 0x00,
  0x31, 0x04, 0x00, 0x00, 0x15, 0x00, 0x00, 0x00, 0xC4, 0x01,
  0x00, 0x00, 0xE7, 0x01, 0x00, 0x00, 0xB5, 0x04, 0x00, 0x00,
  0xBA, 0x02, 0x00, 0x00, 0xE9, 0x01, 0x00, 0x00, 0x14, 0x03,
  0x00, 0x00, 0xA5, 0x04, 0x00, 0x00, 0xCA, 0x06, 0x00, 0x00,
  0x2B, 0x05, 0x00, 0x00, 0xC9, 0x04, 0x00, 0x00, 0x4F, 0x03,
  0x00, 0x00, 0xB5, 0x08, 0x00, 0x00, 0x37, 0xFD, 0xFF, 0xFF,
  0xFB, 0x00, 0x00, 0x00, 0xE4, 0x02, 0x00, 0x00, 0xC0, 0x04,
  0x00, 0x00, 0xE6, 0x01, 0x00, 0x00, 0x97, 0x02, 0x00, 0x00,
  0x5F, 0x00, 0x00, 0x00, 0x61, 0xFD, 0xFF, 0xFF, 0x7B, 0x00,
  0x00, 0x00, 0x77, 0x03, 0x00, 0x00, 0x00, 0x00, 0x00, 0x00,
  0x00, 0x00, 0x00, 0x00, 0x00, 0x00, 0x00, 0x00, 0xC6, 0xFE,
  0xFF, 0xFF, 0x04, 0x00, 0x00, 0x00, 0x58, 0x00, 0x00, 0x00,
  0x0A, 0x09, 0x00, 0x00, 0x04, 0xF9, 0xFF, 0xFF, 0xE8, 0x25,
  0x00, 0x00, 0xED, 0x12, 0x00, 0x00, 0x7B, 0x10, 0x00, 0x00,
  0x41, 0x33, 0x00, 0x00, 0x06, 0x10, 0x00, 0x00, 0x84, 0x19,
  0x00, 0x00, 0x3B, 0x20, 0x00, 0x00, 0xAE, 0x29, 0x00, 0x00,
  0xD7, 0x29, 0x00, 0x00, 0x28, 0xFA, 0xFF, 0xFF, 0xA1, 0x18,
  0x00, 0x00, 0xDD, 0x0C, 0x00, 0x00, 0x30, 0xFB, 0xFF, 0xFF,
  0x3D, 0x14, 0x00, 0x00, 0x58, 0x42, 0x00, 0x00, 0x32, 0x21,
  0x00, 0x00, 0xBE, 0x05, 0x00, 0x00, 0x0E, 0xFE, 0xFF, 0xFF,
  0xF8, 0x1D, 0x00, 0x00, 0x2D, 0x26, 0x00, 0x00, 0x00, 0x00,
  0x00, 0x00, 0x04, 0xF4, 0xFF, 0xFF, 0x00, 0x00, 0x00, 0x00,
  0x00, 0x00, 0x00, 0x00, 0x00, 0x00, 0x00, 0x00, 0x14, 0xF4,
  0xFF, 0xFF, 0x00, 0x00, 0x00, 0x00, 0x0F, 0x00, 0x00, 0x00,
  0x4D, 0x4C, 0x49, 0x52, 0x20, 0x43, 0x6F, 0x6E, 0x76, 0x65,
  0x72, 0x74, 0x65, 0x64, 0x2E, 0x00, 0x01, 0x00, 0x00, 0x00,
  0x14, 0x00, 0x00, 0x00, 0x00, 0x00, 0x0E, 0x00, 0x18, 0x00,
  0x04, 0x00, 0x08, 0x00, 0x0C, 0x00, 0x10, 0x00, 0x14, 0x00,
  0x0E, 0x00, 0x00, 0x00, 0xE0, 0x01, 0x00, 0x00, 0xD4, 0x01,
  0x00, 0x00, 0xC8, 0x01, 0x00, 0x00, 0x14, 0x00, 0x00, 0x00,
  0x04, 0x00, 0x00, 0x00, 0x04, 0x00, 0x00, 0x00, 0x6D, 0x61,
  0x69, 0x6E, 0x00, 0x00, 0x00, 0x00, 0x07, 0x00, 0x00, 0x00,
  0x8C, 0x01, 0x00, 0x00, 0x34, 0x01, 0x00, 0x00, 0xE4, 0x00,
  0x00, 0x00, 0xBC, 0x00, 0x00, 0x00, 0x84, 0x00, 0x00, 0x00,
  0x38, 0x00, 0x00, 0x00, 0x04, 0x00, 0x00, 0x00, 0x9A, 0xFE,
  0xFF, 0xFF, 0x05, 0x00, 0x00, 0x00, 0x10, 0x00, 0x00, 0x00,
  0x04, 0x00, 0x00, 0x00, 0x01, 0x00, 0x00, 0x00, 0x0E, 0x00,
  0x00, 0x00, 0x01, 0x00, 0x00, 0x00, 0x0C, 0x00, 0x00, 0x00,
  0x00, 0x00, 0x0E, 0x00, 0x1A, 0x00, 0x08, 0x00, 0x0C, 0x00,
  0x10, 0x00, 0x07, 0x00, 0x14, 0x00, 0x0E, 0x00, 0x00, 0x00,
  0x00, 0x00, 0x00, 0x09, 0x03, 0x00, 0x00, 0x00, 0x24, 0x00,
  0x00, 0x00, 0x18, 0x00, 0x00, 0x00, 0x0C, 0x00, 0x00, 0x00,
  0x00, 0x00, 0x06, 0x00, 0x08, 0x00, 0x04, 0x00, 0x06, 0x00,
  0x00, 0x00, 0x00, 0x00, 0x80, 0x3F, 0x01, 0x00, 0x00, 0x00,
  0x0C, 0x00, 0x00, 0x00, 0x01, 0x00, 0x00, 0x00, 0x0B, 0x00,
  0x00, 0x00, 0x00, 0x00, 0x0E, 0x00, 0x18, 0x00, 0x08, 0x00,
  0x0C, 0x00, 0x10, 0x00, 0x07, 0x00, 0x14, 0x00, 0x0E, 0x00,
  0x00, 0x00, 0x00, 0x00, 0x00, 0x08, 0x02, 0x00, 0x00, 0x00,
  0x18, 0x00, 0x00, 0x00, 0x0C, 0x00, 0x00, 0x00, 0x04, 0x00,
  0x00, 0x00, 0x1C, 0xF5, 0xFF, 0xFF, 0x01, 0x00, 0x00, 0x00,
  0x0B, 0x00, 0x00, 0x00, 0x03, 0x00, 0x00, 0x00, 0x0A, 0x00,
  0x00, 0x00, 0x05, 0x00, 0x00, 0x00, 0x03, 0x00, 0x00, 0x00,
  0x46, 0xFF, 0xFF, 0xFF, 0x01, 0x00, 0x00, 0x00, 0x10, 0x00,
  0x00, 0x00, 0x04, 0x00, 0x00, 0x00, 0x01, 0x00, 0x00, 0x00,
  0x0A, 0x00, 0x00, 0x00, 0x02, 0x00, 0x00, 0x00, 0x09, 0x00,
  0x00, 0x00, 0x04, 0x00, 0x00, 0x00, 0xC2, 0xFF, 0xFF, 0xFF,
  0x00, 0x00, 0x00, 0x01, 0x24, 0x00, 0x00, 0x00, 0x18, 0x00,
  0x00, 0x00, 0x04, 0x00, 0x00, 0x00, 0xB4, 0xFF, 0xFF, 0xFF,
  0x00, 0x00, 0x01, 0x01, 0x01, 0x00, 0x00, 0x00, 0x01, 0x00,
  0x00, 0x00, 0x01, 0x00, 0x00, 0x00, 0x09, 0x00, 0x00, 0x00,
  0x03, 0x00, 0x00, 0x00, 0x08, 0x00, 0x00, 0x00, 0x07, 0x00,
  0x00, 0x00, 0x02, 0x00, 0x00, 0x00, 0x00, 0x00, 0x0E, 0x00,
  0x14, 0x00, 0x00, 0x00, 0x08, 0x00, 0x0C, 0x00, 0x07, 0x00,
  0x10, 0x00, 0x0E, 0x00, 0x00, 0x00, 0x00, 0x00, 0x00, 0x01,
  0x30, 0x00, 0x00, 0x00, 0x24, 0x00, 0x00, 0x00, 0x10, 0x00,
  0x00, 0x00, 0x0C, 0x00, 0x10, 0x00, 0x06, 0x00, 0x08, 0x00,
  0x0C, 0x00, 0x07, 0x00, 0x0C, 0x00, 0x00, 0x00, 0x00, 0x00,
  0x01, 0x01, 0x04, 0x00, 0x00, 0x00, 0x04, 0x00, 0x00, 0x00,
  0x01, 0x00, 0x00, 0x00, 0x08, 0x00, 0x00, 0x00, 0x03, 0x00,
  0x00, 0x00, 0x00, 0x00, 0x00, 0x00, 0x06, 0x00, 0x00, 0x00,
  0x01, 0x00, 0x00, 0x00, 0x00, 0x00, 0x0A, 0x00, 0x10, 0x00,
  0x04, 0x00, 0x08, 0x00, 0x0C, 0x00, 0x0A, 0x00, 0x00, 0x00,
  0x04, 0x00, 0x00, 0x00, 0x10, 0x00, 0x00, 0x00, 0x04, 0x00,
  0x00, 0x00, 0x01, 0x00, 0x00, 0x00, 0x00, 0x00, 0x00, 0x00,
  0x01, 0x00, 0x00, 0x00, 0x0D, 0x00, 0x00, 0x00, 0x01, 0x00,
  0x00, 0x00, 0x0E, 0x00, 0x00, 0x00, 0x01, 0x00, 0x00, 0x00,
  0x0D, 0x00, 0x00, 0x00, 0x0F, 0x00, 0x00, 0x00, 0xEC, 0x0D,
  0x00, 0x00, 0x58, 0x0C, 0x00, 0x00, 0x70, 0x0A, 0x00, 0x00,
  0xF4, 0x09, 0x00, 0x00, 0xA8, 0x09, 0x00, 0x00, 0x2C, 0x09,
  0x00, 0x00, 0x00, 0x07, 0x00, 0x00, 0x34, 0x04, 0x00, 0x00,
  0x40, 0x03, 0x00, 0x00, 0x4C, 0x02, 0x00, 0x00, 0xB8, 0x01,
  0x00, 0x00, 0x0C, 0x01, 0x00, 0x00, 0xA0, 0x00, 0x00, 0x00,
  0x54, 0x00, 0x00, 0x00, 0x04, 0x00, 0x00, 0x00, 0xC8, 0xFF,
  0xFF, 0xFF, 0x28, 0x00, 0x00, 0x00, 0x14, 0x00, 0x00, 0x00,
  0x04, 0x00, 0x00, 0x00, 0x02, 0x00, 0x00, 0x00, 0xFF, 0xFF,
  0xFF, 0xFF, 0x0A, 0x00, 0x00, 0x00, 0x08, 0x00, 0x00, 0x00,
  0x49, 0x64, 0x65, 0x6E, 0x74, 0x69, 0x74, 0x79, 0x00, 0x00,
  0x00, 0x00, 0x02, 0x00, 0x00, 0x00, 0x01, 0x00, 0x00, 0x00,
  0x0A, 0x00, 0x00, 0x00, 0x14, 0x00, 0x10, 0x00, 0x04, 0x00,
  0x00, 0x00, 0x00, 0x00, 0x08, 0x00, 0x00, 0x00, 0x00, 0x00,
  0x00, 0x00, 0x0C, 0x00, 0x14, 0x00, 0x00, 0x00, 0x30, 0x00,
  0x00, 0x00, 0x1C, 0x00, 0x00, 0x00, 0x04, 0x00, 0x00, 0x00,
  0x04, 0x00, 0x00, 0x00, 0xFF, 0xFF, 0xFF, 0xFF, 0x1C, 0x00,
  0x00, 0x00, 0x1C, 0x00, 0x00, 0x00, 0x01, 0x00, 0x00, 0x00,
  0x0B, 0x00, 0x00, 0x00, 0x63, 0x6F, 0x6E, 0x76, 0x31, 0x5F,
  0x69, 0x6E, 0x70, 0x75, 0x74, 0x00, 0x04, 0x00, 0x00, 0x00,
  0x01, 0x00, 0x00, 0x00, 0x1C, 0x00, 0x00, 0x00, 0x1C, 0x00,
  0x00, 0x00, 0x01, 0x00, 0x00, 0x00, 0xF8, 0xF2, 0xFF, 0xFF,
  0x00, 0x00, 0x00, 0x09, 0x54, 0x00, 0x00, 0x00, 0x0D, 0x00,
  0x00, 0x00, 0x38, 0x00, 0x00, 0x00, 0x14, 0x00, 0x00, 0x00,
  0x04, 0x00, 0x00, 0x00, 0x02, 0x00, 0x00, 0x00, 0xFF, 0xFF,
  0xFF, 0xFF, 0x0A, 0x00, 0x00, 0x00, 0x84, 0xF4, 0xFF, 0xFF,
  0x14, 0x00, 0x00, 0x00, 0x04, 0x00, 0x00, 0x00, 0x01, 0x00,
  0x00, 0x00, 0x80, 0xFF, 0xFF, 0xFF, 0xFF, 0xFF, 0xFF, 0xFF,
  0x01, 0x00, 0x00, 0x00, 0x00, 0x00, 0x80, 0x3B, 0x0D, 0x00,
  0x00, 0x00, 0x49, 0x64, 0x65, 0x6E, 0x74, 0x69, 0x74, 0x79,
  0x5F, 0x69, 0x6E, 0x74, 0x38, 0x00, 0x00, 0x00, 0x02, 0x00,
  0x00, 0x00, 0x01, 0x00, 0x00, 0x00, 0x0A, 0x00, 0x00, 0x00,
  0x60, 0xF3, 0xFF, 0xFF, 0x00, 0x00, 0x00, 0x09, 0x94, 0x00,
  0x00, 0x00, 0x0C, 0x00, 0x00, 0x00, 0x54, 0x00, 0x00, 0x00,
  0x14, 0x00, 0x00, 0x00, 0x04, 0x00, 0x00, 0x00, 0x02, 0x00,
  0x00, 0x00, 0xFF, 0xFF, 0xFF, 0xFF, 0x0A, 0x00, 0x00, 0x00,
  0x44, 0xF3, 0xFF, 0xFF, 0x30, 0x00, 0x00, 0x00, 0x24, 0x00,
  0x00, 0x00, 0x18, 0x00, 0x00, 0x00, 0x04, 0x00, 0x00, 0x00,
  0x01, 0x00, 0x00, 0x00, 0x08, 0x00, 0x00, 0x00, 0x00, 0x00,
  0x00, 0x00, 0x00, 0x00, 0x00, 0x00, 0x01, 0x00, 0x00, 0x00,
  0xA7, 0xC2, 0xE9, 0x3D, 0x01, 0x00, 0x00, 0x00, 0xDB, 0xFA,
  0x58, 0x41, 0x01, 0x00, 0x00, 0x00, 0xED, 0xB6, 0x78, 0xC1,
  0x30, 0x00, 0x00, 0x00, 0x6D, 0x6F, 0x64, 0x65, 0x6C, 0x5F,
  0x32, 0x32, 0x2F, 0x64, 0x65, 0x6E, 0x73, 0x65, 0x5F, 0x31,
  0x2F, 0x4D, 0x61, 0x74, 0x4D, 0x75, 0x6C, 0x3B, 0x6D, 0x6F,
  0x64, 0x65, 0x6C, 0x5F, 0x32, 0x32, 0x2F, 0x64, 0x65, 0x6E,
  0x73, 0x65, 0x5F, 0x31, 0x2F, 0x42, 0x69, 0x61, 0x73, 0x41,
  0x64, 0x64, 0x00, 0x00, 0x00, 0x00, 0x02, 0x00, 0x00, 0x00,
  0x01, 0x00, 0x00, 0x00, 0x0A, 0x00, 0x00, 0x00, 0x08, 0xF4,
  0xFF, 0xFF, 0x00, 0x00, 0x00, 0x09, 0x7C, 0x00, 0x00, 0x00,
  0x0B, 0x00, 0x00, 0x00, 0x54, 0x00, 0x00, 0x00, 0x14, 0x00,
  0x00, 0x00, 0x04, 0x00, 0x00, 0x00, 0x02, 0x00, 0x00, 0x00,
  0xFF, 0xFF, 0xFF, 0xFF, 0x78, 0x00, 0x00, 0x00, 0xEC, 0xF3,
  0xFF, 0xFF, 0x30, 0x00, 0x00, 0x00, 0x24, 0x00, 0x00, 0x00,
  0x18, 0x00, 0x00, 0x00, 0x04, 0x00, 0x00, 0x00, 0x01, 0x00,
  0x00, 0x00, 0x80, 0xFF, 0xFF, 0xFF, 0xFF, 0xFF, 0xFF, 0xFF,
  0x00, 0x00, 0x00, 0x00, 0x01, 0x00, 0x00, 0x00, 0x9B, 0x3A,
  0x08, 0x3D, 0x01, 0x00, 0x00, 0x00, 0x60, 0xB2, 0x07, 0x41,
  0x01, 0x00, 0x00, 0x00, 0x00, 0x00, 0x00, 0x00, 0x1A, 0x00,
  0x00, 0x00, 0x6D, 0x6F, 0x64, 0x65, 0x6C, 0x5F, 0x32, 0x32,
  0x2F, 0x66, 0x6C, 0x61, 0x74, 0x74, 0x65, 0x6E, 0x5F, 0x31,
  0x2F, 0x52, 0x65, 0x73, 0x68, 0x61, 0x70, 0x65, 0x00, 0x00,
  0x02, 0x00, 0x00, 0x00, 0x01, 0x00, 0x00, 0x00, 0x78, 0x00,
  0x00, 0x00, 0x98, 0xF4, 0xFF, 0xFF, 0x00, 0x00, 0x00, 0x09,
  0xD4, 0x00, 0x00, 0x00, 0x0A, 0x00, 0x00, 0x00, 0x58, 0x00,
  0x00, 0x00, 0x1C, 0x00, 0x00, 0x00, 0x04, 0x00, 0x00, 0x00,
  0x04, 0x00, 0x00, 0x00, 0xFF, 0xFF, 0xFF, 0xFF, 0x02, 0x00,
  0x00, 0x00, 0x02, 0x00, 0x00, 0x00, 0x1E, 0x00, 0x00, 0x00,
  0x84, 0xF4, 0xFF, 0xFF, 0x2C, 0x00, 0x00, 0x00, 0x20, 0x00,
  0x00, 0x00, 0x14, 0x00, 0x00, 0x00, 0x04, 0x00, 0x00, 0x00,
  0x01, 0x00, 0x00, 0x00, 0x80, 0xFF, 0xFF, 0xFF, 0xFF, 0xFF,
  0xFF, 0xFF, 0x01, 0x00, 0x00, 0x00, 0x9B, 0x3A, 0x08, 0x3D,
  0x01, 0x00, 0x00, 0x00, 0x60, 0xB2, 0x07, 0x41, 0x01, 0x00,
  0x00, 0x00, 0x00, 0x00, 0x00, 0x00, 0x6F, 0x00, 0x00, 0x00,
  0x6D, 0x6F, 0x64, 0x65, 0x6C, 0x5F, 0x32, 0x32, 0x2F, 0x63,
  0x6F, 0x6E, 0x76, 0x32, 0x2F, 0x52, 0x65, 0x6C, 0x75, 0x3B,
  0x6D, 0x6F, 0x64, 0x65, 0x6C, 0x5F, 0x32, 0x32, 0x2F, 0x63,
  0x6F, 0x6E, 0x76, 0x32, 0x2F, 0x42, 0x69, 0x61, 0x73, 0x41,
  0x64, 0x64, 0x3B, 0x6D, 0x6F, 0x64, 0x65, 0x6C, 0x5F, 0x32,
  0x32, 0x2F, 0x63, 0x6F, 0x6E, 0x76, 0x32, 0x2F, 0x43, 0x6F,
  0x6E, 0x76, 0x32, 0x44, 0x3B, 0x6D, 0x6F, 0x64, 0x65, 0x6C,
  0x5F, 0x32, 0x32, 0x2F, 0x63, 0x6F, 0x6E, 0x76, 0x32, 0x2F,
  0x42, 0x69, 0x61, 0x73, 0x41, 0x64, 0x64, 0x2F, 0x52, 0x65,
  0x61, 0x64, 0x56, 0x61, 0x72, 0x69, 0x61, 0x62, 0x6C, 0x65,
  0x4F, 0x70, 0x2F, 0x72, 0x65, 0x73, 0x6F, 0x75, 0x72, 0x63,
  0x65, 0x00, 0x04, 0x00, 0x00, 0x00, 0x01, 0x00, 0x00, 0x00,
  0x02, 0x00, 0x00, 0x00, 0x02, 0x00, 0x00, 0x00, 0x1E, 0x00,
  0x00, 0x00, 0x88, 0xF5, 0xFF, 0xFF, 0x00, 0x00, 0x00, 0x09,
  0xD4, 0x00, 0x00, 0x00, 0x09, 0x00, 0x00, 0x00, 0x58, 0x00,
  0x00, 0x00, 0x1C, 0x00, 0x00, 0x00, 0x04, 0x00, 0x00, 0x00,
  0x04, 0x00, 0x00, 0x00, 0xFF, 0xFF, 0xFF, 0xFF, 0x04, 0x00,
  0x00, 0x00, 0x04, 0x00, 0x00, 0x00, 0x16, 0x00, 0x00, 0x00,
  0x74, 0xF5, 0xFF, 0xFF, 0x2C, 0x00, 0x00, 0x00, 0x20, 0x00,
  0x00, 0x00, 0x14, 0x00, 0x00, 0x00, 0x04, 0x00, 0x00, 0x00,
  0x01, 0x00, 0x00, 0x00, 0x80, 0xFF, 0xFF, 0xFF, 0xFF, 0xFF,
  0xFF, 0xFF, 0x01, 0x00, 0x00, 0x00, 0xB4, 0x5E, 0xC4, 0x3C,
  0x01, 0x00, 0x00, 0x00, 0x55, 0x9A, 0xC3, 0x40, 0x01, 0x00,
  0x00, 0x00, 0x00, 0x00, 0x00, 0x00, 0x6F, 0x00, 0x00, 0x00,
  0x6D, 0x6F, 0x64, 0x65, 0x6C, 0x5F, 0x32, 0x32, 0x2F, 0x63,
  0x6F, 0x6E, 0x76, 0x31, 0x2F, 0x52, 0x65, 0x6C, 0x75, 0x3B,
  0x6D, 0x6F, 0x64, 0x65, 0x6C, 0x5F, 0x32, 0x32, 0x2F, 0x63,
  0x6F, 0x6E, 0x76, 0x31, 0x2F, 0x42, 0x69, 0x61, 0x73, 0x41,
  0x64, 0x64, 0x3B, 0x6D, 0x6F, 0x64, 0x65, 0x6C, 0x5F, 0x32,
  0x32, 0x2F, 0x63, 0x6F, 0x6E, 0x76, 0x31, 0x2F, 0x43, 0x6F,
  0x6E, 0x76, 0x32, 0x44, 0x3B, 0x6D, 0x6F, 0x64, 0x65, 0x6C,
  0x5F, 0x32, 0x32, 0x2F, 0x63, 0x6F, 0x6E, 0x76, 0x31, 0x2F,
  0x42, 0x69, 0x61, 0x73, 0x41, 0x64, 0x64, 0x2F, 0x52, 0x65,
  0x61, 0x64, 0x56, 0x61, 0x72, 0x69, 0x61, 0x62, 0x6C, 0x65,
  0x4F, 0x70, 0x2F, 0x72, 0x65, 0x73, 0x6F, 0x75, 0x72, 0x63,
  0x65, 0x00, 0x04, 0x00, 0x00, 0x00, 0x01, 0x00, 0x00, 0x00,
  0x04, 0x00, 0x00, 0x00, 0x04, 0x00, 0x00, 0x00, 0x16, 0x00,
  0x00, 0x00, 0x02, 0xF8, 0xFF, 0xFF, 0x00, 0x00, 0x00, 0x09,
  0xAC, 0x02, 0x00, 0x00, 0x08, 0x00, 0x00, 0x00, 0x88, 0x02,
  0x00, 0x00, 0x04, 0x00, 0x00, 0x00, 0x4C, 0xF6, 0xFF, 0xFF,
  0x00, 0x02, 0x00, 0x00, 0x80, 0x01, 0x00, 0x00, 0x00, 0x01,
  0x00, 0x00, 0x04, 0x00, 0x00, 0x00, 0x1E, 0x00, 0x00, 0x00,
  0x00, 0x00, 0x00, 0x00, 0x00, 0x00, 0x00, 0x00, 0x00, 0x00,
  0x00, 0x00, 0x00, 0x00, 0x00, 0x00, 0x00, 0x00, 0x00, 0x00,
  0x00, 0x00, 0x00, 0x00, 0x00, 0x00, 0x00, 0x00, 0x00, 0x00,
  0x00, 0x00, 0x00, 0x00, 0x00, 0x00, 0x00, 0x00, 0x00, 0x00,
  0x00, 0x00, 0x00, 0x00, 0x00, 0x00, 0x00, 0x00, 0x00, 0x00,
  0x00, 0x00, 0x00, 0x00, 0x00, 0x00, 0x00, 0x00, 0x00, 0x00,
  0x00, 0x00, 0x00, 0x00, 0x00, 0x00, 0x00, 0x00, 0x00, 0x00,
  0x00, 0x00, 0x00, 0x00, 0x00, 0x00, 0x00, 0x00, 0x00, 0x00,
  0x00, 0x00, 0x00, 0x00, 0x00, 0x00, 0x00, 0x00, 0x00, 0x00,
  0x00, 0x00, 0x00, 0x00, 0x00, 0x00, 0x00, 0x00, 0x00, 0x00,
  0x00, 0x00, 0x00, 0x00, 0x00, 0x00, 0x00, 0x00, 0x00, 0x00,
  0x00, 0x00, 0x00, 0x00, 0x00, 0x00, 0x00, 0x00, 0x00, 0x00,
  0x00, 0x00, 0x00, 0x00, 0x00, 0x00, 0x00, 0x00, 0x00, 0x00,
  0x00, 0x00, 0x00, 0x00, 0x00, 0x00, 0x00, 0x00, 0x00, 0x00,
  0x00, 0x00, 0x00, 0x00, 0x00, 0x00, 0x00, 0x00, 0x00, 0x00,
  0x00, 0x00, 0x00, 0x00, 0x00, 0x00, 0x00, 0x00, 0x00, 0x00,
  0x00, 0x00, 0x00, 0x00, 0x00, 0x00, 0x00, 0x00, 0x00, 0x00,
  0x00, 0x00, 0x00, 0x00, 0x00, 0x00, 0x00, 0x00, 0x00, 0x00,
  0x00, 0x00, 0x00, 0x00, 0x00, 0x00, 0x00, 0x00, 0x00, 0x00,
  0x00, 0x00, 0x00, 0x00, 0x00, 0x00, 0x00, 0x00, 0x00, 0x00,
  0x00, 0x00, 0x00, 0x00, 0x00, 0x00, 0x00, 0x00, 0x00, 0x00,
  0x00, 0x00, 0x00, 0x00, 0x00, 0x00, 0x00, 0x00, 0x00, 0x00,
  0x00, 0x00, 0x00, 0x00, 0x00, 0x00, 0x00, 0x00, 0x00, 0x00,
  0x00, 0x00, 0x00, 0x00, 0x00, 0x00, 0x00, 0x00, 0x00, 0x00,
  0x00, 0x00, 0x00, 0x00, 0x1E, 0x00, 0x00, 0x00, 0xA6, 0xF1,
  0xEA, 0x3A, 0x15, 0xD5, 0x0E, 0x3B, 0xA1, 0x93, 0x49, 0x3B,
  0x85, 0x94, 0x04, 0x3B, 0x78, 0xD8, 0x40, 0x3B, 0xDC, 0x6C,
  0x12, 0x3B, 0x1D, 0x49, 0xD2, 0x3A, 0x96, 0x3B, 0x46, 0x3B,
  0x5F, 0x61, 0x03, 0x3B, 0xB4, 0xA8, 0xEE, 0x3A, 0x73, 0x74,
  0xB4, 0x3A, 0x78, 0x53, 0x1D, 0x3B, 0xCB, 0x82, 0xFF, 0x3A,
  0x80, 0xF4, 0x25, 0x3B, 0x43, 0x14, 0x06, 0x3B, 0x6F, 0x44,
  0xDC, 0x3A, 0x3C, 0x69, 0xCA, 0x3A, 0xF3, 0xB5, 0x11, 0x3B,
  0x97, 0x80, 0xEB, 0x3A, 0xCC, 0xC6, 0xCB, 0x3A, 0x3E, 0x01,
  0x02, 0x3B, 0xF3, 0x8D, 0x03, 0x3B, 0xE1, 0x1F, 0xFF, 0x3A,
  0xDE, 0x43, 0xE6, 0x3A, 0x11, 0x0A, 0xEC, 0x3A, 0x8D, 0xED,
  0x11, 0x3B, 0x9D, 0x6A, 0xFE, 0x3A, 0x68, 0xFA, 0xD3, 0x3A,
  0x59, 0x60, 0x21, 0x3B, 0x9C, 0xC7, 0xD2, 0x3A, 0x1E, 0x00,
  0x00, 0x00, 0xC3, 0x1B, 0x69, 0x3E, 0x6B, 0xB7, 0x8D, 0x3E,
  0xB7, 0xA3, 0x5D, 0x3E, 0xC3, 0x70, 0x70, 0x3E, 0x93, 0x17,
  0x77, 0x3E, 0x01, 0x86, 0x69, 0x3E, 0x50, 0x1F, 0x4A, 0x3E,
  0x1F, 0xAF, 0xC4, 0x3E, 0x2D, 0xC6, 0x50, 0x3E, 0x73, 0x08,
  0x48, 0x3E, 0x8A, 0x0B, 0x33, 0x3E, 0xD1, 0x18, 0x9C, 0x3E,
  0xC5, 0x83, 0x7D, 0x3E, 0x6A, 0x38, 0x75, 0x3E, 0xA0, 0xA3,
  0x67, 0x3E, 0xE6, 0x8B, 0x5A, 0x3E, 0x6A, 0xD4, 0x48, 0x3E,
  0x87, 0x92, 0x90, 0x3E, 0x96, 0xA9, 0x69, 0x3E, 0x3E, 0x2F,
  0x4A, 0x3E, 0x3C, 0xFD, 0x80, 0x3E, 0x8B, 0x4A, 0x6F, 0x3E,
  0x96, 0xE1, 0x3B, 0x3E, 0x62, 0x7B, 0x53, 0x3E, 0xFD, 0x31,
  0x6A, 0x3E, 0x0E, 0x0C, 0x8D, 0x3E, 0x6D, 0x07, 0x3C, 0x3E,
  0x73, 0x52, 0x52, 0x3E, 0x98, 0x1D, 0xA0, 0x3E, 0x0D, 0x22,
  0x51, 0x3E, 0x1E, 0x00, 0x00, 0x00, 0x11, 0x07, 0x62, 0xBE,
  0xDD, 0x8A, 0x3C, 0xBE, 0x7A, 0x00, 0xC8, 0xBE, 0x5C, 0x8B,
  0x83, 0xBE, 0xC7, 0x56, 0xBF, 0xBE, 0x02, 0x48, 0x91, 0xBE,
  0x8B, 0xA4, 0x50, 0xBE, 0x28, 0xD1, 0x52, 0xBE, 0x9C, 0x5A,
  0x82, 0xBE, 0x63, 0xCB, 0x6C, 0xBE, 0x21, 0x7F, 0x32, 0xBE,
  0x06, 0x21, 0x88, 0xBE, 0x3D, 0x2D, 0x5A, 0xBE, 0x97, 0xA8,
  0xA4, 0xBE, 0x1A, 0x08, 0x85, 0xBE, 0x76, 0x3B, 0x59, 0xBE,
  0x78, 0xF9, 0x45, 0xBE, 0x92, 0x11, 0x61, 0xBE, 0x29, 0x0D,
  0x3E, 0xBE, 0x55, 0x5E, 0x47, 0xBE, 0xD2, 0x6B, 0x47, 0xBE,
  0xD7, 0x86, 0x82, 0xBE, 0xA1, 0x21, 0x7D, 0xBE, 0x56, 0x77,
  0x64, 0xBE, 0x0A, 0xAF, 0x45, 0xBE, 0xB2, 0xC9, 0x90, 0xBE,
  0xC8, 0x6D, 0x7C, 0xBE, 0xF6, 0x3C, 0x3C, 0xBE, 0xE8, 0x60,
  0x30, 0xBE, 0x6D, 0xF6, 0x34, 0xBE, 0x15, 0x00, 0x00, 0x00,
  0x6D, 0x6F, 0x64, 0x65, 0x6C, 0x5F, 0x32, 0x32, 0x2F, 0x63,
  0x6F, 0x6E, 0x76, 0x32, 0x2F, 0x43, 0x6F, 0x6E, 0x76, 0x32,
  0x44, 0x00, 0x00, 0x00, 0x04, 0x00, 0x00, 0x00, 0x1E, 0x00,
  0x00, 0x00, 0x03, 0x00, 0x00, 0x00, 0x03, 0x00, 0x00, 0x00,
  0x16, 0x00, 0x00, 0x00, 0xCA, 0xFA, 0xFF, 0xFF, 0x00, 0x00,
  0x00, 0x09, 0x0C, 0x02, 0x00, 0x00, 0x07, 0x00, 0x00, 0x00,
  0xE8, 0x01, 0x00, 0x00, 0x04, 0x00, 0x00, 0x00, 0x14, 0xF9,
  0xFF, 0xFF, 0x80, 0x01, 0x00, 0x00, 0x20, 0x01, 0x00, 0x00,
  0xC0, 0x00, 0x00, 0x00, 0x04, 0x00, 0x00, 0x00, 0x16, 0x00,
  0x00, 0x00, 0x00, 0x00, 0x00, 0x00, 0x00, 0x00, 0x00, 0x00,
  0x00, 0x00, 0x00, 0x00, 0x00, 0x00, 0x00, 0x00, 0x00, 0x00,
  0x00, 0x00, 0x00, 0x00, 0x00, 0x00, 0x00, 0x00, 0x00, 0x00,
  0x00, 0x00, 0x00, 0x00, 0x00, 0x00, 0x00, 0x00, 0x00, 0x00,
  0x00, 0x00, 0x00, 0x00, 0x00, 0x00, 0x00, 0x00, 0x00, 0x00,
  0x00, 0x00, 0x00, 0x00, 0x00, 0x00, 0x00, 0x00, 0x00, 0x00,
  0x00, 0x00, 0x00, 0x00, 0x00, 0x00, 0x00, 0x00, 0x00, 0x00,
  0x00, 0x00, 0x00, 0x00, 0x00, 0x00, 0x00, 0x00, 0x00, 0x00,
  0x00, 0x00, 0x00, 0x00, 0x00, 0x00, 0x00, 0x00, 0x00, 0x00,
  0x00, 0x00, 0x00, 0x00, 0x00, 0x00, 0x00, 0x00, 0x00, 0x00,
  0x00, 0x00, 0x00, 0x00, 0x00, 0x00, 0x00, 0x00, 0x00, 0x00,
  0x00, 0x00, 0x00, 0x00, 0x00, 0x00, 0x00, 0x00, 0x00, 0x00,
  0x00, 0x00, 0x00, 0x00, 0x00, 0x00, 0x00, 0x00, 0x00, 0x00,
  0x00, 0x00, 0x00, 0x00, 0x00, 0x00, 0x00, 0x00, 0x00, 0x00,
  0x00, 0x00, 0x00, 0x00, 0x00, 0x00, 0x00, 0x00, 0x00, 0x00,
  0x00, 0x00, 0x00, 0x00, 0x00, 0x00, 0x00, 0x00, 0x00, 0x00,
  0x00, 0x00, 0x00, 0x00, 0x00, 0x00, 0x00, 0x00, 0x00, 0x00,
  0x00, 0x00, 0x00, 0x00, 0x00, 0x00, 0x00, 0x00, 0x00, 0x00,
  0x00, 0x00, 0x16, 0x00, 0x00, 0x00, 0x6A, 0xC9, 0x93, 0x3A,
  0xDD, 0x7B, 0x28, 0x3B, 0x7C, 0x53, 0x38, 0x3B, 0x6C, 0xCC,
  0x03, 0x3B, 0x96, 0xA8, 0x38, 0x3B, 0xCC, 0x35, 0xFC, 0x3A,
  0xC2, 0xF8, 0xE2, 0x3A, 0x12, 0x9D, 0xD8, 0x3A, 0xE5, 0x56,
  0xBE, 0x3A, 0xEF, 0xB7, 0xE0, 0x3A, 0x9A, 0xC2, 0x28, 0x3B,
  0x34, 0xE4, 0xB1, 0x3A, 0xD7, 0xD9, 0x0A, 0x3B, 0x83, 0xEC,
  0xB9, 0x3A, 0x99, 0x3E, 0x01, 0x3B, 0x65, 0x76, 0xFE, 0x3A,
